{
  "version": "1.0",
  "truncation": null,
  "padding": null,
  "added_tokens": [
    {
      "id": 0,
      "content": "[UNK]",
      "single_word": false,
      "lstrip": false,
      "rstrip": false,
      "normalized": false,
      "special": true
    }
  ],
  "normalizer": {
    "type": "NFKC"
  },
  "pre_tokenizer": {
    "type": "Sequence",
    "pretokenizers": [
      {
        "type": "Metaspace",
        "replacement": "▁",
        "prepend_scheme": "always",
        "split": true
      },
      {
        "type": "Split",
        "pattern": {
          "Regex": "\\d{1,3}"
        },
        "behavior": "Isolated",
        "invert": false
      }
    ]
  },
  "post_processor": null,
  "decoder": {
    "type": "Metaspace",
    "replacement": "▁",
    "prepend_scheme": "always",
    "split": true
  },
  "model": {
    "type": "BPE",
    "dropout": null,
    "unk_token": "[UNK]",
    "continuing_subword_prefix": null,
    "end_of_word_suffix": null,
    "fuse_unk": false,
    "byte_fallback": false,
    "ignore_merges": false,
    "vocab": {
      "[UNK]": 0,
      "\n": 1,
      "\"": 2,
      "$": 3,
      "%": 4,
      "&": 5,
      "'": 6,
      "(": 7,
      ")": 8,
      "+": 9,
      ",": 10,
      "-": 11,
      ".": 12,
      "/": 13,
      "0": 14,
      "1": 15,
      "2": 16,
      "3": 17,
      "4": 18,
      "5": 19,
      "6": 20,
      "7": 21,
      "8": 22,
      "9": 23,
      ":": 24,
      ";": 25,
      "=": 26,
      "?": 27,
      "A": 28,
      "B": 29,
      "C": 30,
      "D": 31,
      "E": 32,
      "F": 33,
      "G": 34,
      "H": 35,
      "I": 36,
      "J": 37,
      "K": 38,
      "L": 39,
      "M": 40,
      "N": 41,
      "O": 42,
      "P": 43,
      "Q": 44,
      "R": 45,
      "S": 46,
      "T": 47,
      "U": 48,
      "V": 49,
      "W": 50,
      "Y": 51,
      "Z": 52,
      "[": 53,
      "]": 54,
      "^": 55,
      "a": 56,
      "b": 57,
      "c": 58,
      "d": 59,
      "e": 60,
      "f": 61,
      "g": 62,
      "h": 63,
      "i": 64,
      "j": 65,
      "k": 66,
      "l": 67,
      "m": 68,
      "n": 69,
      "o": 70,
      "p": 71,
      "q": 72,
      "r": 73,
      "s": 74,
      "t": 75,
      "u": 76,
      "v": 77,
      "w": 78,
      "x": 79,
      "y": 80,
      "z": 81,
      "|": 82,
      "°": 83,
      "Ö": 84,
      "á": 85,
      "â": 86,
      "í": 87,
      "ā": 88,
      "ī": 89,
      "Ś": 90,
      "ū": 91,
      "ə": 92,
      "ɦ": 93,
      "ɪ": 94,
      "ɾ": 95,
      "ʊ": 96,
      "ˈ": 97,
      "ː": 98,
      "Ι": 99,
      "ί": 100,
      "α": 101,
      "δ": 102,
      "ν": 103,
      "ο": 104,
      "ς": 105,
      "ό": 106,
      "ँ": 107,
      "ं": 108,
      "ः": 109,
      "अ": 110,
      "आ": 111,
      "इ": 112,
      "ई": 113,
      "उ": 114,
      "ऊ": 115,
      "ऋ": 116,
      "ऍ": 117,
      "ए": 118,
      "ऐ": 119,
      "ऑ": 120,
      "ओ": 121,
      "औ": 122,
      "क": 123,
      "ख": 124,
      "ग": 125,
      "घ": 126,
      "च": 127,
      "छ": 128,
      "ज": 129,
      "झ": 130,
      "ञ": 131,
      "ट": 132,
      "ठ": 133,
      "ड": 134,
      "ढ": 135,
      "ण": 136,
      "त": 137,
      "थ": 138,
      "द": 139,
      "ध": 140,
      "न": 141,
      "प": 142,
      "फ": 143,
      "ब": 144,
      "भ": 145,
      "म": 146,
      "य": 147,
      "र": 148,
      "ल": 149,
      "व": 150,
      "श": 151,
      "ष": 152,
      "स": 153,
      "ह": 154,
      "़": 155,
      "ऽ": 156,
      "ा": 157,
      "ि": 158,
      "ी": 159,
      "ु": 160,
      "ू": 161,
      "ृ": 162,
      "े": 163,
      "ै": 164,
      "ॉ": 165,
      "ो": 166,
      "ौ": 167,
      "्": 168,
      "।": 169,
      "०": 170,
      "१": 171,
      "२": 172,
      "३": 173,
      "४": 174,
      "५": 175,
      "६": 176,
      "७": 177,
      "८": 178,
      "९": 179,
      "॰": 180,
      "ం": 181,
      "ః": 182,
      "అ": 183,
      "ఆ": 184,
      "ఇ": 185,
      "ఈ": 186,
      "ఉ": 187,
      "ఋ": 188,
      "ఎ": 189,
      "ఏ": 190,
      "ఐ": 191,
      "ఒ": 192,
      "ఓ": 193,
      "ఔ": 194,
      "క": 195,
      "ఖ": 196,
      "గ": 197,
      "ఘ": 198,
      "చ": 199,
      "ఛ": 200,
      "జ": 201,
      "ఞ": 202,
      "ట": 203,
      "ఠ": 204,
      "డ": 205,
      "ఢ": 206,
      "ణ": 207,
      "త": 208,
      "థ": 209,
      "ద": 210,
      "ధ": 211,
      "న": 212,
      "ప": 213,
      "ఫ": 214,
      "బ": 215,
      "భ": 216,
      "మ": 217,
      "య": 218,
      "ర": 219,
      "ల": 220,
      "ళ": 221,
      "వ": 222,
      "శ": 223,
      "ష": 224,
      "స": 225,
      "హ": 226,
      "ా": 227,
      "ి": 228,
      "ీ": 229,
      "ు": 230,
      "ూ": 231,
      "ృ": 232,
      "ె": 233,
      "ే": 234,
      "ై": 235,
      "ొ": 236,
      "ో": 237,
      "ౌ": 238,
      "్": 239,
      "ṅ": 240,
      "ṇ": 241,
      "ṣ": 242,
      "ṭ": 243,
      "Ἰ": 244,
      "–": 245,
      "—": 246,
      "‘": 247,
      "’": 248,
      "†": 249,
      "′": 250,
      "₹": 251,
      "▁": 252,
      "▁t": 253,
      "an": 254,
      "he": 255,
      "in": 256,
      "▁क": 257,
      "▁the": 258,
      "on": 259,
      "er": 260,
      "▁स": 261,
      "re": 262,
      "al": 263,
      "▁o": 264,
      "st": 265,
      "at": 266,
      "en": 267,
      "▁म": 268,
      "di": 269,
      "ar": 270,
      "▁के": 271,
      "▁I": 272,
      "and": 273,
      "▁c": 274,
      "ed": 275,
      "▁In": 276,
      "ार": 277,
      "▁a": 278,
      "▁of": 279,
      "▁in": 280,
      "it": 281,
      "▁w": 282,
      "▁s": 283,
      "▁प": 284,
      "▁and": 285,
      "ें": 286,
      "▁ह": 287,
      "्र": 288,
      "or": 289,
      "▁b": 290,
      "▁Indi": 291,
      "▁p": 292,
      "ion": 293,
      "es": 294,
      "▁m": 295,
      "▁भ": 296,
      "▁में": 297,
      "▁f": 298,
      "ic": 299,
      "▁ब": 300,
      "▁ప": 301,
      "్ర": 302,
      "is": 303,
      "ing": 304,
      "as": 305,
      "ార": 306,
      "▁l": 307,
      "ent": 308,
      "▁India": 309,
      "om": 310,
      "्य": 311,
      "ాల": 312,
      "▁ज": 313,
      "ou": 314,
      "▁e": 315,
      "ारत": 316,
      "▁भारत": 317,
      "▁to": 318,
      "▁T": 319,
      "▁अ": 320,
      "▁आ": 321,
      "▁స": 322,
      "▁द": 323,
      "▁र": 324,
      "▁न": 325,
      "▁క": 326,
      "र्": 327,
      "▁d": 328,
      "ur": 329,
      "▁है": 330,
      "ly": 331,
      "ान": 332,
      "▁h": 333,
      "िक": 334,
      "▁వ": 335,
      "లో": 336,
      "▁A": 337,
      "il": 338,
      "ec": 339,
      "్య": 340,
      "▁व": 341,
      "▁re": 342,
      "▁C": 343,
      "▁n": 344,
      "▁భ": 345,
      "ाल": 346,
      "▁మ": 347,
      "▁g": 348,
      "ra": 349,
      "िय": 350,
      "19": 351,
      "ri": 352,
      "th": 353,
      "న్": 354,
      "्त": 355,
      "ol": 356,
      "▁The": 357,
      "ul": 358,
      "ది": 359,
      "am": 360,
      "▁ल": 361,
      "▁B": 362,
      "▁S": 363,
      "దే": 364,
      "లు": 365,
      "ver": 366,
      "దేశ": 367,
      "ర్": 368,
      "ों": 369,
      "ిం": 370,
      "▁से": 371,
      "▁प्र": 372,
      "▁त": 373,
      "స్": 374,
      "20": 375,
      "▁ర": 376,
      "ిక": 377,
      "ation": 378,
      "▁ప్ర": 379,
      "ారత": 380,
      "▁ग": 381,
      "le": 382,
      "▁భారత": 383,
      "ro": 384,
      "ve": 385,
      "▁औ": 386,
      "ut": 387,
      "ाज": 388,
      "▁అ": 389,
      "▁और": 390,
      "▁(": 391,
      "న్న": 392,
      "ce": 393,
      "s,": 394,
      "▁M": 395,
      "ాలు": 396,
      "ist": 397,
      "▁is": 398,
      "ad": 399,
      "ीय": 400,
      "▁ए": 401,
      "et": 402,
      "im": 403,
      "▁Indian": 404,
      "▁by": 405,
      "▁बा": 406,
      "▁पर": 407,
      "ast": 408,
      "▁उ": 409,
      "▁की": 410,
      "ig": 411,
      "us": 412,
      "▁का": 413,
      "▁P": 414,
      "'s": 415,
      "est": 416,
      "గా": 417,
      "un": 418,
      "ना": 419,
      "्व": 420,
      "▁सं": 421,
      "▁ఉ": 422,
      "▁इ": 423,
      "▁th": 424,
      "ता": 425,
      "id": 426,
      "ir": 427,
      "ow": 428,
      "▁r": 429,
      "ith": 430,
      "ది.": 431,
      "ang": 432,
      "▁श": 433,
      "ate": 434,
      "िस": 435,
      "▁है।": 436,
      "ని": 437,
      "क्": 438,
      "uc": 439,
      "ड़": 440,
      "िया": 441,
      "ित": 442,
      "▁be": 443,
      "em": 444,
      "▁with": 445,
      "▁for": 446,
      "s.": 447,
      "క్": 448,
      "▁con": 449,
      "था": 450,
      "rom": 451,
      "ాయ": 452,
      "▁జ": 453,
      "ment": 454,
      "▁G": 455,
      "▁was": 456,
      "ter": 457,
      "▁सा": 458,
      "ag": 459,
      "ies": 460,
      "op": 461,
      "▁చ": 462,
      "▁wh": 463,
      "ास": 464,
      "tion": 465,
      "ాత": 466,
      "▁N": 467,
      "▁mo": 468,
      "00": 469,
      "▁E": 470,
      "▁st": 471,
      "ain": 472,
      "▁D": 473,
      "ాన": 474,
      "▁as": 475,
      "िन": 476,
      "కు": 477,
      "ong": 478,
      "▁च": 479,
      "ac": 480,
      "ात": 481,
      "▁H": 482,
      "దేశం": 483,
      "్ట": 484,
      "▁य": 485,
      "्ट": 486,
      "art": 487,
      "ay": 488,
      "ure": 489,
      "▁ఇ": 490,
      "her": 491,
      "▁from": 492,
      "▁राज": 493,
      "ला": 494,
      "ద్": 495,
      "ను": 496,
      "▁on": 497,
      "ical": 498,
      "▁ex": 499,
      "ld": 500,
      "त्र": 501,
      "▁it": 502,
      "ab": 503,
      "gh": 504,
      "se": 505,
      "um": 506,
      "ak": 507,
      "▁an": 508,
      "ill": 509,
      "▁हो": 510,
      "ండ": 511,
      "ిన": 512,
      "▁di": 513,
      "▁कर": 514,
      "ाष": 515,
      "ల్": 516,
      "ort": 517,
      "ेश": 518,
      "up": 519,
      "▁or": 520,
      "ీయ": 521,
      "ich": 522,
      "▁has": 523,
      "ial": 524,
      "త్": 525,
      "▁को": 526,
      "ud": 527,
      "▁सम": 528,
      "▁हैं": 529,
      "ंग": 530,
      "తి": 531,
      "▁India's": 532,
      "क्ष": 533,
      "▁वि": 534,
      "▁एक": 535,
      "ించ": 536,
      "స్త": 537,
      "▁भारतीय": 538,
      "दी": 539,
      "der": 540,
      "el": 541,
      "▁which": 542,
      "201": 543,
      "▁ఆ": 544,
      "री": 545,
      "a,": 546,
      "ive": 547,
      "oc": 548,
      "▁are": 549,
      "ity": 550,
      "ult": 551,
      "ोग": 552,
      "से": 553,
      "ంత": 554,
      "▁un": 555,
      "res": 556,
      "oun": 557,
      "हा": 558,
      "ub": 559,
      "du": 560,
      "rit": 561,
      "రి": 562,
      "▁K": 563,
      "▁న": 564,
      "स्": 565,
      "िल": 566,
      "▁ने": 567,
      "ति": 568,
      "्या": 569,
      "ot": 570,
      "इल": 571,
      "ి.": 572,
      "ులు": 573,
      "▁రా": 574,
      "con": 575,
      "li": 576,
      "▁v": 577,
      "▁త": 578,
      "▁సం": 579,
      "▁బ": 580,
      "arg": 581,
      "▁వి": 582,
      "iv": 583,
      "▁ख": 584,
      "रा": 585,
      "i,": 586,
      "రు": 587,
      "ant": 588,
      "▁com": 589,
      "▁भी": 590,
      "▁\"": 591,
      "over": 592,
      "ary": 593,
      "▁cent": 594,
      "▁inc": 595,
      "▁अन": 596,
      "▁R": 597,
      "▁al": 598,
      "ere": 599,
      "▁its": 600,
      "कार": 601,
      "▁W": 602,
      "ear": 603,
      "ంలో": 604,
      "ము": 605,
      "▁wor": 606,
      "od": 607,
      "టి": 608,
      "end": 609,
      "▁de": 610,
      "ింది.": 611,
      "िम": 612,
      "ch": 613,
      "ने": 614,
      "mp": 615,
      "si": 616,
      "ated": 617,
      "▁were": 618,
      "▁భారతదేశం": 619,
      "ry": 620,
      "▁గ": 621,
      "▁స్": 622,
      "▁Ch": 623,
      "▁U": 624,
      "ap": 625,
      "ంగ": 626,
      "ంగా": 627,
      "ిత": 628,
      "ైన": 629,
      "ans": 630,
      "▁Hin": 631,
      "ूप": 632,
      "ंद": 633,
      "▁at": 634,
      "ाला": 635,
      "का": 636,
      "e,": 637,
      "fter": 638,
      "ంది.": 639,
      "ధిక": 640,
      "▁J": 641,
      "▁ch": 642,
      "ాయి.": 643,
      "हल": 644,
      "▁सभ": 645,
      "▁राज्य": 646,
      "वा": 647,
      "200": 648,
      "मा": 649,
      "aj": 650,
      "av": 651,
      "og": 652,
      "పు": 653,
      "ూడ": 654,
      "▁ఎ": 655,
      "▁శ": 656,
      "▁sp": 657,
      "es,": 658,
      "ish": 659,
      "ism": 660,
      "uring": 661,
      "▁ఉన్న": 662,
      "▁cont": 663,
      "▁ध": 664,
      "os": 665,
      "ance": 666,
      "▁pro": 667,
      "▁part": 668,
      "our": 669,
      "outh": 670,
      "ect": 671,
      "▁हैं।": 672,
      "या": 673,
      "ीन": 674,
      "टे": 675,
      "ber": 676,
      "ore": 677,
      "to": 678,
      "▁ద": 679,
      "▁pl": 680,
      "ారు": 681,
      "ough": 682,
      "▁इस": 683,
      "overn": 684,
      "▁ई": 685,
      "▁नि": 686,
      "के": 687,
      "र्व": 688,
      "ంట": 689,
      "ార్": 690,
      "▁le": 691,
      "ame": 692,
      "▁उत": 693,
      "క్ష": 694,
      "▁ना": 695,
      "▁तथा": 696,
      "mer": 697,
      "सा": 698,
      "▁India,": 699,
      "न्": 700,
      "low": 701,
      "uag": 702,
      "▁per": 703,
      "ass": 704,
      "▁larg": 705,
      "ous": 706,
      "anguag": 707,
      "ंत्र": 708,
      "ुर": 709,
      "िन्": 710,
      "्ट्र": 711,
      "if": 712,
      "y,": 713,
      "ीं": 714,
      "వి": 715,
      "any": 716,
      "ern": 717,
      "ally": 718,
      "▁co": 719,
      "▁bec": 720,
      "conom": 721,
      "▁centur": 722,
      "overnment": 723,
      "▁पू": 724,
      "▁F": 725,
      "ंध": 726,
      "▁cl": 727,
      "▁ag": 728,
      "▁into": 729,
      "▁हु": 730,
      "▁సా": 731,
      "▁reg": 732,
      "ution": 733,
      "illion": 734,
      "द्": 735,
      "हु": 736,
      "▁रूप": 737,
      "्ष": 738,
      "▁स्": 739,
      "me": 740,
      "धान": 741,
      "్చ": 742,
      "▁హ": 743,
      "inist": 744,
      "▁ad": 745,
      "▁rel": 746,
      "▁Hindu": 747,
      "ाष्ट्र": 748,
      "्तर": 749,
      "धिक": 750,
      "ृत": 751,
      "ct": 752,
      "ం,": 753,
      "ష్ట": 754,
      "▁k": 755,
      "▁y": 756,
      "▁ar": 757,
      "stit": 758,
      "▁languag": 759,
      "▁econom": 760,
      "స్థ": 761,
      "▁form": 762,
      "▁world": 763,
      "ुख": 764,
      "▁जा": 765,
      "▁दे": 766,
      "▁वर्": 767,
      "),": 768,
      "▁लोग": 769,
      "▁तक": 770,
      "▁साथ": 771,
      "har": 772,
      "ire": 773,
      "▁V": 774,
      "ence": 775,
      "▁se": 776,
      "▁sub": 777,
      "▁pop": 778,
      "▁during": 779,
      "irst": 780,
      "ress": 781,
      "ली": 782,
      "199": 783,
      "र्म": 784,
      "ाषा": 785,
      "196": 786,
      "▁साम": 787,
      "▁बाद": 788,
      "▁फ": 789,
      "▁जन": 790,
      "port": 791,
      "ంచ": 792,
      "దు": 793,
      "్ల": 794,
      "▁దేశ": 795,
      "eral": 796,
      "all": 797,
      "ates": 798,
      "▁mar": 799,
      "▁first": 800,
      "▁el": 801,
      "▁కూడ": 802,
      "▁Asi": 803,
      "195": 804,
      "ational": 805,
      "▁ప్రా": 806,
      "▁region": 807,
      "ंड": 808,
      "ढ़": 809,
      "so": 810,
      "▁सर": 811,
      "्रे": 812,
      "▁सब": 813,
      "िर": 814,
      "▁बहु": 815,
      "ave": 816,
      "cc": 817,
      "duc": 818,
      "e.": 819,
      "qu": 820,
      "ts": 821,
      "ेत्र": 822,
      "ట్ట": 823,
      "తర": 824,
      "▁L": 825,
      "▁O": 826,
      "▁ఈ": 827,
      "▁ri": 828,
      "▁art": 829,
      "red": 830,
      "▁Ind": 831,
      "▁sh": 832,
      "▁pri": 833,
      "▁dec": 834,
      "▁government": 835,
      "ign": 836,
      "ద్ధ": 837,
      "త్వ": 838,
      "▁year": 839,
      "▁popul": 840,
      "र्थ": 841,
      "नी": 842,
      "▁सरकार": 843,
      "ती": 844,
      "भा": 845,
      "▁देश": 846,
      "dh": 847,
      "lud": 848,
      "pp": 849,
      "sh": 850,
      "we": 851,
      "िण": 852,
      "చ్చ": 853,
      "▁ఒ": 854,
      "▁దేశం": 855,
      "▁tra": 856,
      "reat": 857,
      "reas": 858,
      "▁sy": 859,
      "▁భా": 860,
      "▁భారతీయ": 861,
      "▁రాజ": 862,
      "▁comp": 863,
      "▁सबसे": 864,
      "202": 865,
      "्प": 866,
      "ok": 867,
      "▁किया": 868,
      "द्ध": 869,
      "ew": 870,
      "ric": 871,
      "ther": 872,
      "ved": 873,
      "లి": 874,
      "ాబ": 875,
      "▁ని": 876,
      "dition": 877,
      "▁पा": 878,
      "▁India.": 879,
      "▁gen": 880,
      "▁జాత": 881,
      "क्त": 882,
      "▁क्ष": 883,
      "▁शास": 884,
      "▁क्षेत्र": 885,
      "ep": 886,
      "ते": 887,
      "▁भाषा": 888,
      "▁कार": 889,
      "ff": 890,
      "gan": 891,
      "oth": 892,
      "▁లో": 893,
      "▁end": 894,
      "▁over": 895,
      "ारा": 896,
      "▁after": 897,
      "్రీ": 898,
      "ome": 899,
      "▁వ్య": 900,
      "ection": 901,
      "▁ला": 902,
      "▁రై": 903,
      "▁భారతదేశ": 904,
      "row": 905,
      "igh": 906,
      "uch": 907,
      "dern": 908,
      "ound": 909,
      "▁includ": 910,
      "ారు.": 911,
      "inister": 912,
      "ష్ట్ర": 913,
      "stitution": 914,
      "देश": 915,
      "१९": 916,
      "ral": 917,
      "▁राष्ट्र": 918,
      "क्षिण": 919,
      "रे": 920,
      "मान": 921,
      "ले": 922,
      "ोल": 923,
      "▁प्रा": 924,
      "ड़ी": 925,
      "తో": 926,
      "వా": 927,
      "stem": 928,
      "atic": 929,
      "▁పే": 930,
      "▁res": 931,
      "▁మొ": 932,
      "▁South": 933,
      "ికి": 934,
      "used": 935,
      "estern": 936,
      "▁rul": 937,
      "▁been": 938,
      "▁cons": 939,
      "ंग्रे": 940,
      "ulture": 941,
      "ount": 942,
      "▁రాష్ట్ర": 943,
      "mpire": 944,
      "▁స్థ": 945,
      "ajor": 946,
      "▁became": 947,
      "▁system": 948,
      "▁दक्षिण": 949,
      "18": 950,
      "की": 951,
      "194": 952,
      "स्क": 953,
      "िस्त": 954,
      "y.": 955,
      "्च": 956,
      "ఖ్య": 957,
      "డు": 958,
      "నే": 959,
      "యా": 960,
      "▁था": 961,
      "enc": 962,
      "eng": 963,
      "▁inf": 964,
      "▁sup": 965,
      "▁but": 966,
      "▁pe": 967,
      "▁pol": 968,
      "్రి": 969,
      "▁had": 970,
      "ర్వ": 971,
      "▁అధిక": 972,
      "ాలు,": 973,
      "imal": 974,
      "▁more": 975,
      "ండి": 976,
      "ల్ల": 977,
      "▁also": 978,
      "▁relig": 979,
      "्म": 980,
      "ड़ा": 981,
      "▁विश": 982,
      "17": 983,
      "▁कु": 984,
      "▁धर्म": 985,
      "वे": 986,
      "CE": 987,
      "▁द्व": 988,
      "ाने": 989,
      "ाली": 990,
      "▁यह": 991,
      "िका": 992,
      "▁जे": 993,
      "hi": 994,
      "ik": 995,
      "mong": 996,
      "ted": 997,
      "wo": 998,
      "డి": 999,
      "ణా": 1000,
      "ద్ర": 1001,
      "ధ్య": 1002,
      "నా": 1003,
      "మైన": 1004,
      "వస్థ": 1005,
      "ాక": 1006,
      "▁घ": 1007,
      "▁ల": 1008,
      "▁he": 1009,
      "▁im": 1010,
      "ine": 1011,
      "ord": 1012,
      "es.": 1013,
      "▁me": 1014,
      "▁million": 1015,
      "▁minister": 1016,
      "▁lat": 1017,
      "ural": 1018,
      "▁have": 1019,
      "▁An": 1020,
      "▁num": 1021,
      "ide": 1022,
      "ower": 1023,
      "▁జాతీయ": 1024,
      "▁जिस": 1025,
      "▁थ": 1026,
      "ैद": 1027,
      "lic": 1028,
      "ust": 1029,
      "सी": 1030,
      "ुस": 1031,
      "▁जात": 1032,
      "000": 1033,
      "▁अप": 1034,
      "▁BCE": 1035,
      "ाज्य": 1036,
      "▁है,": 1037,
      "कि": 1038,
      "ुन": 1039,
      "▁up": 1040,
      "▁बाटे": 1041,
      "ब्": 1042,
      "▁स्थ": 1043,
      "a.": 1044,
      "lo": 1045,
      "ose": 1046,
      "pt": 1047,
      "టు": 1048,
      "▁two": 1049,
      "ond": 1050,
      "▁स्व": 1051,
      "ren": 1052,
      "▁such": 1053,
      "▁long": 1054,
      "▁CE": 1055,
      "▁ము": 1056,
      "▁Bud": 1057,
      "etwe": 1058,
      "▁ఉంది.": 1059,
      "▁that": 1060,
      "▁most": 1061,
      "▁modern": 1062,
      "ongress": 1063,
      "ులు,": 1064,
      "▁increas": 1065,
      "▁class": 1066,
      "▁prime": 1067,
      "▁years": 1068,
      "▁ఒక": 1069,
      "▁Buddh": 1070,
      "etween": 1071,
      "्रा": 1072,
      "ओं": 1073,
      "▁आध": 1074,
      "ंद्र": 1075,
      "बंध": 1076,
      "▁हिन्": 1077,
      "▁बि": 1078,
      "ian": 1079,
      "कर": 1080,
      "197": 1081,
      "▁रहल": 1082,
      "▁पूर्व": 1083,
      "▁छ": 1084,
      "▁कई": 1085,
      "▁द्वारा": 1086,
      "ीप": 1087,
      "▁उप": 1088,
      "ban": 1089,
      "hm": 1090,
      "ph": 1091,
      "tin": 1092,
      "ంది": 1093,
      "తం": 1094,
      "త్య": 1095,
      "పా": 1096,
      "మా": 1097,
      "▁ఏ": 1098,
      "▁ter": 1099,
      "▁their": 1100,
      "ens": 1101,
      "arli": 1102,
      "▁ca": 1103,
      "ition": 1104,
      "▁sc": 1105,
      "▁soc": 1106,
      "▁हिस": 1107,
      "orth": 1108,
      "▁both": 1109,
      "▁major": 1110,
      "▁కా": 1111,
      "▁dance": 1112,
      "rib": 1113,
      "amil": 1114,
      "ింద": 1115,
      "vel": 1116,
      "▁dis": 1117,
      "▁Un": 1118,
      "▁ఉన్నాయి.": 1119,
      "▁large": 1120,
      "▁tradition": 1121,
      "▁ओ": 1122,
      "▁अधिक": 1123,
      "26": 1124,
      "o-": 1125,
      "ोक": 1126,
      "▁मह": 1127,
      "▁बा।": 1128,
      "प्त": 1129,
      "▁लि": 1130,
      "ंप": 1131,
      "▁गया": 1132,
      "▁संस्क": 1133,
      "▁चु": 1134,
      "aw": 1135,
      "ध्य": 1136,
      "ంబ": 1137,
      "గు": 1138,
      "డ్": 1139,
      "తు": 1140,
      "ధాన": 1141,
      "రా": 1142,
      "ాన్": 1143,
      "ీ,": 1144,
      "hed": 1145,
      "ince": 1146,
      "ard": 1147,
      "▁cast": 1148,
      "▁ser": 1149,
      "▁between": 1150,
      "▁बढ़": 1151,
      "్రమ": 1152,
      "isation": 1153,
      "ారం": 1154,
      "▁కో": 1155,
      "urban": 1156,
      "▁Congress": 1157,
      "▁not": 1158,
      "▁మార్": 1159,
      "▁grow": 1160,
      "olog": 1161,
      "vers": 1162,
      "న్ని": 1163,
      "istan": 1164,
      "anges": 1165,
      "▁చె": 1166,
      "▁Empire": 1167,
      "▁exp": 1168,
      "▁under": 1169,
      "▁భారతదేశంలో": 1170,
      "माण": 1171,
      "▁ఎన్న": 1172,
      "▁उत्तर": 1173,
      "▁world's": 1174,
      "▁population": 1175,
      "▁number": 1176,
      "ेल": 1177,
      "▁ट": 1178,
      "जी": 1179,
      "हर": 1180,
      "▁समय": 1181,
      "▁गइल": 1182,
      "वि": 1183,
      "▁मान": 1184,
      "▁में,": 1185,
      "▁विश्व": 1186,
      "▁दो": 1187,
      "▁शासन": 1188,
      "15": 1189,
      "ारी": 1190,
      "ालय": 1191,
      "▁भइल": 1192,
      "▁बी": 1193,
      "ces": 1194,
      "ef": 1195,
      "lu": 1196,
      "rough": 1197,
      "ట్": 1198,
      "పంచ": 1199,
      "భా": 1200,
      "సి": 1201,
      "ిన్న": 1202,
      "ెండ": 1203,
      "▁j": 1204,
      "▁ra": 1205,
      "▁urban": 1206,
      "▁te": 1207,
      "ree": 1208,
      "▁app": 1209,
      "▁off": 1210,
      "▁mil": 1211,
      "▁mus": 1212,
      "▁many": 1213,
      "▁east": 1214,
      "▁కే": 1215,
      "▁వచ్చ": 1216,
      "▁Con": 1217,
      "▁nort": 1218,
      "▁మధ్య": 1219,
      "ament": 1220,
      "▁Brit": 1221,
      "▁ప్రపంచ": 1222,
      "lear": 1223,
      "▁this": 1224,
      "uclear": 1225,
      "▁began": 1226,
      "age": 1227,
      "ానికి": 1228,
      "ach": 1229,
      "ద్ద": 1230,
      "ially": 1231,
      "ell": 1232,
      "स्था": 1233,
      "▁election": 1234,
      "▁మార్గ": 1235,
      "▁British": 1236,
      "ोड़": 1237,
      "▁ले": 1238,
      "▁मिल": 1239,
      "ublic": 1240,
      "▁निर्": 1241,
      "मुख": 1242,
      "▁वर्ष": 1243,
      "ीत": 1244,
      "▁ड": 1245,
      "नाव": 1246,
      "▁देख": 1247,
      "्यव": 1248,
      "▁जो": 1249,
      "ँच": 1250,
      "वन": 1251,
      "ी,": 1252,
      "▁लग": 1253,
      "▁संघ": 1254,
      "ket": 1255,
      "ni": 1256,
      "odi": 1257,
      "ple": 1258,
      "sl": 1259,
      "ss": 1260,
      "ugh": 1261,
      "ర్య": 1262,
      "వాత": 1263,
      "్మ": 1264,
      "on-": 1265,
      "▁It": 1266,
      "▁ab": 1267,
      "ited": 1268,
      "▁sec": 1269,
      "▁south": 1270,
      "esh": 1271,
      "▁भा": 1272,
      "▁fol": 1273,
      "▁fore": 1274,
      "▁పార": 1275,
      "్రా": 1276,
      "ing,": 1277,
      "▁land": 1278,
      "omin": 1279,
      "ాల్": 1280,
      "out": 1281,
      "▁కు": 1282,
      "▁वाला": 1283,
      "▁rec": 1284,
      "▁Com": 1285,
      "▁north": 1286,
      "▁మత": 1287,
      "ular": 1288,
      "▁ప్రధాన": 1289,
      "istor": 1290,
      "▁చే": 1291,
      "hern": 1292,
      "ically": 1293,
      "akistan": 1294,
      "స్తు": 1295,
      "contin": 1296,
      "ism,": 1297,
      "merg": 1298,
      "▁హింద": 1299,
      "▁కూడా": 1300,
      "▁ప్రాంత": 1301,
      "▁వ్యవస్థ": 1302,
      "▁పేరు": 1303,
      "▁later": 1304,
      "velop": 1305,
      "▁music": 1306,
      "▁northern": 1307,
      "continent": 1308,
      "जा": 1309,
      "ियों": 1310,
      "न्द": 1311,
      "▁बहुत": 1312,
      "▁केंद्र": 1313,
      "▁भू": 1314,
      "21": 1315,
      "▁ऊ": 1316,
      "▁प्रमुख": 1317,
      "▁कि": 1318,
      "198": 1319,
      "हाँ": 1320,
      "हन": 1321,
      "▁एह": 1322,
      "ील": 1323,
      "ैन": 1324,
      "▁गु": 1325,
      "mon": 1326,
      "चीन": 1327,
      "▁लोक": 1328,
      "्यवस्था": 1329,
      "-l": 1330,
      "ah": 1331,
      "ace": 1332,
      "ci": 1333,
      "iod": 1334,
      "vi": 1335,
      "దాయ": 1336,
      "రణ": 1337,
      "▁tim": 1338,
      "ature": 1339,
      "ari": 1340,
      "arn": 1341,
      "▁count": 1342,
      "▁among": 1343,
      "ite": 1344,
      "iter": 1345,
      "▁western": 1346,
      "▁since": 1347,
      "▁पुर": 1348,
      "▁emp": 1349,
      "▁క్రీ": 1350,
      "▁Al": 1351,
      "▁rep": 1352,
      "raph": 1353,
      "▁Beng": 1354,
      "▁Sh": 1355,
      "స్క": 1356,
      "ations": 1357,
      "▁ప్రజ": 1358,
      "▁Mugh": 1359,
      "ade": 1360,
      "▁Pakistan": 1361,
      "▁rate": 1362,
      "ately": 1363,
      "ies,": 1364,
      "able": 1365,
      "▁ఆర్": 1366,
      "ంత్ర": 1367,
      "▁develop": 1368,
      "▁Chin": 1369,
      "▁శా": 1370,
      "▁దక్ష": 1371,
      "lowing": 1372,
      "▁period": 1373,
      "▁largest": 1374,
      "▁economic": 1375,
      "▁రైలు": 1376,
      "▁influ": 1377,
      "▁peop": 1378,
      "▁classical": 1379,
      "▁caste": 1380,
      "versity": 1381,
      "▁Bengal": 1382,
      "▁Mughal": 1383,
      "▁कइल": 1384,
      "▁मु": 1385,
      "▁मध्य": 1386,
      "तंत्र": 1387,
      "शिया": 1388,
      "स्त": 1389,
      "▁एशिया": 1390,
      "गर": 1391,
      "द्य": 1392,
      "▁गो": 1393,
      "▁अन्य": 1394,
      "▁नाम": 1395,
      "▁सि": 1396,
      "▁Pl": 1397,
      "ेर": 1398,
      "▁बन": 1399,
      "S$": 1400,
      "▁मुख": 1401,
      "▁करे": 1402,
      "हे": 1403,
      "ाम": 1404,
      "ूर": 1405,
      "▁हवे": 1406,
      "▁जाता": 1407,
      "▁साल": 1408,
      "ft": 1409,
      "jab": 1410,
      "krit": 1411,
      "lim": 1412,
      "o,": 1413,
      "per": 1414,
      "ta": 1415,
      "में": 1416,
      "ం.": 1417,
      "ప్": 1418,
      "లం": 1419,
      "వే": 1420,
      "ి,": 1421,
      "ుక": 1422,
      "▁there": 1423,
      "ative": 1424,
      "arat": 1425,
      "itary": 1426,
      "▁power": 1427,
      "esp": 1428,
      "▁mid": 1429,
      "ise": 1430,
      "ised": 1431,
      "▁lif": 1432,
      "▁liter": 1433,
      "ాలలో": 1434,
      "▁emerg": 1435,
      "▁Th": 1436,
      "▁Tamil": 1437,
      "▁अंग्रे": 1438,
      "▁hum": 1439,
      "▁histor": 1440,
      "▁After": 1441,
      "ild": 1442,
      "ech": 1443,
      "▁new": 1444,
      "▁By": 1445,
      "▁Sans": 1446,
      "▁Sik": 1447,
      "roc": 1448,
      "vement": 1449,
      "▁అయ": 1450,
      "▁Pun": 1451,
      "own": 1452,
      "క్కు": 1453,
      "▁జనా": 1454,
      "ies.": 1455,
      "▁East": 1456,
      "▁Del": 1457,
      "▁ext": 1458,
      "ultan": 1459,
      "▁spec": 1460,
      "▁language": 1461,
      "▁subcontinent": 1462,
      "▁river": 1463,
      "▁భాష": 1464,
      "▁రాజ్య": 1465,
      "▁స్థాన": 1466,
      "▁అధికార": 1467,
      "imalay": 1468,
      "▁increased": 1469,
      "▁పార్ట": 1470,
      "▁దక్షి": 1471,
      "▁people": 1472,
      "▁Sanskrit": 1473,
      "▁Punjab": 1474,
      "▁संग": 1475,
      "दा": 1476,
      "म्": 1477,
      "यु": 1478,
      "िव": 1479,
      "▁मैद": 1480,
      "▁अनुस": 1481,
      "िस्तान": 1482,
      "▁मैदान": 1483,
      ").": 1484,
      "10": 1485,
      "40": 1486,
      "▁बाटे।": 1487,
      "ाद": 1488,
      "▁पार": 1489,
      "ाना": 1490,
      "ियन": 1491,
      "हीं": 1492,
      "▁यु": 1493,
      "▁US$": 1494,
      "ष्": 1495,
      "▁काल": 1496,
      "▁दक्": 1497,
      "▁हिस्": 1498,
      "ंत": 1499,
      "ंब": 1500,
      "काल": 1501,
      "ी।": 1502,
      "▁प्रदेश": 1503,
      "▁परंप": 1504,
      "▁सभसे": 1505,
      "▁राज्यों": 1506,
      "▁हुआ": 1507,
      "▁परंपरा": 1508,
      "30": 1509,
      "ever": 1510,
      "for": 1511,
      "pl": 1512,
      "ron": 1513,
      "rol": 1514,
      "vent": 1515,
      "िला": 1516,
      "ంద్ర": 1517,
      "భు": 1518,
      "ష్": 1519,
      "ెద్ద": 1520,
      "▁en": 1521,
      "▁ను": 1522,
      "ani": 1523,
      "hem": 1524,
      "hen": 1525,
      "ers": 1526,
      "ered": 1527,
      "▁occ": 1528,
      "enni": 1529,
      "arly": 1530,
      "▁Isl": 1531,
      "▁cour": 1532,
      "▁culture": 1533,
      "▁war": 1534,
      "▁set": 1535,
      "▁parli": 1536,
      "ions": 1537,
      "▁mat": 1538,
      "▁main": 1539,
      "ice": 1540,
      "▁बना": 1541,
      "▁పు": 1542,
      "▁పరి": 1543,
      "as,": 1544,
      "▁కాల": 1545,
      "▁nuclear": 1546,
      "rig": 1547,
      "ation,": 1548,
      "▁ప్రభు": 1549,
      "▁ఉత్": 1550,
      "▁than": 1551,
      "ird": 1552,
      "▁Eur": 1553,
      "▁state": 1554,
      "ack": 1555,
      "▁Himalay": 1556,
      "▁या": 1557,
      "▁ఇతర": 1558,
      "▁one": 1559,
      "abl": 1560,
      "illenni": 1561,
      "ించింది.": 1562,
      "ritor": 1563,
      "ected": 1564,
      "▁lead": 1565,
      "▁century": 1566,
      "▁Asia": 1567,
      "▁righ": 1568,
      "▁Indus": 1569,
      "▁దేశంలో": 1570,
      "▁general": 1571,
      "▁మొద": 1572,
      "▁social": 1573,
      "▁Comp": 1574,
      "▁హిందూ": 1575,
      "cient": 1576,
      "▁parliament": 1577,
      "▁ప్రభుత్వ": 1578,
      "illennium": 1579,
      "▁प्राचीन": 1580,
      "श्च": 1581,
      "▁अर": 1582,
      "▁बीच": 1583,
      "▁जाला": 1584,
      "▁क्र": 1585,
      "ंगा": 1586,
      "▁हुई": 1587,
      "▁Plate": 1588,
      "16": 1589,
      "्राज्य": 1590,
      "orld": 1591,
      "▁World": 1592,
      "▁साम्राज्य": 1593,
      "▁कुछ": 1594,
      "द्योग": 1595,
      "शास": 1596,
      "ुल": 1597,
      "▁विक": 1598,
      "▁खेल": 1599,
      "ून": 1600,
      "▁बिस": 1601,
      "▁आर्थ": 1602,
      "▁खात": 1603,
      "▁आर्थिक": 1604,
      "पू": 1605,
      "▁सद": 1606,
      "▁बड़": 1607,
      "▁इंड": 1608,
      "▁कारण": 1609,
      "▁मुख्य": 1610,
      "-d": 1611,
      "ared": 1612,
      "iz": 1613,
      "ood": 1614,
      "ru": 1615,
      "ten": 1616,
      "००": 1617,
      "గర": 1618,
      "ప్ర": 1619,
      "పాల": 1620,
      "ావ": 1621,
      "ీన": 1622,
      "ుకు": 1623,
      "▁ట": 1624,
      "ank": 1625,
      "ins": 1626,
      "▁them": 1627,
      "▁सु": 1628,
      "read": 1629,
      "▁out": 1630,
      "▁other": 1631,
      "▁col": 1632,
      "▁sur": 1633,
      "▁bas": 1634,
      "▁billion": 1635,
      "▁pre": 1636,
      "ess": 1637,
      "ics": 1638,
      "▁పూ": 1639,
      "entral": 1640,
      "omen": 1641,
      "▁est": 1642,
      "▁సభ": 1643,
      "▁సి": 1644,
      "▁न्या": 1645,
      "▁కార": 1646,
      "▁వా": 1647,
      "▁వే": 1648,
      "్యం": 1649,
      "▁non-": 1650,
      "▁gra": 1651,
      "rad": 1652,
      "aman": 1653,
      "▁St": 1654,
      "▁రెండ": 1655,
      "▁అత్య": 1656,
      "▁Mo": 1657,
      "▁Mus": 1658,
      "▁though": 1659,
      "▁through": 1660,
      "ember": 1661,
      "క్క": 1662,
      "▁constitution": 1663,
      "▁Ganges": 1664,
      "tern": 1665,
      "▁who": 1666,
      "ాత్ర": 1667,
      "▁National": 1668,
      "▁En": 1669,
      "▁sty": 1670,
      "▁ఇది": 1671,
      "ించిన": 1672,
      "argest": 1673,
      "ivil": 1674,
      "▁def": 1675,
      "ిత్ర": 1676,
      "▁Jain": 1677,
      "ograph": 1678,
      "▁contrib": 1679,
      "▁play": 1680,
      "ंत्री": 1681,
      "▁agric": 1682,
      "▁సాం": 1683,
      "▁including": 1684,
      "▁हिन्दी": 1685,
      "▁caused": 1686,
      "▁military": 1687,
      "▁కేంద్ర": 1688,
      "▁వచ్చింది.": 1689,
      "-largest": 1690,
      "▁country": 1691,
      "స్కృ": 1692,
      "▁life": 1693,
      "క్కువ": 1694,
      "▁పార్టీ": 1695,
      "▁अनुसार": 1696,
      "▁Company": 1697,
      "%,": 1698,
      "तिक": 1699,
      "▁अर्थ": 1700,
      "र्ण": 1701,
      "खिन": 1702,
      "िये": 1703,
      "▁दक्खिन": 1704,
      "श्चिम": 1705,
      "▁खातिर": 1706,
      "▁इला": 1707,
      "▁कार्य": 1708,
      "ृति": 1709,
      "्ले": 1710,
      "▁जल": 1711,
      "्त्र": 1712,
      "▁ईसा": 1713,
      "▁स्थित": 1714,
      "▁आधार": 1715,
      "12": 1716,
      "14": 1717,
      "ख्या": 1718,
      "प्र": 1719,
      "सद": 1720,
      "हित": 1721,
      "▁अम": 1722,
      "▁दिया": 1723,
      "▁हैं,": 1724,
      "▁पाक": 1725,
      "▁था।": 1726,
      "▁स्वतंत्र": 1727,
      "▁लिए": 1728,
      "च्": 1729,
      "▁सी": 1730,
      "च्छ": 1731,
      "ज़": 1732,
      "िप": 1733,
      "ेट": 1734,
      "▁गण": 1735,
      "▁चुनाव": 1736,
      "▁हिस्सा": 1737,
      "मिल": 1738,
      "वीं": 1739,
      "▁प्रति": 1740,
      "क्ति": 1741,
      "%.": 1742,
      "cri": 1743,
      "ction": 1744,
      "eh": 1745,
      "gl": 1746,
      "hi,": 1747,
      "put": 1748,
      "ruc": 1749,
      "rans": 1750,
      "t,": 1751,
      "ty": 1752,
      "uj": 1753,
      "ya": 1754,
      "గి": 1755,
      "గ్": 1756,
      "గిన": 1757,
      "త్ర": 1758,
      "బడ": 1759,
      "మే": 1760,
      "లా": 1761,
      "ిమ": 1762,
      "ుల": 1763,
      "▁య": 1764,
      "▁ద్": 1765,
      "anc": 1766,
      "heast": 1767,
      "rew": 1768,
      "ar,": 1769,
      "▁we": 1770,
      "▁wide": 1771,
      "▁sign": 1772,
      "▁some": 1773,
      "▁पह": 1774,
      "ें।": 1775,
      "▁millennium": 1776,
      "▁far": 1777,
      "▁found": 1778,
      "▁పర": 1779,
      "▁పట్ట": 1780,
      "▁పెద్ద": 1781,
      "్రె": 1782,
      "ings": 1783,
      "ారి": 1784,
      "▁led": 1785,
      "ాలను": 1786,
      "ould": 1787,
      "▁కలి": 1788,
      "ly,": 1789,
      "▁వె": 1790,
      "▁Central": 1791,
      "▁ne": 1792,
      "▁no": 1793,
      "▁gr": 1794,
      "▁రవా": 1795,
      "leg": 1796,
      "▁భారత్": 1797,
      "▁అతి": 1798,
      "▁ఉంట": 1799,
      "▁third": 1800,
      "ident": 1801,
      "owever": 1802,
      "▁rural": 1803,
      "▁జరి": 1804,
      "▁Gand": 1805,
      "▁dire": 1806,
      "ocal": 1807,
      "dust": 1808,
      "▁తరు": 1809,
      "▁all": 1810,
      "▁left": 1811,
      "duced": 1812,
      "▁Indo-": 1813,
      "ద్ధి": 1814,
      "ాబ్": 1815,
      "▁राष्ट्रीय": 1816,
      "▁polit": 1817,
      "▁religi": 1818,
      "ording": 1819,
      "▁Buddhist": 1820,
      "▁territor": 1821,
      "▁served": 1822,
      "▁మార్గాలు": 1823,
      "▁second": 1824,
      "▁forest": 1825,
      "▁క్రీడ": 1826,
      "▁ఆర్ధిక": 1827,
      "▁influenc": 1828,
      "ప్ప": 1829,
      "▁Sikh": 1830,
      "▁అయిన": 1831,
      "▁జనాభా": 1832,
      "ultanate": 1833,
      "▁mathem": 1834,
      "▁ఉత్తర": 1835,
      "▁Muslim": 1836,
      "▁రవాణా": 1837,
      "owever,": 1838,
      "▁తరువాత": 1839,
      "50": 1840,
      "द्व": 1841,
      "मंत्री": 1842,
      "वं": 1843,
      "▁ती": 1844,
      "्याप": 1845,
      "▁स्था": 1846,
      "भाव": 1847,
      "▁पाकिस्तान": 1848,
      "ोज": 1849,
      "▁ठ": 1850,
      "र्ष": 1851,
      "▁समाज": 1852,
      "▁देशों": 1853,
      "नों": 1854,
      "वल": 1855,
      "▁जी": 1856,
      "▁दश": 1857,
      "क्षा": 1858,
      "विधान": 1859,
      "जात": 1860,
      "▁%": 1861,
      "▁कम": 1862,
      "▁हिम": 1863,
      "193": 1864,
      "▁तमिल": 1865,
      "▁नेत": 1866,
      "▁संस्कृति": 1867,
      "▁हिमालय": 1868,
      "बि": 1869,
      "म,": 1870,
      "शन": 1871,
      "▁ent": 1872,
      "▁हि": 1873,
      "▁जिन": 1874,
      "▁काम": 1875,
      "ताब्": 1876,
      "▁शताब्": 1877,
      "act": 1878,
      "▁होख": 1879,
      "▁शताब्दी": 1880,
      "ोष": 1881,
      "▁अभ": 1882,
      "▁अस": 1883,
      "▁दू": 1884,
      "▁रहा": 1885,
      "▁होता": 1886,
      "▁करने": 1887,
      "▁करोड़": 1888,
      "▁इसके": 1889,
      "▁हुए": 1890,
      "धानमंत्री": 1891,
      "▁]": 1892,
      "ँव": 1893,
      "च्च": 1894,
      "टी": 1895,
      "योग": 1896,
      "र्य": 1897,
      "▁हाला": 1898,
      "▁आय": 1899,
      "▁संविधान": 1900,
      "ai": 1901,
      "au": 1902,
      "are": 1903,
      "dle": 1904,
      "daman": 1905,
      "ean": 1906,
      "gen": 1907,
      "ied": 1908,
      "mit": 1909,
      "nolog": 1910,
      "ool": 1911,
      "til": 1912,
      "vid": 1913,
      "west": 1914,
      "yan": 1915,
      "गत": 1916,
      "णी": 1917,
      "కీయ": 1918,
      "గీ": 1919,
      "చే": 1920,
      "టిక": 1921,
      "ట్ల": 1922,
      "ధి": 1923,
      "నాలు": 1924,
      "మి": 1925,
      "లలో": 1926,
      "ీర్": 1927,
      "ౌక": 1928,
      "▁us": 1929,
      "▁her": 1930,
      "▁used": 1931,
      "▁esp": 1932,
      "▁roc": 1933,
      "▁tech": 1934,
      "▁trans": 1935,
      "▁they": 1936,
      "ers,": 1937,
      "als": 1938,
      "alle": 1939,
      "▁orig": 1940,
      "ath": 1941,
      "ands": 1942,
      "▁cit": 1943,
      "▁cap": 1944,
      "▁acc": 1945,
      "▁indust": 1946,
      "▁women": 1947,
      "ork": 1948,
      "▁pain": 1949,
      "▁made": 1950,
      "▁member": 1951,
      "▁fe": 1952,
      "▁పా": 1953,
      "▁పాల": 1954,
      "▁పాక": 1955,
      "▁last": 1956,
      "omet": 1957,
      "ాలో": 1958,
      "▁early": 1959,
      "▁సరి": 1960,
      "▁కొ": 1961,
      "▁high": 1962,
      "ecially": 1963,
      "▁మహ": 1964,
      "▁great": 1965,
      "rahm": 1966,
      "am,": 1967,
      "లు,": 1968,
      "very": 1969,
      "verse": 1970,
      "▁ప్రస్తు": 1971,
      "▁అనే": 1972,
      "▁Prad": 1973,
      "und": 1974,
      "▁ఉప": 1975,
      "emoc": 1976,
      "▁Guj": 1977,
      "▁Neh": 1978,
      "▁movement": 1979,
      "▁ass": 1980,
      "స్త్ర": 1981,
      "స్తాన్": 1982,
      "▁బహ": 1983,
      "▁central": 1984,
      "▁స్వ": 1985,
      "ంగ్రె": 1986,
      "▁Hindi": 1987,
      "▁Jan": 1988,
      "▁ఎక్కువ": 1989,
      "▁control": 1990,
      "▁plain": 1991,
      "▁उत्प": 1992,
      "ुरु": 1993,
      "▁coal": 1994,
      "▁coast": 1995,
      "▁cook": 1996,
      "▁century,": 1997,
      "▁సాధ": 1998,
      "धिकार": 1999,
      "▁languages": 2000,
      "ight": 2001,
      "▁include": 2002,
      "▁rule": 2003,
      "▁support": 2004,
      "▁Andaman": 2005,
      "loy": 2006,
      "▁ముఖ్య": 2007,
      "ందిన": 2008,
      "▁ఏర్": 2009,
      "▁majority": 2010,
      "▁కాంగ్రె": 2011,
      "▁United": 2012,
      "తున్న": 2013,
      "▁growth": 2014,
      "▁ఎన్నో": 2015,
      "▁eastern": 2016,
      "▁Constitution": 2017,
      "▁employ": 2018,
      "ుకో": 2019,
      "▁literac": 2020,
      "▁emerged": 2021,
      "▁human": 2022,
      "▁Delhi": 2023,
      "▁దక్షిణ": 2024,
      "▁court": 2025,
      "ప్రదాయ": 2026,
      "▁అత్యధిక": 2027,
      "▁Engl": 2028,
      "▁इलाका": 2029,
      "▁ద్వ": 2030,
      "▁political": 2031,
      "▁religious": 2032,
      "▁especially": 2033,
      "▁rock": 2034,
      "▁origin": 2035,
      "▁paint": 2036,
      "▁పాకి": 2037,
      "▁సరిహ": 2038,
      "▁Pradesh": 2039,
      "▁Nehru": 2040,
      "▁English": 2041,
      "42": 2042,
      "400": 2043,
      "▁उन": 2044,
      "▁निर्माण": 2045,
      "▁न्याय": 2046,
      "वी": 2047,
      "्ड": 2048,
      "▁अब": 2049,
      "▁नहीं": 2050,
      "▁संसद": 2051,
      "▁भाषाओं": 2052,
      "▁ओर": 2053,
      "चल": 2054,
      "टि": 2055,
      "मत": 2056,
      "रु": 2057,
      "हरी": 2058,
      "▁मो": 2059,
      "▁पश्चिम": 2060,
      "▁संबंध": 2061,
      "▁राजनी": 2062,
      "ंग्रेस": 2063,
      "▁हिन्द": 2064,
      "▁पार्ट": 2065,
      "ost": 2066,
      "ँकि": 2067,
      "णा": 2068,
      "बर": 2069,
      "▁प्ले": 2070,
      "▁बाने": 2071,
      "▁होला": 2072,
      "ived": 2073,
      "ृत्व": 2074,
      "ोलन": 2075,
      "▁संस्कृत": 2076,
      "▁दशक": 2077,
      "▁नेतृत्व": 2078,
      "▁हालाँकि": 2079,
      "▁प्लेट": 2080,
      "धी": 2081,
      "सं": 2082,
      "ाय": 2083,
      "▁अल": 2084,
      "र्ट": 2085,
      "▁साहित": 2086,
      "▁साहित्य": 2087,
      "चना": 2088,
      "▁बद": 2089,
      "▁अरब": 2090,
      "ेक": 2091,
      "▁[": 2092,
      "▁मौ": 2093,
      "▁इन": 2094,
      "ियाँ": 2095,
      "▁चल": 2096,
      "▁भाग": 2097,
      "▁भूम": 2098,
      "▁चुनावों": 2099,
      "▁तीस": 2100,
      "13": 2101,
      "ई।": 2102,
      "गो": 2103,
      "रिक": 2104,
      "ूल": 2105,
      "▁सक": 2106,
      "▁पहल": 2107,
      "▁ब्र": 2108,
      "▁निय": 2109,
      "▁वाली": 2110,
      "▁यूर": 2111,
      "▁नाँव": 2112,
      "▁जनजात": 2113,
      "-s": 2114,
      "24": 2115,
      "DP": 2116,
      "JP": 2117,
      "af": 2118,
      "adi": 2119,
      "i)": 2120,
      "ib": 2121,
      "ix": 2122,
      "k,": 2123,
      "led": 2124,
      "main": 2125,
      "oin": 2126,
      "pur": 2127,
      "ue": 2128,
      "ually": 2129,
      "ving": 2130,
      "vol": 2131,
      "work": 2132,
      "भग": 2133,
      "हास": 2134,
      "ैली": 2135,
      "ం:": 2136,
      "ంధ": 2137,
      "ంటి": 2138,
      "ందు": 2139,
      "కొ": 2140,
      "కాల": 2141,
      "క్రమ": 2142,
      "గం": 2143,
      "జ్య": 2144,
      "ణి": 2145,
      "దర": 2146,
      "దా": 2147,
      "పతి": 2148,
      "లకు": 2149,
      "లను": 2150,
      "లతో": 2151,
      "వు": 2152,
      "సు": 2153,
      "ా,": 2154,
      "ిల్ల": 2155,
      "ీ;": 2156,
      "ెలు": 2157,
      "▁Y": 2158,
      "hes": 2159,
      "▁कप": 2160,
      "▁कॉ": 2161,
      "ersi": 2162,
      "reated": 2163,
      "ale": 2164,
      "alth": 2165,
      "enins": 2166,
      "▁महा": 2167,
      "▁Its": 2168,
      "▁cens": 2169,
      "▁sm": 2170,
      "▁sultanate": 2171,
      "▁bi": 2172,
      "▁bu": 2173,
      "▁bir": 2174,
      "▁prom": 2175,
      "▁penins": 2176,
      "▁man": 2177,
      "▁fed": 2178,
      "▁fig": 2179,
      "icial": 2180,
      "as.": 2181,
      "ash": 2182,
      "ashm": 2183,
      "▁li": 2184,
      "▁local": 2185,
      "▁సిం": 2186,
      "▁dra": 2187,
      "urn": 2188,
      "▁వర్": 2189,
      "ecut": 2190,
      "▁remain": 2191,
      "▁national": 2192,
      "▁gar": 2193,
      "▁grew": 2194,
      "ra,": 2195,
      "old": 2196,
      "▁There": 2197,
      "▁These": 2198,
      "ulpt": 2199,
      "amm": 2200,
      "▁Bang": 2201,
      "▁Brahm": 2202,
      "ిక్": 2203,
      "▁ప్రతి": 2204,
      "rop": 2205,
      "▁Ma": 2206,
      "istic": 2207,
      "▁Persi": 2208,
      "ange": 2209,
      "▁జన": 2210,
      "ments": 2211,
      "opean": 2212,
      "▁చిన్న": 2213,
      "▁whose": 2214,
      "▁stat": 2215,
      "▁states": 2216,
      "▁ఇండి": 2217,
      "ద్దు": 2218,
      "▁export": 2219,
      "aksh": 2220,
      "▁animal": 2221,
      "▁ancient": 2222,
      "ండు": 2223,
      "▁diff": 2224,
      "▁diversity": 2225,
      "ity,": 2226,
      "ultural": 2227,
      "▁union": 2228,
      "▁Kashm": 2229,
      "▁నే": 2230,
      "तिहास": 2231,
      "lief": 2232,
      "▁vill": 2233,
      "▁సంస్కృ": 2234,
      "▁సంగీ": 2235,
      "▁విస్త": 2236,
      "ives": 2237,
      "▁Raj": 2238,
      "ody": 2239,
      "▁dev": 2240,
      "▁గల": 2241,
      "ంగ్ల": 2242,
      "osed": 2243,
      "▁party": 2244,
      "▁leg": 2245,
      "ific": 2246,
      "▁arm": 2247,
      "▁arch": 2248,
      "▁economy": 2249,
      "▁దేశాల": 2250,
      "▁marri": 2251,
      "▁ప్రాచ": 2252,
      "▁decl": 2253,
      "▁రాజకీయ": 2254,
      "▁gener": 2255,
      "డిప": 2256,
      "▁sculpt": 2257,
      "▁लगभग": 2258,
      "▁following": 2259,
      "ాల్లో": 2260,
      "▁చేస": 2261,
      "▁ప్రాంతాలు": 2262,
      "▁శాస్త్ర": 2263,
      "form": 2264,
      "▁నుండి": 2265,
      "▁occup": 2266,
      "▁కాలంలో": 2267,
      "▁right": 2268,
      "▁parliamentary": 2269,
      "▁సిని": 2270,
      "▁Gandhi": 2271,
      "▁direct": 2272,
      "▁Gujarat": 2273,
      "▁ఏర్ప": 2274,
      "▁సరిహద్దు": 2275,
      "▁figure": 2276,
      "राज्य": 2277,
      "स्ट": 2278,
      "▁सदी": 2279,
      "▁मा": 2280,
      "▁लाख": 2281,
      "द्वीप": 2282,
      "्यापार": 2283,
      "▁स्थाप": 2284,
      "-प": 2285,
      "पाल": 2286,
      "स,": 2287,
      "स्य": 2288,
      "▁किन": 2289,
      "▁बंग": 2290,
      "▁गा": 2291,
      "▁क्षेत्रीय": 2292,
      "▁कुल": 2293,
      "▁सदस्य": 2294,
      "ाब": 2295,
      "ृष": 2296,
      "▁सैन": 2297,
      "▁पै": 2298,
      "▁ही": 2299,
      "▁विस्त": 2300,
      "▁प्रकार": 2301,
      "▁एगो": 2302,
      "न्न": 2303,
      "▁देस": 2304,
      "▁किया।": 2305,
      "▁थी।": 2306,
      "ुनिक": 2307,
      "च्छिम": 2308,
      "▁होखे": 2309,
      "100": 2310,
      "55": 2311,
      "त्त": 2312,
      "्न": 2313,
      "▁स्तर": 2314,
      "्री": 2315,
      "▁बौ": 2316,
      "▁Ar": 2317,
      "▁गंगा": 2318,
      "▁परमाण": 2319,
      "▁विकास": 2320,
      "▁परमाणु": 2321,
      "300": 2322,
      "बी": 2323,
      "▁अव": 2324,
      "्तु": 2325,
      "न्द्र": 2326,
      "महा": 2327,
      "रूप": 2328,
      "▁ढ": 2329,
      "▁जब": 2330,
      "▁आद": 2331,
      "▁नी": 2332,
      "▁जनसं": 2333,
      "▁स्थान": 2334,
      "▁स्वतंत्रता": 2335,
      "▁गणराज्य": 2336,
      "▁जनसंख्या": 2337,
      "चे": 2338,
      "मन": 2339,
      "सभा": 2340,
      "ां": 2341,
      "▁पच्छिम": 2342,
      "▁रे": 2343,
      "▁घोष": 2344,
      "▁अंग्रेजी": 2345,
      "▁जाला।": 2346,
      "▁बिस्व": 2347,
      "▁हिंद": 2348,
      "ंजा": 2349,
      "त्व": 2350,
      "पर": 2351,
      "पु": 2352,
      "रात": 2353,
      "ोप": 2354,
      "▁पड़": 2355,
      "▁पर्व": 2356,
      "ें,": 2357,
      "ान,": 2358,
      "▁उद्योग": 2359,
      "▁जाती": 2360,
      "▁जनजाति": 2361,
      "▁कॉंग्रेस": 2362,
      "▁सैन्य": 2363,
      "-m": 2364,
      "28": 2365,
      "ail": 2366,
      "bal": 2367,
      "cent": 2368,
      "dom": 2369,
      "day": 2370,
      "eak": 2371,
      "eograph": 2372,
      "fore": 2373,
      "hat": 2374,
      "i-": 2375,
      "ia": 2376,
      "ip": 2377,
      "iet": 2378,
      "ked": 2379,
      "mb": 2380,
      "min": 2381,
      "minist": 2382,
      "ped": 2383,
      "rin": 2384,
      "round": 2385,
      "tt": 2386,
      "tal": 2387,
      "tle": 2388,
      "ual": 2389,
      "ven": 2390,
      "wn": 2391,
      "त्य": 2392,
      "फ़": 2393,
      "मी": 2394,
      "ంక": 2395,
      "కాలు": 2396,
      "కారం": 2397,
      "గంగా": 2398,
      "టీ": 2399,
      "ఢిల్ల": 2400,
      "ణంగా": 2401,
      "తా": 2402,
      "తిక": 2403,
      "తంత్ర": 2404,
      "తాబ్": 2405,
      "దం": 2406,
      "దార": 2407,
      "భి": 2408,
      "యో": 2409,
      "రో": 2410,
      "వర్": 2411,
      "వత్": 2412,
      "ు.": 2413,
      "ూప": 2414,
      "ృద్ధి": 2415,
      "ెల": 2416,
      "ెంగ": 2417,
      "▁z": 2418,
      "▁ఐ": 2419,
      "▁డ": 2420,
      "▁ed": 2421,
      "▁trib": 2422,
      "ances": 2423,
      "er,": 2424,
      "ering": 2425,
      "▁old": 2426,
      "ata": 2427,
      "ati": 2428,
      "ating": 2429,
      "dic": 2430,
      "dian": 2431,
      "ara": 2432,
      "▁cr": 2433,
      "▁che": 2434,
      "▁car": 2435,
      "▁cor": 2436,
      "▁cur": 2437,
      "▁created": 2438,
      "ed,": 2439,
      "▁air": 2440,
      "▁often": 2441,
      "▁ind": 2442,
      "▁inter": 2443,
      "▁win": 2444,
      "▁won": 2445,
      "▁well": 2446,
      "▁sou": 2447,
      "▁sch": 2448,
      "▁bl": 2449,
      "▁port": 2450,
      "▁pres": 2451,
      "▁mon": 2452,
      "▁men": 2453,
      "▁mak": 2454,
      "ico": 2455,
      "▁పత": 2456,
      "▁పో": 2457,
      "iss": 2458,
      "ising": 2459,
      "ished": 2460,
      "ingdom": 2461,
      "▁low": 2462,
      "▁lower": 2463,
      "ently": 2464,
      "्यता": 2465,
      "oup": 2466,
      "▁earli": 2467,
      "▁आप": 2468,
      "▁సమా": 2469,
      "▁సౌక": 2470,
      "▁रह": 2471,
      "urther": 2472,
      "▁Ara": 2473,
      "▁Act": 2474,
      "▁Acc": 2475,
      "▁Among": 2476,
      "▁Ass": 2477,
      "▁ref": 2478,
      "▁near": 2479,
      "▁మన": 2480,
      "▁మూడ": 2481,
      "rac": 2482,
      "ract": 2483,
      "▁लिये": 2484,
      "▁Bh": 2485,
      "▁Bi": 2486,
      "▁Bhar": 2487,
      "▁BJP": 2488,
      "ర్లు": 2489,
      "▁प्रधानमंत्री": 2490,
      "▁రహ": 2491,
      "▁ప్రము": 2492,
      "▁అభి": 2493,
      "▁Mah": 2494,
      "adu": 2495,
      "etic": 2496,
      "▁Indians": 2497,
      "ung": 2498,
      "▁three": 2499,
      "▁rates": 2500,
      "▁rise": 2501,
      "▁within": 2502,
      "▁జాబ": 2503,
      "▁Government": 2504,
      "▁GDP": 2505,
      "ages": 2506,
      "▁చరి": 2507,
      "▁Nadu": 2508,
      "ains": 2509,
      "▁During": 2510,
      "▁execut": 2511,
      "sequ": 2512,
      "ల్ప": 2513,
      "▁ఆధ": 2514,
      "ంతో": 2515,
      "ంత్రి": 2516,
      "▁నా": 2517,
      "▁నగర": 2518,
      "▁నడిప": 2519,
      "▁బ్రి": 2520,
      "▁బెంగ": 2521,
      "▁వివి": 2522,
      "ants": 2523,
      "▁commer": 2524,
      "▁common": 2525,
      "▁along": 2526,
      "▁West": 2527,
      "▁Western": 2528,
      "▁work": 2529,
      "▁గు": 2530,
      "▁శతాబ్": 2531,
      "▁contin": 2532,
      "▁produc": 2533,
      "▁become": 2534,
      "▁centuries": 2535,
      "▁సామ": 2536,
      "▁sever": 2537,
      "alled": 2538,
      "▁market": 2539,
      "▁regional": 2540,
      "▁popular": 2541,
      "thern": 2542,
      "ాబా": 2543,
      "▁endem": 2544,
      "వామ": 2545,
      "▁రాష్ట్రపతి": 2546,
      "▁religion": 2547,
      "▁longer": 2548,
      "డ్డ": 2549,
      "▁टी": 2550,
      "▁ప్రపంచంలో": 2551,
      "outheast": 2552,
      "atures": 2553,
      "▁republic": 2554,
      "▁ప్రజా": 2555,
      "▁development": 2556,
      "▁China": 2557,
      "▁Sanskrit,": 2558,
      "▁పరిశ": 2559,
      "▁దేశంలోని": 2560,
      "▁మొదల": 2561,
      "▁based": 2562,
      "▁రెండు": 2563,
      "▁styl": 2564,
      "▁contribut": 2565,
      "▁agriculture": 2566,
      "▁आधारित": 2567,
      "▁widely": 2568,
      "▁పట్టణ": 2569,
      "ప్పటిక": 2570,
      "▁mathematic": 2571,
      "▁technolog": 2572,
      "▁industry": 2573,
      "▁బహు": 2574,
      "▁उत्पाद": 2575,
      "▁employed": 2576,
      "▁literacy": 2577,
      "▁peninsular": 2578,
      "▁federal": 2579,
      "▁సింధ": 2580,
      "▁Persian": 2581,
      "▁ఇండియా": 2582,
      "ificant": 2583,
      "ministr": 2584,
      "▁educ": 2585,
      "▁southern": 2586,
      "▁సౌకర్య": 2587,
      "▁According": 2588,
      "▁ప్రముఖ": 2589,
      "▁జాబిత": 2590,
      "▁చరిత్ర": 2591,
      "▁వివిధ": 2592,
      "500": 2593,
      "70": 2594,
      "▁कर्": 2595,
      "▁सह": 2596,
      "▁जहाँ": 2597,
      "ाजिक": 2598,
      "▁इतिहास": 2599,
      "▁सामाजिक": 2600,
      "▁प्राप्त": 2601,
      "बंधन": 2602,
      "▁संगीत": 2603,
      ");": 2604,
      "टक": 2605,
      "तन": 2606,
      "र,": 2607,
      "शील": 2608,
      "सि": 2609,
      "▁अउ": 2610,
      "▁प्रभाव": 2611,
      "▁बाड़ी": 2612,
      "दीप": 2613,
      "स्थ": 2614,
      "्याद": 2615,
      "▁हिसाब": 2616,
      "खा": 2617,
      "▁सू": 2618,
      "▁पंजा": 2619,
      "▁आग": 2620,
      "▁दर": 2621,
      "▁रहे": 2622,
      "▁आधुनिक": 2623,
      "ुरुआ": 2624,
      "ण्ड": 2625,
      "▁टे": 2626,
      "▁एवं": 2627,
      "ummer": 2628,
      "▁विभ": 2629,
      "▁अन्त": 2630,
      "ुरू": 2631,
      "१९९": 2632,
      "▁जिसमें": 2633,
      "▁राजनीतिक": 2634,
      "▁बौद्ध": 2635,
      "120": 2636,
      "c.": 2637,
      "ook": 2638,
      "दारी": 2639,
      "फल": 2640,
      "रह": 2641,
      "सित": 2642,
      "ेष": 2643,
      "ॉल": 2644,
      "185": 2645,
      "▁थे": 2646,
      "▁उपमहा": 2647,
      "म्भ": 2648,
      "▁युद्ध": 2649,
      "▁बड़ा": 2650,
      "▁जवन": 2651,
      "▁दुन": 2652,
      "क्ट": 2653,
      "▁धी": 2654,
      "▁उत्त": 2655,
      "▁ला।": 2656,
      "▁अपना": 2657,
      "▁पुरान": 2658,
      "▁सिंध": 2659,
      "▁हवे।": 2660,
      "▁परंपरागत": 2661,
      "▁अर्थव": 2662,
      "ज़ी": 2663,
      "धिकारिक": 2664,
      "जन": 2665,
      "तम": 2666,
      "स्व": 2667,
      "ार्": 2668,
      "▁वे": 2669,
      "वादी": 2670,
      "करण": 2671,
      "▁ऊँच": 2672,
      "ंतर": 2673,
      "36": 2674,
      "गल": 2675,
      "तमान": 2676,
      "वरी": 2677,
      "सार": 2678,
      "्थ": 2679,
      "्ली": 2680,
      "▁आन्द": 2681,
      "ातर": 2682,
      "▁वर्ग": 2683,
      "-b": 2684,
      "-g": 2685,
      "11": 2686,
      "31": 2687,
      "46": 2688,
      "80": 2689,
      "In": 2690,
      "ax": 2691,
      "ai,": 2692,
      "bar": 2693,
      "ble": 2694,
      "bian": 2695,
      "can": 2696,
      "cial": 2697,
      "ched": 2698,
      "de": 2699,
      "ded": 2700,
      "ev": 2701,
      "ey": 2702,
      "gu": 2703,
      "gy": 2704,
      "han": 2705,
      "hand": 2706,
      "ians": 2707,
      "la": 2708,
      "mas": 2709,
      "mary": 2710,
      "miss": 2711,
      "nown": 2712,
      "oor": 2713,
      "pic": 2714,
      "pro": 2715,
      "ption": 2716,
      "ratic": 2717,
      "s;": 2718,
      "the": 2719,
      "tro": 2720,
      "ued": 2721,
      "uary": 2722,
      "xim": 2723,
      "ंट": 2724,
      "एँ": 2725,
      "कल": 2726,
      "जरात": 2727,
      "धार": 2728,
      "हें": 2729,
      "ेमा": 2730,
      "ोट": 2731,
      "्ञ": 2732,
      "२०": 2733,
      "२००": 2734,
      "గే": 2735,
      "గో": 2736,
      "గలు": 2737,
      "జి": 2738,
      "టం": 2739,
      "డే": 2740,
      "నాల": 2741,
      "బ్": 2742,
      "మించ": 2743,
      "మ్మ": 2744,
      "రం": 2745,
      "లస": 2746,
      "ళ్ల": 2747,
      "వడ": 2748,
      "వచ్చ": 2749,
      "షు": 2750,
      "ాట": 2751,
      "ాస": 2752,
      "ాన్ని": 2753,
      "ీప": 2754,
      "ుంది.": 2755,
      "్వ": 2756,
      "▁ఖ": 2757,
      "▁ve": 2758,
      "▁గా": 2759,
      "▁tem": 2760,
      "ann": 2761,
      "here": 2762,
      "ert": 2763,
      "eration": 2764,
      "▁सिन": 2765,
      "redi": 2766,
      "als,": 2767,
      "▁ob": 2768,
      "ather": 2769,
      "atak": 2770,
      "▁मूल": 2771,
      "arh": 2772,
      "ars": 2773,
      "▁civil": 2774,
      "▁aff": 2775,
      "▁indi": 2776,
      "▁west": 2777,
      "▁wild": 2778,
      "▁when": 2779,
      "▁so": 2780,
      "▁sit": 2781,
      "▁sing": 2782,
      "ory": 2783,
      "▁bor": 2784,
      "▁mult": 2785,
      "▁fl": 2786,
      "▁fast": 2787,
      "▁five": 2788,
      "▁four": 2789,
      "▁flow": 2790,
      "▁famil": 2791,
      "▁further": 2792,
      "▁పద్ధ": 2793,
      "▁పండు": 2794,
      "isl": 2795,
      "ing.": 2796,
      "ాలయ": 2797,
      "ouse": 2798,
      "▁eth": 2799,
      "▁empire": 2800,
      "▁every": 2801,
      "▁total": 2802,
      "▁Tem": 2803,
      "▁సమ": 2804,
      "▁సు": 2805,
      "▁సర్వ": 2806,
      "▁दि": 2807,
      "▁रक्षा": 2808,
      "▁domin": 2809,
      "▁his": 2810,
      "▁hig": 2811,
      "▁however,": 2812,
      "▁వాత": 2813,
      "▁Af": 2814,
      "ilt": 2815,
      "ility": 2816,
      "▁ren": 2817,
      "▁Civil": 2818,
      "▁now": 2819,
      "▁భూ": 2820,
      "▁glo": 2821,
      "though": 2822,
      "ole": 2823,
      "amp": 2824,
      "amic": 2825,
      "▁Southeast": 2826,
      "దేశ్": 2827,
      "▁सेना": 2828,
      "▁तट": 2829,
      "స్వామ": 2830,
      "▁రో": 2831,
      "▁రంగ": 2832,
      "ిక,": 2833,
      "▁ప్రకారం": 2834,
      "▁गठ": 2835,
      "ross": 2836,
      "roxim": 2837,
      "ाजप": 2838,
      "▁అను": 2839,
      "న్నాయి.": 2840,
      "ists": 2841,
      "ett": 2842,
      "astri": 2843,
      "▁Par": 2844,
      "▁Pro": 2845,
      "గా,": 2846,
      "angered": 2847,
      "▁conduc": 2848,
      "ాయి": 2849,
      "▁Gup": 2850,
      "▁చైన": 2851,
      "▁Nico": 2852,
      "▁ste": 2853,
      "ained": 2854,
      "▁Dal": 2855,
      "▁चीन": 2856,
      "నుక": 2857,
      "▁ann": 2858,
      "▁dist": 2859,
      "ల్లో": 2860,
      "ల్వే": 2861,
      "త్తం": 2862,
      "▁विदेश": 2863,
      "ively": 2864,
      "ock": 2865,
      "▁until": 2866,
      "▁Keral": 2867,
      "▁vi": 2868,
      "▁vast": 2869,
      "▁vari": 2870,
      "▁తన": 2871,
      "▁తమి": 2872,
      "▁సంఖ్య": 2873,
      "▁సంవత్": 2874,
      "▁బా": 2875,
      "▁విభ": 2876,
      "▁విశ": 2877,
      "anted": 2878,
      "ముద్ర": 2879,
      "▁worn": 2880,
      "▁స్వాత": 2881,
      "aput": 2882,
      "▁spread": 2883,
      "ism.": 2884,
      "oss": 2885,
      "▁prot": 2886,
      "▁partition": 2887,
      "▁plate": 2888,
      "▁again": 2889,
      "▁administr": 2890,
      "▁Hindust": 2891,
      "▁kingdom": 2892,
      "▁around": 2893,
      "▁formed": 2894,
      "▁Valle": 2895,
      "▁subsequ": 2896,
      "▁కూడిన": 2897,
      "▁Asian": 2898,
      "▁regions": 2899,
      "▁art,": 2900,
      "▁comple": 2901,
      "▁composed": 2902,
      "ricket": 2903,
      "▁నిర్వ": 2904,
      "epend": 2905,
      "▁endangered": 2906,
      "▁రైల్వే": 2907,
      "▁భారతదేశపు": 2908,
      "▁భారతదేశానికి": 2909,
      "▁resp": 2910,
      "▁మొత్తం": 2911,
      "▁rule.": 2912,
      "▁consid": 2913,
      "▁system,": 2914,
      "▁polic": 2915,
      "▁religions": 2916,
      "▁held": 2917,
      "▁import": 2918,
      "▁upper": 2919,
      "▁CE,": 2920,
      "▁increasing": 2921,
      "▁ఒకటి": 2922,
      "▁छोड़": 2923,
      "▁term": 2924,
      "▁caus": 2925,
      "▁Union": 2926,
      "▁traditional": 2927,
      "▁కోర్": 2928,
      "ట్లు": 2929,
      "సియా": 2930,
      "▁tex": 2931,
      "▁approxim": 2932,
      "▁official": 2933,
      "▁election,": 2934,
      "▁वर्षों": 2935,
      "▁record": 2936,
      "▁ప్రధానమ": 2937,
      "▁చేయ": 2938,
      "▁गुजरात": 2939,
      "రణం": 2940,
      "▁time": 2941,
      "▁times": 2942,
      "▁Although": 2943,
      "▁mid-": 2944,
      "▁middle": 2945,
      "▁This": 2946,
      "▁species,": 2947,
      "▁అధికారిక": 2948,
      "▁हुआ।": 2949,
      "▁పుట్ట": 2950,
      "▁leading": 2951,
      "▁మొదటి": 2952,
      "▁Plateau": 2953,
      "పాలిత": 2954,
      "ావరణం": 2955,
      "▁టె": 2956,
      "▁surv": 2957,
      "▁పూ.": 2958,
      "▁estim": 2959,
      "▁establ": 2960,
      "▁కార్య": 2961,
      "▁కారణంగా": 2962,
      "▁వేగంగా": 2963,
      "▁gradu": 2964,
      "ternal": 2965,
      "▁కేంద్రపాలిత": 2966,
      "▁सीमा": 2967,
      "▁significant": 2968,
      "▁వెబ్": 2969,
      "▁group": 2970,
      "▁జరిగిన": 2971,
      "▁influenced": 2972,
      "ీర్ణ": 2973,
      "▁ప్రస్తుతం": 2974,
      "▁అనేక": 2975,
      "emocratic": 2976,
      "▁January": 2977,
      "▁ఎక్కువగా": 2978,
      "▁coalition": 2979,
      "▁కాంగ్రెసు": 2980,
      "▁न्यायालय": 2981,
      "▁small": 2982,
      "▁birth": 2983,
      "▁liber": 2984,
      "▁differ": 2985,
      "▁Kashmir": 2986,
      "▁village": 2987,
      "▁legisl": 2988,
      "▁ప్రాచీన": 2989,
      "▁sculpture": 2990,
      "దారులు,": 2991,
      "▁oldest": 2992,
      "▁independ": 2993,
      "▁school": 2994,
      "▁earliest": 2995,
      "▁Bharat": 2996,
      "▁అభివ": 2997,
      "▁executive": 2998,
      "▁నడిపించ": 2999,
      "▁పరిశ్రమ": 3000,
      "▁education": 3001,
      "mission": 3002,
      "▁सिनेमा": 3003,
      "▁వాతావరణం": 3004,
      "▁Kerala": 3005,
      "▁తమిళ": 3006,
      "▁సంవత్స": 3007,
      "▁స్వాతంత్ర": 3008,
      "▁నిర్వహ": 3009,
      "▁approximately": 3010,
      "78": 3011,
      "द्र": 3012,
      "फी": 3013,
      "ोत": 3014,
      "▁सर्व": 3015,
      "▁मन": 3016,
      "▁केन्द्र": 3017,
      "ारम्भ": 3018,
      "▁भर": 3019,
      "▁नद": 3020,
      "▁प्रारम्भ": 3021,
      "▁ते": 3022,
      "▁बा,": 3023,
      "▁संयु": 3024,
      "▁इहाँ": 3025,
      "▁एकर": 3026,
      "▁निभा": 3027,
      "▁बढ़ती": 3028,
      "▁एही": 3029,
      "▁पार्टी": 3030,
      "▁संयुक्त": 3031,
      "डी": 3032,
      "दे": 3033,
      "ेड": 3034,
      "▁पहा": 3035,
      "ीपी": 3036,
      "▁युग": 3037,
      "▁अलग": 3038,
      "पालिका": 3039,
      "▁धीरे": 3040,
      "▁अर्थव्यवस्था": 3041,
      "श्म": 3042,
      "▁रचना": 3043,
      "िक्ष": 3044,
      "िल्ली": 3045,
      "वायु": 3046,
      "soon": 3047,
      "▁महत्व": 3048,
      "म्ब": 3049,
      "ष्ण": 3050,
      "▁जलवायु": 3051,
      "▁ब्रि": 3052,
      "▁यूरोप": 3053,
      "▁स्थापना": 3054,
      "्यादातर": 3055,
      "▁पंजाब": 3056,
      "ुरुआत": 3057,
      "श्मी": 3058,
      "दार": 3059,
      "न,": 3060,
      "वना": 3061,
      "▁बै": 3062,
      "▁जीत": 3063,
      "▁प्रशास": 3064,
      "▁प्रचल": 3065,
      "िस्ट": 3066,
      "▁चार": 3067,
      "▁Rep": 3068,
      "▁घा": 3069,
      "▁तीसरी": 3070,
      "▁आन्दोलन": 3071,
      "▁Republic": 3072,
      "25": 3073,
      "29": 3074,
      "700": 3075,
      "ंस": 3076,
      "ज्ञ": 3077,
      "थिय": 3078,
      "लों": 3079,
      "▁$": 3080,
      "▁/": 3081,
      "▁ऋ": 3082,
      "▁हा": 3083,
      "▁हथिय": 3084,
      "▁बड़ी": 3085,
      "्यों": 3086,
      "िकी": 3087,
      "▁करना": 3088,
      "क्षण": 3089,
      "▁अनु": 3090,
      "▁इसी": 3091,
      "▁था,": 3092,
      "▁जाति": 3093,
      "▁जाते": 3094,
      "▁अपनी": 3095,
      "▁गया।": 3096,
      "▁दोनों": 3097,
      "▁अमेर": 3098,
      "▁ठो": 3099,
      "▁भूमिका": 3100,
      "▁पहले": 3101,
      "▁हिंदू": 3102,
      "▁सिंधु": 3103,
      "▁गठबंधन": 3104,
      "ाजपा": 3105,
      "▁हथियार": 3106,
      "टन": 3107,
      "पे": 3108,
      "लिक": 3109,
      "ृद्ध": 3110,
      "▁बने": 3111,
      "▁जान": 3112,
      "▁अग": 3113,
      "▁अफ": 3114,
      "▁आक": 3115,
      "▁आधिकारिक": 3116,
      "▁नव": 3117,
      "▁गति": 3118,
      "▁जनता": 3119,
      "▁बहुमत": 3120,
      "ैदिक": 3121,
      "शासित": 3122,
      "▁बंगाल": 3123,
      "▁गांध": 3124,
      "▁उत्तरी": 3125,
      "ंक": 3126,
      "तः": 3127,
      "धि": 3128,
      "पति": 3129,
      "शा": 3130,
      "▁रू": 3131,
      "▁व्यापार": 3132,
      "▁शैली": 3133,
      "▁समर्थ": 3134,
      "▁खाना": 3135,
      "वाद": 3136,
      "▁वर्तमान": 3137,
      "ब्द": 3138,
      "▁अधिकार": 3139,
      "▁आदि": 3140,
      "22": 3141,
      "िथ": 3142,
      "ूद": 3143,
      "ौर": 3144,
      "▁ज्यादातर": 3145,
      "▁दिल्ली": 3146,
      "ृतिक": 3147,
      "पूर्ण": 3148,
      "▁इंडिया": 3149,
      "▁प्रशासन": 3150,
      "\".": 3151,
      "%),": 3152,
      "-e": 3153,
      "-k": 3154,
      "-स": 3155,
      "35": 3156,
      "HO": 3157,
      "aist": 3158,
      "aren": 3159,
      "back": 3160,
      "ced": 3161,
      "cut": 3162,
      "cast": 3163,
      "cross": 3164,
      "eb": 3165,
      "ez": 3166,
      "ely": 3167,
      "eated": 3168,
      "equ": 3169,
      "eign": 3170,
      "get": 3171,
      "garh": 3172,
      "lad": 3173,
      "ma": 3174,
      "mar": 3175,
      "mace": 3176,
      "o.": 3177,
      "ov": 3178,
      "otion": 3179,
      "por": 3180,
      "ran": 3181,
      "rish": 3182,
      "te": 3183,
      "ting": 3184,
      "tom": 3185,
      "tou": 3186,
      "ture": 3187,
      "uk": 3188,
      "wan": 3189,
      "way": 3190,
      "ward": 3191,
      "yp": 3192,
      "ya,": 3193,
      "चार": 3194,
      "बो": 3195,
      "ంద": 3196,
      "ంప": 3197,
      "కి": 3198,
      "ఖండ": 3199,
      "తులు": 3200,
      "దన": 3201,
      "ద్య": 3202,
      "ఫ్": 3203,
      "బె": 3204,
      "భారత": 3205,
      "మన": 3206,
      "మీ": 3207,
      "మె": 3208,
      "మై": 3209,
      "రాలు": 3210,
      "లే": 3211,
      "వ్య": 3212,
      "వి.": 3213,
      "వలం": 3214,
      "శ్చ": 3215,
      "శ్మ": 3216,
      "సై": 3217,
      "స్య": 3218,
      "సత్వ": 3219,
      "హార": 3220,
      "ాఖ": 3221,
      "ాప": 3222,
      "ూచ": 3223,
      "ూర్": 3224,
      "ెహ": 3225,
      "ే,": 3226,
      "ైగా": 3227,
      "ోర": 3228,
      "ౌద్ధ": 3229,
      "▁ఘ": 3230,
      "▁ఫ": 3231,
      "▁qu": 3232,
      "▁ఢిల్ల": 3233,
      "▁test": 3234,
      "▁turn": 3235,
      "▁tax": 3236,
      "hest": 3237,
      "ined": 3238,
      "ining": 3239,
      "ines,": 3240,
      "▁these": 3241,
      "ons": 3242,
      "ones": 3243,
      "erc": 3244,
      "eri": 3245,
      "erv": 3246,
      "ers.": 3247,
      "ergy": 3248,
      "▁सके": 3249,
      "▁सफल": 3250,
      "reme": 3251,
      "ali": 3252,
      "alw": 3253,
      "alay": 3254,
      "ality": 3255,
      "struc": 3256,
      "atical": 3257,
      "ened": 3258,
      "dia": 3259,
      "dis": 3260,
      "diately": 3261,
      "aries": 3262,
      "▁II": 3263,
      "anding": 3264,
      "▁c.": 3265,
      "▁can": 3266,
      "▁creat": 3267,
      "▁called": 3268,
      "▁invol": 3269,
      "▁intro": 3270,
      "ital": 3271,
      "itect": 3272,
      "▁writ": 3273,
      "▁wear": 3274,
      "▁waist": 3275,
      "▁sim": 3276,
      "▁sect": 3277,
      "▁sari": 3278,
      "▁saf": 3279,
      "▁six": 3280,
      "▁summer": 3281,
      "▁हर": 3282,
      "orm": 3283,
      "ors": 3284,
      "▁bri": 3285,
      "▁body": 3286,
      "▁Indira": 3287,
      "▁pan": 3288,
      "▁pil": 3289,
      "▁phar": 3290,
      "▁pred": 3291,
      "▁public": 3292,
      "▁pract": 3293,
      "ion,": 3294,
      "▁fam": 3295,
      "▁fest": 3296,
      "▁fem": 3297,
      "▁fish": 3298,
      "▁fund": 3299,
      "▁పద": 3300,
      "▁పొ": 3301,
      "▁పర్య": 3302,
      "▁పాత్ర": 3303,
      "▁పశ్చ": 3304,
      "▁పైగా": 3305,
      "ingh": 3306,
      "asi": 3307,
      "asure": 3308,
      "ారసత్వ": 3309,
      "▁lo": 3310,
      "▁lim": 3311,
      "▁lay": 3312,
      "ాలకు": 3313,
      "ాలతో": 3314,
      "▁equ": 3315,
      "▁took": 3316,
      "▁Tel": 3317,
      "▁Thar": 3318,
      "▁Tib": 3319,
      "▁आज": 3320,
      "▁క్య": 3321,
      "▁der": 3322,
      "▁dances": 3323,
      "▁వహ": 3324,
      "▁వై": 3325,
      "▁వంట": 3326,
      "▁వంటి": 3327,
      "▁వారసత్వ": 3328,
      "▁Ak": 3329,
      "▁As": 3330,
      "ile": 3331,
      "్యాయ": 3332,
      "▁ret": 3333,
      "▁report": 3334,
      "▁reduced": 3335,
      "▁relief": 3336,
      "▁reform": 3337,
      "▁Count": 3338,
      "▁Carn": 3339,
      "▁nat": 3340,
      "▁name": 3341,
      "▁nomin": 3342,
      "▁మే": 3343,
      "▁మాత్ర": 3344,
      "ravi": 3345,
      "ramas": 3346,
      "rial": 3347,
      "న్ఫ": 3348,
      "న్మ": 3349,
      "ola": 3350,
      "olid": 3351,
      "olence": 3352,
      "▁Their": 3353,
      "▁लंब": 3354,
      "▁Se": 3355,
      "▁Sri": 3356,
      "▁Singh": 3357,
      "ర్ల": 3358,
      "ర్కొ": 3359,
      "▁तरह": 3360,
      "స్,": 3361,
      "▁రకాల": 3362,
      "ికత": 3363,
      "utical": 3364,
      "▁అవ": 3365,
      "▁అని": 3366,
      "▁Me": 3367,
      "▁Mad": 3368,
      "▁Mum": 3369,
      "▁Many": 3370,
      "▁Mani": 3371,
      "ades": 3372,
      "etwork": 3373,
      "igr": 3374,
      "uscri": 3375,
      "anged": 3376,
      "▁शहरी": 3377,
      "▁being": 3378,
      "▁below": 3379,
      "▁before": 3380,
      "ాయక": 3381,
      "ాయు": 3382,
      "▁Gond": 3383,
      "▁Gree": 3384,
      "▁Ghat": 3385,
      "▁Nep": 3386,
      "▁Nuclear": 3387,
      "▁Non-": 3388,
      "▁str": 3389,
      "▁Des": 3390,
      "▁Dec": 3391,
      "▁Dem": 3392,
      "▁Dance": 3393,
      "▁Dravi": 3394,
      "కుంట": 3395,
      "acted": 3396,
      "▁However,": 3397,
      "▁ఇవ": 3398,
      "▁ఇన్ఫ": 3399,
      "ला,": 3400,
      "▁exc": 3401,
      "▁exch": 3402,
      "▁external": 3403,
      "ably": 3404,
      "abad": 3405,
      "ability": 3406,
      "▁diverse": 3407,
      "తి,": 3408,
      "ించే": 3409,
      "స్తారు.": 3410,
      "ders": 3411,
      "elf": 3412,
      "▁ఆక్రమ": 3413,
      "▁ఆఫ్": 3414,
      "oci": 3415,
      "▁areas.": 3416,
      "ulting": 3417,
      "▁Karn": 3418,
      "▁Krish": 3419,
      "▁నాలు": 3420,
      "▁న్యాయ": 3421,
      "lif": 3422,
      "lied": 3423,
      "liance": 3424,
      "▁vis": 3425,
      "▁సంక": 3426,
      "▁సంఘ": 3427,
      "▁సంప్రదాయ": 3428,
      "▁బౌద్ధ": 3429,
      "ival": 3430,
      "iving": 3431,
      "overeign": 3432,
      "▁centre": 3433,
      "▁Ram": 3434,
      "ము.": 3435,
      "ములో": 3436,
      "టిలో": 3437,
      "▁గో": 3438,
      "▁Utt": 3439,
      "ंदिर": 3440,
      "▁char": 3441,
      "▁changes": 3442,
      "▁सभ्यता": 3443,
      "avi": 3444,
      "aving": 3445,
      "▁sport": 3446,
      "▁speak": 3447,
      "▁ఉన్నారు.": 3448,
      "▁prov": 3449,
      "▁proces": 3450,
      "▁place": 3451,
      "ంటే": 3452,
      "ameez": 3453,
      "క్షరా": 3454,
      "ified": 3455,
      "ीं।": 3456,
      "▁पूरा": 3457,
      "▁Fore": 3458,
      "▁ago.": 3459,
      "mediately": 3460,
      "▁హిమ": 3461,
      "▁addition": 3462,
      "▁relations": 3463,
      "▁Hinduism": 3464,
      "▁Hinduism,": 3465,
      "▁known": 3466,
      "▁economy.": 3467,
      "స్థాన్": 3468,
      "▁Va": 3469,
      "ంచి": 3470,
      "▁దేశానికి": 3471,
      "▁దేశాలలో": 3472,
      "▁elit": 3473,
      "▁Asia,": 3474,
      "▁show": 3475,
      "▁decades": 3476,
      "reasing": 3477,
      "▁భాగ": 3478,
      "rica": 3479,
      "▁నిర్": 3480,
      "▁లోని": 3481,
      "▁లోక్": 3482,
      "▁రైళ్ల": 3483,
      "▁resulting": 3484,
      "▁consum": 3485,
      "▁consolid": 3486,
      "▁రాష్ట్రాల": 3487,
      "▁రాష్ట్రాలు": 3488,
      "▁supp": 3489,
      "▁poll": 3490,
      "▁లే": 3491,
      "▁లక్ష": 3492,
      "▁head": 3493,
      "▁meat": 3494,
      "▁minister.": 3495,
      "▁Ancient": 3496,
      "▁BCE,": 3497,
      "▁BCE.": 3498,
      "టుంబ": 3499,
      "rent": 3500,
      "▁ముంబ": 3501,
      "▁Buddhism": 3502,
      "▁रहल।": 3503,
      "▁scri": 3504,
      "▁societ": 3505,
      "▁కాశ్మ": 3506,
      "▁dance-d": 3507,
      "▁disput": 3508,
      "▁traditionally": 3509,
      "గువ": 3510,
      "డ్డు": 3511,
      "▁serv": 3512,
      "▁కోట్ల": 3513,
      "▁చెందిన": 3514,
      "▁చెందు": 3515,
      "▁భారతదేశంలోని": 3516,
      "▁just": 3517,
      "▁appear": 3518,
      "▁కేవలం": 3519,
      "▁వచ్చిన": 3520,
      "▁Constit": 3521,
      "amental": 3522,
      "नावल": 3523,
      "▁देखा": 3524,
      "odiversity": 3525,
      "▁about": 3526,
      "▁secular": 3527,
      "▁follow": 3528,
      "▁foreign": 3529,
      "▁కుటుంబ": 3530,
      "▁క్రీ.": 3531,
      "▁All": 3532,
      "▁Pakistan.": 3533,
      "▁ఆర్థ": 3534,
      "▁developed": 3535,
      "▁influence": 3536,
      "▁extant": 3537,
      "▁extens": 3538,
      "▁species": 3539,
      "▁భాషలు": 3540,
      "▁రాజ్యాలు": 3541,
      "▁స్థానంలో": 3542,
      "▁దక్షిణా": 3543,
      "▁Punjab,": 3544,
      "vention": 3545,
      "ష్ణ": 3546,
      "▁enacted": 3547,
      "▁European": 3548,
      "▁rights": 3549,
      "▁colleg": 3550,
      "▁సభ్య": 3551,
      "▁States": 3552,
      "▁thought": 3553,
      "ternational": 3554,
      "▁style": 3555,
      "ిత్రక": 3556,
      "▁contribution": 3557,
      "▁agricultural": 3558,
      "▁సాంప్రదాయ": 3559,
      "బడిన": 3560,
      "లామ": 3561,
      "▁యు": 3562,
      "▁పరంగా": 3563,
      "▁ఉంటాయి.": 3564,
      "▁third-largest": 3565,
      "ident,": 3566,
      "▁Indo-A": 3567,
      "▁territories": 3568,
      "बिध": 3569,
      "vided": 3570,
      "▁cities": 3571,
      "▁features": 3572,
      "▁పాక్": 3573,
      "▁greater": 3574,
      "▁స్వతంత్ర": 3575,
      "▁cooked": 3576,
      "▁cooking": 3577,
      "▁సాధించ": 3578,
      "ుకోవడ": 3579,
      "▁దక్షిణాన": 3580,
      "▁ద్వీప": 3581,
      "▁painting,": 3582,
      "▁పాకిస్తాన్": 3583,
      "▁పాకిస్థాన్": 3584,
      "▁census": 3585,
      "▁built": 3586,
      "▁Banglad": 3587,
      "▁Brahmaput": 3588,
      "ropical": 3589,
      "▁Maur": 3590,
      "▁సంస్కృతి": 3591,
      "▁సంగీతం": 3592,
      "▁architect": 3593,
      "▁సినిమా": 3594,
      "▁directly": 3595,
      "▁డాల": 3596,
      "▁crust": 3597,
      "▁makes": 3598,
      "▁మూడు": 3599,
      "▁రహదారులు,": 3600,
      "▁ఆధార": 3601,
      "▁బ్రిటి": 3602,
      "▁బెంగాల": 3603,
      "▁commercial": 3604,
      "▁commonly": 3605,
      "▁శతాబ్దం": 3606,
      "▁continued": 3607,
      "▁సామ్రా": 3608,
      "ాబాద్": 3609,
      "▁technology": 3610,
      "▁జాబితా": 3611,
      "▁दुनिया": 3612,
      "▁veget": 3613,
      "▁indigen": 3614,
      "▁single": 3615,
      "▁families": 3616,
      "▁Temple": 3617,
      "▁సర్వీ": 3618,
      "▁दिहल": 3619,
      "▁highest": 3620,
      "▁Africa": 3621,
      "▁renew": 3622,
      "▁global": 3623,
      "స్వామ్య": 3624,
      "▁రోడ్డు": 3625,
      "▁conducted": 3626,
      "▁Gupta": 3627,
      "▁Nicobar": 3628,
      "▁kingdoms": 3629,
      "▁Valley": 3630,
      "▁important": 3631,
      "▁recorded": 3632,
      "▁ప్రధానమంత్రి": 3633,
      "▁estimated": 3634,
      "▁established": 3635,
      "▁వెబ్సై": 3636,
      "▁different": 3637,
      "▁అభివృద్ధి": 3638,
      "maceutical": 3639,
      "touch": 3640,
      "స్యత": 3641,
      "▁sector": 3642,
      "▁pharmaceutical": 3643,
      "▁fundamental": 3644,
      "▁పశ్చిమ": 3645,
      "▁Tibet": 3646,
      "▁Carnatic": 3647,
      "▁మాత్రం": 3648,
      "▁Mumb": 3649,
      "▁Greek": 3650,
      "▁Nepal": 3651,
      "▁Dravidian": 3652,
      "▁Karnatak": 3653,
      "▁Krishn": 3654,
      "▁Uttar": 3655,
      "క్షరాస్యత": 3656,
      "▁హిమాలయ": 3657,
      "▁dance-dramas": 3658,
      "▁చెందుతున్న": 3659,
      "▁Bangladesh": 3660,
      "एं": 3661,
      "ूत": 3662,
      "ोच्च": 3663,
      "▁पठ": 3664,
      "▁बार": 3665,
      "▁जिन्": 3666,
      "▁व्यवस्था": 3667,
      "▁सेवा": 3668,
      "▁उस": 3669,
      "▁की।": 3670,
      "▁चा": 3671,
      "▁होती": 3672,
      "▁सम्प": 3673,
      "री,": 3674,
      "१९७": 3675,
      "१९८": 3676,
      "▁जिसके": 3677,
      "▁अपने": 3678,
      "▁डॉल": 3679,
      "▁ऊपर": 3680,
      "िवार": 3681,
      "▁बड़े": 3682,
      "▁किन्तु": 3683,
      "ृष्ट": 3684,
      "▁विस्तृत": 3685,
      "▁कर्ज": 3686,
      "▁सहयोग": 3687,
      "▁विदेशी": 3688,
      "▁सर्वोच्च": 3689,
      "▁डॉलर": 3690,
      "ची": 3691,
      "यल": 3692,
      "शत": 3693,
      "ोढ़": 3694,
      "▁कश्मी": 3695,
      "▁मिला": 3696,
      "▁दल": 3697,
      "▁नदी": 3698,
      "ानी": 3699,
      "▁प्रद": 3700,
      "▁(क": 3701,
      "▁विवाद": 3702,
      "▁वर्ण": 3703,
      "▁राष्ट्रपति": 3704,
      "▁अंग्रेज़ी": 3705,
      "▁इंडो": 3706,
      "▁जलोढ़": 3707,
      "▁प्रतिशत": 3708,
      "▁जबकि": 3709,
      "▁यूरोपीय": 3710,
      "64": 3711,
      "त्या": 3712,
      "भाषा": 3713,
      "रो": 3714,
      "ल,": 3715,
      "लिम": 3716,
      "वास": 3717,
      "वर्ष": 3718,
      "सून": 3719,
      "ुष": 3720,
      "ोर": 3721,
      "▁सल": 3722,
      "▁सो": 3723,
      "▁मंत्र": 3724,
      "▁पी": 3725,
      "▁आर्": 3726,
      "▁बाकी": 3727,
      "▁बाहरी": 3728,
      "▁ची": 3729,
      "▁समा": 3730,
      "स्लिम": 3731,
      "▁खे": 3732,
      "▁मानसून": 3733,
      "▁गुप्त": 3734,
      "900": 3735,
      "ंथ": 3736,
      "ंस्क": 3737,
      "ब्यवस्था": 3738,
      "स।": 3739,
      "▁पु": 3740,
      "▁बज": 3741,
      "▁जाल": 3742,
      "▁अश": 3743,
      "▁दर्": 3744,
      "▁तीन": 3745,
      "▁तुल": 3746,
      "▁(P": 3747,
      "▁राजा": 3748,
      "▁एकरे": 3749,
      "टेक्": 3750,
      "▁नाच": 3751,
      "▁जनवरी": 3752,
      "बंधीय": 3753,
      "▁चुकल": 3754,
      "▁गइल।": 3755,
      "▁भइल।": 3756,
      "ंबर": 3757,
      "▁अर्थब्यवस्था": 3758,
      "टिबंधीय": 3759,
      "▁बाने।": 3760,
      "ंस्कृतिक": 3761,
      "27": 3762,
      "43": 3763,
      "book": 3764,
      "गोल": 3765,
      "डिया": 3766,
      "बूत": 3767,
      "भाष": 3768,
      "वत": 3769,
      "ुट": 3770,
      "ूह": 3771,
      "▁मे": 3772,
      "▁मै": 3773,
      "▁माम": 3774,
      "▁मंदिर": 3775,
      "▁ता": 3776,
      "▁(c.": 3777,
      "▁उठ": 3778,
      "▁निर्य": 3779,
      "▁Fact": 3780,
      "▁दूस": 3781,
      "▁घोषित": 3782,
      "ज्ञान": 3783,
      "▁पठार": 3784,
      "▁निर्यात": 3785,
      "▁Factbook": 3786,
      "डीपी": 3787,
      "तु": 3788,
      "हते": 3789,
      "१८": 3790,
      "–(": 3791,
      "▁ऐ": 3792,
      "▁भाजपा": 3793,
      "▁बनी": 3794,
      "▁जु": 3795,
      "▁जै": 3796,
      "▁जाना": 3797,
      "▁दृष्ट": 3798,
      "▁वैदिक": 3799,
      "्ते": 3800,
      "▁लिया": 3801,
      "▁गए": 3802,
      "▁ग्र": 3803,
      "▁पर्य": 3804,
      "▁उन्": 3805,
      "▁शक्ति": 3806,
      "▁शब्द": 3807,
      "क्स": 3808,
      "▁होते": 3809,
      "▁करता": 3810,
      "▁इसकी": 3811,
      "िन्न": 3812,
      "ाष्ट्रीय": 3813,
      "▁शास्त्र": 3814,
      "१९५": 3815,
      "१९६": 3816,
      "▁पूर्वी": 3817,
      "▁बनाने": 3818,
      "▁अमरी": 3819,
      "▁दिया।": 3820,
      "▁अभी": 3821,
      "▁हिन्दू": 3822,
      "्रीका": 3823,
      "▁विभिन्न": 3824,
      "२०१": 3825,
      "▁ऋतु": 3826,
      "▁अफ्रीका": 3827,
      "▁गांधी": 3828,
      "▁समर्थन": 3829,
      "date": 3830,
      "ंह": 3831,
      "ई,": 3832,
      "गरी": 3833,
      "तर": 3834,
      "धे": 3835,
      "नत": 3836,
      "पि": 3837,
      "यन": 3838,
      "ोसी": 3839,
      "▁किस": 3840,
      "▁पहु": 3841,
      "▁वाल": 3842,
      "▁वीं": 3843,
      "्तनत": 3844,
      "▁लड़ा": 3845,
      "▁शुरू": 3846,
      "ेशन": 3847,
      "▁फ्रा": 3848,
      "भाग": 3849,
      "▁update": 3850,
      "▁मिलियन": 3851,
      "▁विकसित": 3852,
      "टिश": 3853,
      "▁नीचे": 3854,
      "▁पड़ोसी": 3855,
      "▁उपमहाद्वीप": 3856,
      "▁ब्रिटिश": 3857,
      "पेक्ष": 3858,
      "▁सल्तनत": 3859,
      "▁चीज": 3860,
      "▁पहुँच": 3861,
      "72": 3862,
      "चर": 3863,
      "ये": 3864,
      "व,": 3865,
      "वर्": 3866,
      "शाली": 3867,
      "हि": 3868,
      "ा,": 3869,
      "िज": 3870,
      "ीक्षण": 3871,
      "ेप": 3872,
      "▁झ": 3873,
      "▁मल": 3874,
      "▁जइ": 3875,
      "▁रख": 3876,
      "▁रा": 3877,
      "▁से,": 3878,
      "▁परीक्षण": 3879,
      "▁उष्ण": 3880,
      "▁संबि": 3881,
      "▁इस्": 3882,
      "▁शिक्ष": 3883,
      "▁समु": 3884,
      "▁अनेक": 3885,
      "▁जेह": 3886,
      "किटेक्": 3887,
      "▁बिबिध": 3888,
      "▁लिहल": 3889,
      "ध्यम": 3890,
      "▁ट्रा": 3891,
      "▁मिलल": 3892,
      "▁मिले": 3893,
      "▁देखल": 3894,
      "▁पुरुष": 3895,
      "▁कार्यकाल": 3896,
      "▁पहिल": 3897,
      "▁जीवन": 3898,
      "▁असम": 3899,
      "▁आयात": 3900,
      "▁होला।": 3901,
      "▁मौर्य": 3902,
      "▁भागी": 3903,
      "▁माध्यम": 3904,
      "▁पच्छिमी": 3905,
      "▁अउर": 3906,
      "▁टेली": 3907,
      "▁मंत्रिम": 3908,
      "▁आर्किटेक्": 3909,
      "▁तुलना": 3910,
      "▁संबिधान": 3911,
      "▁इस्ला": 3912,
      "▁शिक्षा": 3913,
      "-B": 3914,
      "-f": 3915,
      "-r": 3916,
      "-t": 3917,
      "-w": 3918,
      "-आ": 3919,
      "32": 3920,
      "60": 3921,
      "63": 3922,
      "82": 3923,
      "BN": 3924,
      "DA": 3925,
      "Eur": 3926,
      "IS": 3927,
      "PA": 3928,
      "Zor": 3929,
      "aic": 3930,
      "after": 3931,
      "ahar": 3932,
      "bly": 3933,
      "bar,": 3934,
      "ds": 3935,
      "dar": 3936,
      "del": 3937,
      "ex": 3938,
      "gth": 3939,
      "genc": 3940,
      "jant": 3941,
      "ject": 3942,
      "jo-": 3943,
      "ken": 3944,
      "kim": 3945,
      "khand": 3946,
      "lal": 3947,
      "land": 3948,
      "long": 3949,
      "line": 3950,
      "lung": 3951,
      "ms": 3952,
      "mun": 3953,
      "mend": 3954,
      "nd": 3955,
      "ne": 3956,
      "ning": 3957,
      "nings": 3958,
      "ove": 3959,
      "osi": 3960,
      "oastri": 3961,
      "pen": 3962,
      "pay": 3963,
      "pend": 3964,
      "pass": 3965,
      "pts": 3966,
      "rdu": 3967,
      "tic": 3968,
      "ta,": 3969,
      "ty,": 3970,
      "ty.": 3971,
      "u,": 3972,
      "uf": 3973,
      "ues": 3974,
      "uis": 3975,
      "uent": 3976,
      "us,": 3977,
      "uous": 3978,
      "vara": 3979,
      "yn": 3980,
      "yth": 3981,
      "काज": 3982,
      "चा": 3983,
      "डु": 3984,
      "पात": 3985,
      "र-": 3986,
      "ूट": 3987,
      "ంజ": 3988,
      "కా": 3989,
      "కో": 3990,
      "గణ": 3991,
      "గతి": 3992,
      "జీ": 3993,
      "జాలు": 3994,
      "జాత": 3995,
      "డిన": 3996,
      "తూ": 3997,
      "తము": 3998,
      "దటి": 3999,
      "దరణ": 4000,
      "నీ": 4001,
      "నలో": 4002,
      "నది": 4003,
      "పరి": 4004,
      "పిక్": 4005,
      "బంధ": 4006,
      "బడ్డ": 4007,
      "మొ": 4008,
      "మాలు": 4009,
      "మాన": 4010,
      "మతి": 4011,
      "యాలు": 4012,
      "యింది.": 4013,
      "యాలో": 4014,
      "రత": 4015,
      "రీ": 4016,
      "రే": 4017,
      "లిం": 4018,
      "ళ్": 4019,
      "ళిక": 4020,
      "వె": 4021,
      "శీ": 4022,
      "శ్ర": 4023,
      "షన్": 4024,
      "సా": 4025,
      "సిం": 4026,
      "సులు": 4027,
      "సింది.": 4028,
      "ాంగ": 4029,
      "ాదా": 4030,
      "ిప": 4031,
      "ియ": 4032,
      "ీ-": 4033,
      "ీఠ": 4034,
      "ీర": 4035,
      "ీలో": 4036,
      "ీటిలో": 4037,
      "ున్న": 4038,
      "ూరు": 4039,
      "ెట్": 4040,
      "ే.": 4041,
      "—s": 4042,
      "—w": 4043,
      "▁er": 4044,
      "▁ది": 4045,
      "▁ro": 4046,
      "▁ir": 4047,
      "▁తి": 4048,
      "▁eng": 4049,
      "▁very": 4050,
      "▁Zor": 4051,
      "▁ten": 4052,
      "▁tand": 4053,
      "▁tak": 4054,
      "▁tropical": 4055,
      "an,": 4056,
      "ana": 4057,
      "andi": 4058,
      "anag": 4059,
      "in,": 4060,
      "inc": 4061,
      "ine,": 4062,
      "ine.": 4063,
      "indh": 4064,
      "▁then": 4065,
      "onom": 4066,
      "onial": 4067,
      "er.": 4068,
      "eror": 4069,
      "erch": 4070,
      "erable": 4071,
      "re.": 4072,
      "reg": 4073,
      "reen": 4074,
      "ales": 4075,
      "alore": 4076,
      "▁opp": 4077,
      "str": 4078,
      "ats": 4079,
      "aten": 4080,
      "ator": 4081,
      "ates,": 4082,
      "attle": 4083,
      "ense": 4084,
      "div": 4085,
      "dish": 4086,
      "diev": 4087,
      "ar.": 4088,
      "arb": 4089,
      "araj": 4090,
      "arian": 4091,
      "and,": 4092,
      "▁cal": 4093,
      "▁cle": 4094,
      "▁crit": 4095,
      "▁cos": 4096,
      "▁came": 4097,
      "▁cruc": 4098,
      "▁could": 4099,
      "▁cultural": 4100,
      "▁cricket": 4101,
      "▁cattle": 4102,
      "▁aver": 4103,
      "▁across": 4104,
      "▁inst": 4105,
      "▁init": 4106,
      "▁institution": 4107,
      "▁inequ": 4108,
      "ita": 4109,
      "itat": 4110,
      "ither": 4111,
      "itud": 4112,
      "itated": 4113,
      "▁went": 4114,
      "▁would": 4115,
      "▁sar": 4116,
      "▁sav": 4117,
      "▁slow": 4118,
      "▁siz": 4119,
      "▁somet": 4120,
      "▁sovereign": 4121,
      "orter": 4122,
      "ortion": 4123,
      "▁band": 4124,
      "▁bro": 4125,
      "▁bot": 4126,
      "▁bron": 4127,
      "▁back": 4128,
      "▁bread": 4129,
      "▁pat": 4130,
      "▁par": 4131,
      "▁pur": 4132,
      "▁pover": 4133,
      "ions,": 4134,
      "esc": 4135,
      "ese,": 4136,
      "▁min": 4137,
      "▁mal": 4138,
      "▁marg": 4139,
      "▁much": 4140,
      "▁mi)": 4141,
      "▁mamm": 4142,
      "▁migr": 4143,
      "▁merch": 4144,
      "▁fin": 4145,
      "▁fra": 4146,
      "▁fall": 4147,
      "▁fact": 4148,
      "▁fash": 4149,
      "ic,": 4150,
      "ict": 4151,
      "ices": 4152,
      "▁పార్": 4153,
      "▁పంచ": 4154,
      "▁పీఠ": 4155,
      "is,": 4156,
      "is.": 4157,
      "isen": 4158,
      "ises": 4159,
      "ారా": 4160,
      "ారిత్రక": 4161,
      "▁lies": 4162,
      "▁lik": 4163,
      "▁law": 4164,
      "▁loss": 4165,
      "ents": 4166,
      "oming": 4167,
      "omest": 4168,
      "ాలా": 4169,
      "ాలనే": 4170,
      "ాలెండ": 4171,
      "▁जैन": 4172,
      "▁eff": 4173,
      "▁eight": 4174,
      "▁epic": 4175,
      "▁eaten": 4176,
      "▁top": 4177,
      "▁today": 4178,
      "▁town": 4179,
      "▁Ter": 4180,
      "▁Treat": 4181,
      "▁अध": 4182,
      "▁आंद": 4183,
      "▁సహ": 4184,
      "▁సార": 4185,
      "▁స్ట": 4186,
      "▁సైన": 4187,
      "▁సార్": 4188,
      "▁సముద్ర": 4189,
      "▁సూచ": 4190,
      "▁కథ": 4191,
      "▁కల": 4192,
      "▁కన్న": 4193,
      "▁కింద": 4194,
      "▁కంప": 4195,
      "▁dh": 4196,
      "▁do": 4197,
      "▁dri": 4198,
      "▁due": 4199,
      "urid": 4200,
      "urred": 4201,
      "lymp": 4202,
      "▁hy": 4203,
      "▁hab": 4204,
      "▁hub": 4205,
      "▁having": 4206,
      "▁వల": 4207,
      "▁వీటిలో": 4208,
      "▁Ash": 4209,
      "▁Ajant": 4210,
      "ilar": 4211,
      "ilomet": 4212,
      "ilway": 4213,
      "▁reac": 4214,
      "▁reven": 4215,
      "▁Cl": 4216,
      "▁Cap": 4217,
      "▁Cav": 4218,
      "▁nation": 4219,
      "▁భౌ": 4220,
      "▁భిన్న": 4221,
      "▁మా": 4222,
      "▁మీ": 4223,
      "▁మై": 4224,
      "▁మౌ": 4225,
      "▁మాత": 4226,
      "▁మంది": 4227,
      "▁gas": 4228,
      "▁god": 4229,
      "▁gave": 4230,
      "▁good": 4231,
      "▁gold": 4232,
      "190": 4233,
      "192": 4234,
      "ri,": 4235,
      "rid": 4236,
      "rist": 4237,
      "ries": 4238,
      "riya,": 4239,
      "olit": 4240,
      "ulk": 4241,
      "uled": 4242,
      "ample": 4243,
      "▁Bay": 4244,
      "▁She": 4245,
      "దేశీ": 4246,
      "ర్,": 4247,
      "ర్చ": 4248,
      "ర్త": 4249,
      "ర్ష": 4250,
      "ర్మే": 4251,
      "▁तेल": 4252,
      "స్లామ": 4253,
      "▁రి": 4254,
      "▁రే": 4255,
      "▁ప్రారం": 4256,
      "▁ప్రదేశ్": 4257,
      "▁गै": 4258,
      "utes": 4259,
      "uture": 4260,
      "ाजन": 4261,
      "▁అహ": 4262,
      "▁(In": 4263,
      "▁(వె": 4264,
      "▁Man": 4265,
      "▁Mid": 4266,
      "▁Mach": 4267,
      "▁Modi": 4268,
      "▁Marat": 4269,
      "▁Myan": 4270,
      "▁Malay": 4271,
      "▁isol": 4272,
      "adwe": 4273,
      "imes": 4274,
      "ush": 4275,
      "▁Pud": 4276,
      "▁Pres": 4277,
      "▁Pall": 4278,
      "une": 4279,
      "▁ఉండ": 4280,
      "▁threat": 4281,
      "▁those": 4282,
      "▁rich": 4283,
      "▁rather": 4284,
      "▁role": 4285,
      "▁शा": 4286,
      "▁श्र": 4287,
      "▁शाम": 4288,
      "నిస్తాన్": 4289,
      "ucher": 4290,
      "▁belief": 4291,
      "▁belong": 4292,
      "embly": 4293,
      "క్నాల": 4294,
      "▁conce": 4295,
      "romise": 4296,
      "▁జరు": 4297,
      "▁జంబ": 4298,
      "▁జమ్మ": 4299,
      "▁జన్మ": 4300,
      "▁Geograph": 4301,
      "▁सांस्कृतिक": 4302,
      "age.": 4303,
      "operation": 4304,
      "▁చి": 4305,
      "▁చారిత్రక": 4306,
      "▁చాలా": 4307,
      "ासा": 4308,
      "ాతం": 4309,
      "ాతో": 4310,
      "▁Nag": 4311,
      "▁New": 4312,
      "▁North": 4313,
      "▁moist": 4314,
      "▁Econom": 4315,
      "▁Early": 4316,
      "▁stren": 4317,
      "▁De": 4318,
      "▁Democratic": 4319,
      "కులు": 4320,
      "acter": 4321,
      "▁ఇవి": 4322,
      "▁ఇక్క": 4323,
      "▁ఇంగ్ల": 4324,
      "▁ఇస్లామ": 4325,
      "▁extin": 4326,
      "▁example": 4327,
      "abh": 4328,
      "akh": 4329,
      "▁anot": 4330,
      "illed": 4331,
      "ినీ": 4332,
      "▁div": 4333,
      "ల్లు": 4334,
      "▁organ": 4335,
      "త్త": 4336,
      "తిగా": 4337,
      "ించి,": 4338,
      "స్తారు": 4339,
      "▁areas": 4340,
      "resent": 4341,
      "▁Kal": 4342,
      "▁నృ": 4343,
      "oted": 4344,
      "▁varn": 4345,
      "▁vict": 4346,
      "▁తూర్": 4347,
      "▁సంబంధ": 4348,
      "▁బంగ్ల": 4349,
      "▁విద్య": 4350,
      "▁విదేశీ": 4351,
      "iva": 4352,
      "ivity": 4353,
      "రుష": 4354,
      "ary,": 4355,
      "▁Re": 4356,
      "▁WHO": 4357,
      "ముఖ్య": 4358,
      "ryan": 4359,
      "▁గణ": 4360,
      "▁Chand": 4361,
      "▁Chola": 4362,
      "▁Urdu": 4363,
      "▁att": 4364,
      "▁Jhar": 4365,
      "▁Jaw": 4366,
      "▁Jamm": 4367,
      "▁chos": 4368,
      "▁child": 4369,
      "▁churid": 4370,
      "ogn": 4371,
      "▁శ్రీ": 4372,
      "▁శెల": 4373,
      "▁contain": 4374,
      "▁contains": 4375,
      "osition": 4376,
      "▁provided": 4377,
      "▁parts": 4378,
      "▁partic": 4379,
      "ective": 4380,
      "▁దీ": 4381,
      "▁దాదా": 4382,
      "▁level": 4383,
      "▁pers": 4384,
      "anguages": 4385,
      "విధ్య": 4386,
      "ally,": 4387,
      "▁becoming": 4388,
      "▁century.": 4389,
      "▁centuries,": 4390,
      "▁For": 4391,
      "▁Fron": 4392,
      "▁clim": 4393,
      "▁ago,": 4394,
      "▁హై": 4395,
      "▁adv": 4396,
      "▁adop": 4397,
      "▁added": 4398,
      "▁relative": 4399,
      "▁kh": 4400,
      "▁kameez": 4401,
      "▁kilomet": 4402,
      "▁language,": 4403,
      "▁languages,": 4404,
      "▁forms": 4405,
      "▁formal": 4406,
      "▁world.": 4407,
      "▁sep": 4408,
      "ressed": 4409,
      "▁marked": 4410,
      "▁elected": 4411,
      "▁కూడుకు": 4412,
      "▁Asia.": 4413,
      "▁region.": 4414,
      "▁regions.": 4415,
      "ట్టమొ": 4416,
      "తరాలు": 4417,
      "▁L.": 4418,
      "▁Lank": 4419,
      "▁Laksh": 4420,
      "▁Languages": 4421,
      "▁Old": 4422,
      "▁Olymp": 4423,
      "▁Indones": 4424,
      "▁share": 4425,
      "▁shalw": 4426,
      "▁primary": 4427,
      "▁decade": 4428,
      "▁government,": 4429,
      "▁governments": 4430,
      "ద్ధం": 4431,
      "▁year.": 4432,
      "▁populous": 4433,
      "ship": 4434,
      "▁దేశంగా": 4435,
      "▁trade": 4436,
      "reath": 4437,
      "▁భావి": 4438,
      "▁compan": 4439,
      "▁compromise": 4440,
      "oka": 4441,
      "లిచ": 4442,
      "▁వ్యాప": 4443,
      "▁పేర్కొ": 4444,
      "▁resident": 4445,
      "▁మొట్టమొ": 4446,
      "▁consists": 4447,
      "▁రాష్ట్రాలు,": 4448,
      "▁system.": 4449,
      "ency,": 4450,
      "▁suppl": 4451,
      "మైనది.": 4452,
      "ాకా": 4453,
      "▁heredi": 4454,
      "▁impro": 4455,
      "▁immediately": 4456,
      "ineering": 4457,
      "▁ministers.": 4458,
      "▁latter": 4459,
      "renc": 4460,
      "▁ఒకే": 4461,
      "పాదన": 4462,
      "▁displ": 4463,
      "తుంది.": 4464,
      "▁growing": 4465,
      "ology": 4466,
      "▁Empire.": 4467,
      "▁expans": 4468,
      "▁express": 4469,
      "▁ఎన్నిక": 4470,
      "▁उत्तर-प": 4471,
      "▁numbers": 4472,
      "భాగం": 4473,
      "▁jur": 4474,
      "▁railway": 4475,
      "▁urbanisation": 4476,
      "▁tea": 4477,
      "▁office": 4478,
      "▁milk": 4479,
      "achal": 4480,
      "ellion": 4481,
      "▁elections": 4482,
      "▁abs": 4483,
      "▁above": 4484,
      "▁recent": 4485,
      "▁recogn": 4486,
      "▁northwest": 4487,
      "స్తున్న": 4488,
      "▁వ్యవస్థలో": 4489,
      "▁later,": 4490,
      "▁लोकसभा": 4491,
      "▁time,": 4492,
      "▁emperor": 4493,
      "▁Shank": 4494,
      "▁Shiva": 4495,
      "▁ప్రజల": 4496,
      "▁ప్రజలు": 4497,
      "▁China,": 4498,
      "▁శాఖ": 4499,
      "▁classical,": 4500,
      "▁मध्यकाल": 4501,
      "ుకొ": 4502,
      "▁historical": 4503,
      "▁Sikkim": 4504,
      "▁జనాభ": 4505,
      "▁Delhi,": 4506,
      "▁language\"": 4507,
      "▁subcontinent,": 4508,
      "▁రాజ్యాంగ": 4509,
      "force": 4510,
      "ples": 4511,
      "▁energy": 4512,
      "▁నుంచి": 4513,
      "henjo-": 4514,
      "▁Islands": 4515,
      "▁culture.": 4516,
      "▁cultures": 4517,
      "▁setting": 4518,
      "▁maint": 4519,
      "▁పురుష": 4520,
      "▁Euras": 4521,
      "▁Europ": 4522,
      "ackb": 4523,
      "▁Himalayan": 4524,
      "▁Himalayas.": 4525,
      "ables,": 4526,
      "▁leader,": 4527,
      "▁హిందూదేశం": 4528,
      "▁parliament.": 4529,
      "▁ప్రభుత్వం": 4530,
      "గరికత": 4531,
      "ుకుంట": 4532,
      "▁టై": 4533,
      "▁them.": 4534,
      "▁coll": 4535,
      "▁surround": 4536,
      "▁వాణి": 4537,
      "▁వేల": 4538,
      "▁Modern": 4539,
      "▁Mohenjo-": 4540,
      "▁constitutional": 4541,
      "ographics": 4542,
      "▁player": 4543,
      "▁played": 4544,
      "▁సాంస్కృ": 4545,
      "▁स्थिति": 4546,
      "crimin": 4547,
      "ctions": 4548,
      "మేన": 4549,
      "anced": 4550,
      "▁weap": 4551,
      "▁signed": 4552,
      "ారిగా": 4553,
      "▁కలిసి": 4554,
      "▁కలిగి": 4555,
      "▁ఉంటుంది.": 4556,
      "▁second-largest": 4557,
      "▁క్రీడలు": 4558,
      "▁influences": 4559,
      "▁mathematical": 4560,
      "▁ఉత్తరాన": 4561,
      "▁తరువాతి": 4562,
      "▁enter": 4563,
      "▁कामकाज": 4564,
      "gener": 4565,
      "mitted": 4566,
      "▁use": 4567,
      "▁transmitted": 4568,
      "▁capita": 4569,
      "▁కొన్ని": 4570,
      "▁ఉపఖండ": 4571,
      "emocrac": 4572,
      "▁assert": 4573,
      "▁associ": 4574,
      "▁Janata": 4575,
      "▁supported": 4576,
      "▁ద్వారా": 4577,
      "▁original": 4578,
      "▁originally": 4579,
      "▁बदल": 4580,
      "pura": 4581,
      "ంధీ": 4582,
      "లతో,": 4583,
      "ెలుగు": 4584,
      "▁Yaksh": 4585,
      "▁census,": 4586,
      "▁promin": 4587,
      "▁manuscri": 4588,
      "▁drain": 4589,
      "▁remaining": 4590,
      "▁garment": 4591,
      "▁garlic": 4592,
      "▁Bangalore": 4593,
      "▁ప్రతిపాదన": 4594,
      "▁జనగణ": 4595,
      "▁status": 4596,
      "▁devotion": 4597,
      "▁armies": 4598,
      "▁marriages": 4599,
      "▁declared": 4600,
      "▁చేసింది.": 4601,
      "▁శాస్త్రీయ": 4602,
      "▁శాస్త్రం,": 4603,
      "▁ఏర్పడ్డ": 4604,
      "▁సరిహద్దుగా": 4605,
      "▁figures": 4606,
      "▁पैमान": 4607,
      "ంకా": 4608,
      "▁tribal": 4609,
      "▁coral": 4610,
      "▁currenc": 4611,
      "▁blackb": 4612,
      "▁portal": 4613,
      "▁పతకాలు": 4614,
      "▁సమాఖ్య": 4615,
      "▁Arabian": 4616,
      "▁Assam": 4617,
      "▁Assembly": 4618,
      "▁refer": 4619,
      "▁మనదేశం": 4620,
      "▁Bihar": 4621,
      "▁GDP,": 4622,
      "▁నాగరికత": 4623,
      "▁గుర్త": 4624,
      "▁producer": 4625,
      "▁ప్రజాస్వామ్య": 4626,
      "▁ప్రజాదరణ": 4627,
      "▁మొదలైన": 4628,
      "▁styles": 4629,
      "ప్పటికీ,": 4630,
      "▁mathematics": 4631,
      "▁బహుళ": 4632,
      "▁సింధు": 4633,
      "-body": 4634,
      "guard": 4635,
      "వచ్చు.": 4636,
      "▁గాంధీ": 4637,
      "▁wildlif": 4638,
      "▁పద్ధతి": 4639,
      "▁Civilisation": 4640,
      "▁Park,": 4641,
      "▁Dalit": 4642,
      "నుకటి": 4643,
      "▁distin": 4644,
      "▁విభిన్న": 4645,
      "▁protected": 4646,
      "▁against": 4647,
      "▁Hindustani": 4648,
      "▁subsequent": 4649,
      "▁respon": 4650,
      "▁increasingly": 4651,
      "▁కోర్టు": 4652,
      "▁టెక్నాల": 4653,
      "▁కార్యక్రమ": 4654,
      "▁gradually": 4655,
      "▁liberal": 4656,
      "▁independence": 4657,
      "▁పరిశ్రమలు": 4658,
      "▁స్వాతంత్ర్య": 4659,
      "▁నిర్వహణ": 4660,
      "వ్యవస్థ": 4661,
      "▁introduced": 4662,
      "▁written": 4663,
      "▁similar": 4664,
      "▁safe": 4665,
      "▁predomin": 4666,
      "▁festival": 4667,
      "▁పొందిన": 4668,
      "▁loose": 4669,
      "▁క్యాలెండ": 4670,
      "▁వైవిధ్య": 4671,
      "▁return": 4672,
      "▁Country": 4673,
      "▁natal": 4674,
      "▁nominal": 4675,
      "▁Madh": 4676,
      "▁Manipur": 4677,
      "▁strong": 4678,
      "▁Deccan": 4679,
      "▁Demographics": 4680,
      "▁ఇన్ఫర్మే": 4681,
      "▁exchange": 4682,
      "▁ఆఫ్ఘ": 4683,
      "▁నాలుగు": 4684,
      "▁సంకీర్ణ": 4685,
      "▁సంప్రదాయాలు": 4686,
      "▁character": 4687,
      "▁speakers": 4688,
      "▁process": 4689,
      "▁రైళ్లను": 4690,
      "▁లేదా": 4691,
      "▁ముంబై": 4692,
      "▁script": 4693,
      "▁disputes": 4694,
      "▁Constituent": 4695,
      "▁ఆర్థిక": 4696,
      "▁దక్షిణాసియా": 4697,
      "▁colleges": 4698,
      "▁contributions": 4699,
      "▁సాంప్రదాయిక": 4700,
      "▁Indo-Aryan": 4701,
      "▁Brahmaputra": 4702,
      "▁Maurya": 4703,
      "▁architecture": 4704,
      "▁డాలర్లు": 4705,
      "▁బెంగాలీ": 4706,
      "▁సామ్రాజ్య": 4707,
      "▁vegetarian": 4708,
      "▁indigenous": 4709,
      "▁సర్వీసులు": 4710,
      "▁వెబ్సైటు": 4711,
      "touchability": 4712,
      "▁Mumbai,": 4713,
      "▁Karnataka": 4714,
      "▁Krishna": 4715,
      "European": 4716,
      "ISBN": 4717,
      "aharlal": 4718,
      "daro,": 4719,
      "oastrian": 4720,
      "passing": 4721,
      "ళ్ళ": 4722,
      "▁engineering": 4723,
      "▁Zoroastrian": 4724,
      "▁tandoor": 4725,
      "dieval": 4726,
      "araja": 4727,
      "▁crucial": 4728,
      "▁sometimes": 4729,
      "▁broad": 4730,
      "▁bottom": 4731,
      "▁bronz": 4732,
      "▁laws": 4733,
      "omestic": 4734,
      "▁effect": 4735,
      "▁आंदोलन": 4736,
      "▁కన్నడ": 4737,
      "▁కంపె": 4738,
      "▁habitat": 4739,
      "▁Ashoka": 4740,
      "▁reached": 4741,
      "▁revenues": 4742,
      "▁ప్రారంభ": 4743,
      "▁(వెనుకటి": 4744,
      "▁Middle": 4745,
      "adweep": 4746,
      "▁Puducher": 4747,
      "▁Pallav": 4748,
      "▁शामिल": 4749,
      "▁జరుపు": 4750,
      "▁జంబూ": 4751,
      "▁జమ్మూ": 4752,
      "▁strength": 4753,
      "▁ఇస్లామాబాద్": 4754,
      "▁another": 4755,
      "▁తూర్పు": 4756,
      "▁బంగ్లా": 4757,
      "▁Jharkhand": 4758,
      "▁Jawaharlal": 4759,
      "▁Jammu": 4760,
      "▁chosen": 4761,
      "▁శెలవు": 4762,
      "▁దాదాపు": 4763,
      "▁kilometres": 4764,
      "▁Lakshadweep": 4765,
      "▁మొట్టమొదటి": 4766,
      "▁వాణిజ్య": 4767,
      "▁Mohenjo-daro,": 4768,
      "▁సాంస్కృతిక": 4769,
      "▁క్యాలెండర్": 4770,
      "▁ఇన్ఫర్మేషన్": 4771,
      "▁Puducherry": 4772,
      "\",": 4773,
      "°E": 4774,
      "°N": 4775,
      "खंड": 4776,
      "धाय": 4777,
      "माल": 4778,
      "रल": 4779,
      "लू": 4780,
      "सवी": 4781,
      "ुक्त": 4782,
      "ेस": 4783,
      "्ल": 4784,
      "▁पेट": 4785,
      "▁दुस": 4786,
      "▁रिप": 4787,
      "िकेट": 4788,
      "वाँ": 4789,
      "▁इस्ते": 4790,
      "▁फिर": 4791,
      "▁प्राय": 4792,
      "्मिक": 4793,
      "▁एशियाई": 4794,
      "▁क्रिकेट": 4795,
      "▁सदन": 4796,
      "रुप": 4797,
      "▁हालाँकि,": 4798,
      "▁बदला": 4799,
      "धायिका": 4800,
      "▁इस्तेमाल": 4801,
      "जूद": 4802,
      "ण,": 4803,
      "द,": 4804,
      "नै": 4805,
      "यक": 4806,
      "यास": 4807,
      "िरा": 4808,
      "ोटे": 4809,
      "ौह": 4810,
      "ौद्योग": 4811,
      "१५": 4812,
      "२४": 4813,
      "▁कला": 4814,
      "▁किये": 4815,
      "▁कृष": 4816,
      "▁कहते": 4817,
      "▁केवल": 4818,
      "्रोल": 4819,
      "▁जम": 4820,
      "▁अला": 4821,
      "▁दस": 4822,
      "▁निम": 4823,
      "▁नृत": 4824,
      "ानों": 4825,
      "ियत": 4826,
      "▁प्रयास": 4827,
      "▁प्रौद्योग": 4828,
      "▁तो": 4829,
      "▁गई": 4830,
      "▁गई।": 4831,
      "▁उभ": 4832,
      "ियां": 4833,
      "ास्त": 4834,
      "▁राजनै": 4835,
      "▁करते": 4836,
      "▁कोई": 4837,
      "क्षर": 4838,
      "▁विमान": 4839,
      "▁अन्तर": 4840,
      "ंत्रिक": 4841,
      "▁जाए": 4842,
      "▁लोगों": 4843,
      "▁सरकारें": 4844,
      "▁भाषाएँ": 4845,
      "▁जिसका": 4846,
      "ब्लिक": 4847,
      "▁डाल": 4848,
      "ष्ठ": 4849,
      "▁जीडीपी": 4850,
      "▁विस्तार": 4851,
      "ांति": 4852,
      "▁घोषणा": 4853,
      "▁पर्वत": 4854,
      "▁थे।": 4855,
      "▁नदियाँ": 4856,
      "▁निभाई": 4857,
      "▁अमेरिका": 4858,
      "▁उसके": 4859,
      "▁कश्मीर": 4860,
      "▁समाप्त": 4861,
      "▁दृष्टि": 4862,
      "▁अलावा": 4863,
      "▁राजनैतिक": 4864,
      "%)": 4865,
      "णाली": 4866,
      "त्न": 4867,
      "मो": 4868,
      "ऽ।": 4869,
      "िश": 4870,
      "ीकरण": 4871,
      "ोह": 4872,
      "▁सहा": 4873,
      "▁सुरुआत": 4874,
      "▁मस": 4875,
      "▁पास": 4876,
      "▁पैद": 4877,
      "▁हाल": 4878,
      "▁हस्त": 4879,
      "▁बर": 4880,
      "▁बिक": 4881,
      "▁बनावल": 4882,
      "▁जून": 4883,
      "▁जवना": 4884,
      "▁अंतर": 4885,
      "▁आस": 4886,
      "▁प्रणाली": 4887,
      "▁बा;": 4888,
      "▁परभाव": 4889,
      "▁काफी": 4890,
      "▁शहर": 4891,
      "▁राजधान": 4892,
      "▁होल": 4893,
      "▁राज्यसभा": 4894,
      "▁नाटक": 4895,
      "▁छोट": 4896,
      "▁संघीय": 4897,
      "▁लोकप्र": 4898,
      "▁मुस्लिम": 4899,
      "▁सिंह": 4900,
      "▁बनल": 4901,
      "▁क्रय": 4902,
      "पूर्व": 4903,
      "▁बड़हन": 4904,
      "▁पहि": 4905,
      "▁उनके": 4906,
      "▁अल्प": 4907,
      "▁विकासशील": 4908,
      "▁ढेर": 4909,
      "▁अउरी": 4910,
      "▁आगमन": 4911,
      "▁जानल": 4912,
      "▁समुंद्र": 4913,
      "▁टेलीवि": 4914,
      "▁आर्किटेक्चर": 4915,
      "▁पैदा": 4916,
      "▁राजधानी": 4917,
      "▁लोकप्रिय": 4918,
      "-ग": 4919,
      "04": 4920,
      "74": 4921,
      "83": 4922,
      "93": 4923,
      "ंच": 4924,
      "ंका": 4925,
      "गढ़": 4926,
      "टल": 4927,
      "भारत": 4928,
      "मार": 4929,
      "व्य": 4930,
      "वेश": 4931,
      "सम": 4932,
      "ुक": 4933,
      "ूबर": 4934,
      "्ला": 4935,
      "▁कन्न": 4936,
      "▁सिन्": 4937,
      "▁मत": 4938,
      "▁हत्या": 4939,
      "▁बो": 4940,
      "▁अक्ट": 4941,
      "▁आई": 4942,
      "▁दिव": 4943,
      "▁प्रग": 4944,
      "▁प्रसार": 4945,
      "▁परिण": 4946,
      "▁राजस्थ": 4947,
      "ेशिया": 4948,
      "▁समूह": 4949,
      "chived": 4950,
      "▁साथ,": 4951,
      "ली,": 4952,
      "▁फिल": 4953,
      "▁फुट": 4954,
      "▁धर्म,": 4955,
      "ustral": 4956,
      "ुस्त": 4957,
      "▁मानव": 4958,
      "▁निर्भ": 4959,
      "▁संघर्ष": 4960,
      "▁सिख": 4961,
      "दाय": 4962,
      "▁क्रम": 4963,
      "▁Archived": 4964,
      "▁आगे": 4965,
      "▁प्रचलित": 4966,
      "▁घाटी": 4967,
      "▁झार": 4968,
      "▁भागीदारी": 4969,
      "▁गैर-": 4970,
      "▁अक्टूबर": 4971,
      "▁परिणाम": 4972,
      "517": 4973,
      "75": 4974,
      "81": 4975,
      "94": 4976,
      "νδ": 4977,
      "गू": 4978,
      "जबूत": 4979,
      "रि": 4980,
      "ोर्ट": 4981,
      "्क": 4982,
      "▁'": 4983,
      "▁मश": 4984,
      "▁मात": 4985,
      "▁मरा": 4986,
      "▁मील": 4987,
      "▁मजबूत": 4988,
      "ाराष्ट्र": 4989,
      "▁भक्ति": 4990,
      "▁में)": 4991,
      "▁में।": 4992,
      "▁आठ": 4993,
      "▁नया": 4994,
      "नाडु": 4995,
      "▁योग": 4996,
      "184": 4997,
      "188": 4998,
      "्मक": 4999,
      "▁बिह": 5000,
      "▁अधिकां": 5001,
      "▁महासा": 5002,
      "▁महाराष्ट्र": 5003,
      "▁संगम": 5004,
      "ोजना": 5005,
      "▁तमिलनाडु": 5006,
      "▁प्रभावित": 5007,
      "▁तेज": 5008,
      "▁महत्वपूर्ण": 5009,
      "▁मराठ": 5010,
      "▁अधिकांश": 5011,
      "▁महासागर": 5012,
      "-फ": 5013,
      "ट्ट": 5014,
      "णिप": 5015,
      "ुद्ध": 5016,
      "▁कान": 5017,
      "▁कथा": 5018,
      "▁कहल": 5019,
      "▁मणिप": 5020,
      "्राष्ट्रीय": 5021,
      "▁भोज": 5022,
      "▁जग": 5023,
      "▁आजा": 5024,
      "▁रो": 5025,
      "र्द": 5026,
      "▁संर": 5027,
      "▁श्रे": 5028,
      "▁सागर": 5029,
      "ंदर": 5030,
      "▁भूगोल": 5031,
      "दाहर": 5032,
      "▁सीधे": 5033,
      "▁कपड़ा": 5034,
      "▁खेती": 5035,
      "▁पेट्रोल": 5036,
      "▁दुसरा": 5037,
      "▁बदलाव": 5038,
      "▁पेट्रोलिय": 5039,
      "-ब": 5040,
      "ंदी": 5041,
      "चान": 5042,
      "चित": 5043,
      "चला": 5044,
      "टर": 5045,
      "नियों": 5046,
      "पुल": 5047,
      "ल्": 5048,
      "वियत": 5049,
      "हत": 5050,
      "हों": 5051,
      "हना": 5052,
      "हिन्": 5053,
      "िख": 5054,
      "ुष्": 5055,
      "ेक्षा": 5056,
      "ॉकी": 5057,
      "१०": 5058,
      "२२": 5059,
      "▁हॉकी": 5060,
      "▁ब्यापार": 5061,
      "▁बडी": 5062,
      "▁ज़": 5063,
      "▁जमा": 5064,
      "▁अति": 5065,
      "▁आइल": 5066,
      "▁दी": 5067,
      "▁दु": 5068,
      "▁नम": 5069,
      "▁निक": 5070,
      "▁वास्त": 5071,
      "▁प्रत": 5072,
      "▁प्रत्य": 5073,
      "▁प्रसि": 5074,
      "▁एव": 5075,
      "▁परब": 5076,
      "▁उसे": 5077,
      "▁उच्च": 5078,
      "▁इंद": 5079,
      "ताब": 5080,
      "▁शक्त": 5081,
      "▁यहाँ": 5082,
      "▁राजवं": 5083,
      "▁होना": 5084,
      "▁करती": 5085,
      "▁कोर्ट": 5086,
      "▁समझ": 5087,
      "▁समृद्ध": 5088,
      "▁हैं:": 5089,
      "क्षेत्र": 5090,
      "▁विरो": 5091,
      "▁एकरा": 5092,
      "▁नेहर": 5093,
      "▁भील": 5094,
      "कारणी": 5095,
      "▁राज्यन": 5096,
      "या।": 5097,
      "▁इसका": 5098,
      "▁इसमें": 5099,
      "▁नागर": 5100,
      "▁पूरु": 5101,
      "▁सामरिक": 5102,
      "▁फैली": 5103,
      "▁किया,": 5104,
      "▁पाया": 5105,
      "▁पापुल": 5106,
      "▁भाषाएं": 5107,
      "▁विशेष": 5108,
      "▁छोटे": 5109,
      "▁उपयोग": 5110,
      "▁ओह": 5111,
      "▁बढ़कर": 5112,
      "▁मानल": 5113,
      "▁माना": 5114,
      "▁किए": 5115,
      "स्त्र": 5116,
      "▁मुखिया": 5117,
      "▁मैदानी": 5118,
      "▁प्रदेशों": 5119,
      "▁हुई।": 5120,
      "▁दक्खिनी": 5121,
      "▁कार्यपालिका": 5122,
      "▁कार्यकारणी": 5123,
      "▁हिंदी": 5124,
      "▁जिनमें": 5125,
      "▁मोदी": 5126,
      "▁पश्चिमी": 5127,
      "▁संबंधों": 5128,
      "▁इनहन": 5129,
      "▁चलन": 5130,
      "▁भूमि": 5131,
      "▁नियर": 5132,
      "▁सदस्यों": 5133,
      "▁रेग": 5134,
      "▁आपन": 5135,
      "▁सूचना": 5136,
      "ण्डल": 5137,
      "▁उपमहादीप": 5138,
      "▁ऊँची": 5139,
      "▁हाकी": 5140,
      "▁रूस": 5141,
      "▁लंबे": 5142,
      "▁जिन्हें": 5143,
      "▁प्रदान": 5144,
      "▁सोवियत": 5145,
      "▁बजट": 5146,
      "▁जैसे": 5147,
      "▁पर्यटन": 5148,
      "▁उन्हें": 5149,
      "▁अमरीकी": 5150,
      "▁किसी": 5151,
      "▁जइसे": 5152,
      "▁पहिले": 5153,
      "▁मंत्रिमण्डल": 5154,
      "▁कृषि": 5155,
      "▁निम्न": 5156,
      "▁नृत्य": 5157,
      "▁प्रौद्योगिकी": 5158,
      "▁डालर": 5159,
      "▁सहायक": 5160,
      "▁बरिस": 5161,
      "हिन्दी": 5162,
      "ुष्क": 5163,
      "▁वास्तव": 5164,
      "▁इंदिरा": 5165,
      "▁राजवंश": 5166,
      "▁नागरिक": 5167,
      "▁पूरुब": 5168,
      "▁पापुलर": 5169,
      "-धी": 5170,
      "ंश": 5171,
      "ंसा": 5172,
      "ंती": 5173,
      "क,": 5174,
      "कट": 5175,
      "खन": 5176,
      "गा": 5177,
      "ग्र": 5178,
      "तपु": 5179,
      "द्रा": 5180,
      "भु": 5181,
      "शेष": 5182,
      "ष्ट": 5183,
      "ाई": 5184,
      "ाँच": 5185,
      "ौट": 5186,
      "▁कंप": 5187,
      "▁सतपु": 5188,
      "▁मी": 5189,
      "▁माल": 5190,
      "ारे": 5191,
      "▁बह": 5192,
      "▁अर्": 5193,
      "▁अहि": 5194,
      "▁आम": 5195,
      "▁रखा": 5196,
      "▁रत्न": 5197,
      "▁नगर": 5198,
      "▁वृद्ध": 5199,
      "▁वंश": 5200,
      "ोंड": 5201,
      "▁तब": 5202,
      "▁ति": 5203,
      "▁संख्या": 5204,
      "▁इन्": 5205,
      "ात्": 5206,
      "ातार": 5207,
      "▁सम्रा": 5208,
      "क्षेप": 5209,
      "▁विद्र": 5210,
      "▁ईस्ट": 5211,
      "▁निर": 5212,
      "ंत्रण": 5213,
      "िरपेक्ष": 5214,
      "▁पाँच": 5215,
      "▁शासक": 5216,
      "ाली,": 5217,
      "▁छह": 5218,
      "▁लगातार": 5219,
      "▁केंद्रीय": 5220,
      "ीलंका": 5221,
      "▁न्याया": 5222,
      "▁राजनीति": 5223,
      "त्ति": 5224,
      "▁अवशेष": 5225,
      "▁स्थानीय": 5226,
      "्थान": 5227,
      "▁पहाड़": 5228,
      "▁पहाड़ी": 5229,
      "▁धीरे-धी": 5230,
      "▁अगस्त": 5231,
      "▁वर्णन": 5232,
      "▁श्रीलंका": 5233,
      "मोहन": 5234,
      "▁प्रगति": 5235,
      "▁निर्भर": 5236,
      "▁सतपुड़ा": 5237,
      "▁मालदी": 5238,
      "▁वृद्धि": 5239,
      "▁सम्राट": 5240,
      "▁विद्रोह": 5241,
      "▁धीरे-धीरे": 5242,
      "-p": 5243,
      "-y": 5244,
      "-उ": 5245,
      "-st": 5246,
      "-सा": 5247,
      "-west": 5248,
      "-ఢిల్ల": 5249,
      "07": 5250,
      "140": 5251,
      "130": 5252,
      "39": 5253,
      "41": 5254,
      "44": 5255,
      "53": 5256,
      "59": 5257,
      "62": 5258,
      "87": 5259,
      "Al": 5260,
      "Ar": 5261,
      "BC": 5262,
      "Congress": 5263,
      "Gang": 5264,
      "IA": 5265,
      "Prol": 5266,
      "aː": 5267,
      "aver": 5268,
      "aus": 5269,
      "air": 5270,
      "aith": 5271,
      "aem": 5272,
      "ares": 5273,
      "aism,": 5274,
      "bour": 5275,
      "bably": 5276,
      "bellion": 5277,
      "che": 5278,
      "com": 5279,
      "cil": 5280,
      "cover": 5281,
      "ces,": 5282,
      "cto": 5283,
      "co-": 5284,
      "cale": 5285,
      "creasing": 5286,
      "den": 5287,
      "dra": 5288,
      "down": 5289,
      "e;": 5290,
      "ek": 5291,
      "eed": 5292,
      "eth": 5293,
      "ead": 5294,
      "ee,": 5295,
      "eous": 5296,
      "eolog": 5297,
      "ealth": 5298,
      "edic": 5299,
      "fer": 5300,
      "fort": 5301,
      "fied": 5302,
      "file": 5303,
      "ga": 5304,
      "ge": 5305,
      "gin": 5306,
      "gri": 5307,
      "gadi": 5308,
      "ground": 5309,
      "hā": 5310,
      "hin": 5311,
      "has": 5312,
      "hol": 5313,
      "h-largest": 5314,
      "hau": 5315,
      "house": 5316,
      "ie": 5317,
      "ih": 5318,
      "ij": 5319,
      "ior": 5320,
      "ily": 5321,
      "iam": 5322,
      "iver": 5323,
      "iant": 5324,
      "ience": 5325,
      "iqu": 5326,
      "ia.": 5327,
      "io-": 5328,
      "ii)": 5329,
      "iri,": 5330,
      "ke": 5331,
      "ks": 5332,
      "ls": 5333,
      "les": 5334,
      "ling": 5335,
      "lus": 5336,
      "lac": 5337,
      "lands": 5338,
      "mn": 5339,
      "man": 5340,
      "mrit": 5341,
      "mar,": 5342,
      "mology": 5343,
      "nit": 5344,
      "nic": 5345,
      "nam": 5346,
      "now": 5347,
      "nov": 5348,
      "nerable": 5349,
      "ovi": 5350,
      "oetic": 5351,
      "pr": 5352,
      "pid": 5353,
      "pot": 5354,
      "phere": 5355,
      "rat": 5356,
      "ras": 5357,
      "rical": 5358,
      "rup": 5359,
      "rgan": 5360,
      "rising": 5361,
      "sar": 5362,
      "sur": 5363,
      "set": 5364,
      "side": 5365,
      "spot": 5366,
      "ti": 5367,
      "tu": 5368,
      "tra": 5369,
      "ts,": 5370,
      "tive": 5371,
      "ti,": 5372,
      "tary": 5373,
      "tell": 5374,
      "tember": 5375,
      "tified": 5376,
      "ug": 5377,
      "ugu": 5378,
      "val": 5379,
      "vas": 5380,
      "wal": 5381,
      "wat": 5382,
      "where": 5383,
      "xt": 5384,
      "xist": 5385,
      "yal": 5386,
      "ying": 5387,
      "yle": 5388,
      "zed": 5389,
      "ंज": 5390,
      "खी": 5391,
      "गाल": 5392,
      "घर": 5393,
      "धित": 5394,
      "मु": 5395,
      "महल": 5396,
      "याल": 5397,
      "रम": 5398,
      "ం;": 5399,
      "ందర": 5400,
      "కం": 5401,
      "కర": 5402,
      "కళ": 5403,
      "కూ": 5404,
      "కృ": 5405,
      "కే": 5406,
      "కార": 5407,
      "క్య": 5408,
      "కాత": 5409,
      "కరణ": 5410,
      "గ్ర": 5411,
      "చయ": 5412,
      "చుకోవడ": 5413,
      "జన": 5414,
      "జ్": 5415,
      "జ్మ": 5416,
      "జిక,": 5417,
      "టా": 5418,
      "ట్ర": 5419,
      "టన్": 5420,
      "టలు": 5421,
      "టర్": 5422,
      "టి.": 5423,
      "టులు": 5424,
      "టాన్": 5425,
      "టోర": 5426,
      "డమ": 5427,
      "డైన": 5428,
      "ఢాకా": 5429,
      "ణించ": 5430,
      "ణులు": 5431,
      "తను": 5432,
      "తంగా": 5433,
      "తాయి.": 5434,
      "తం,": 5435,
      "త్రీ": 5436,
      "తారు.": 5437,
      "త్రి": 5438,
      "థ్యం": 5439,
      "దగా": 5440,
      "దావ": 5441,
      "ధీన": 5442,
      "నం": 5443,
      "నిక": 5444,
      "పూ": 5445,
      "పై": 5446,
      "పో": 5447,
      "పక్ష": 5448,
      "ప్రీ": 5449,
      "ప్రి": 5450,
      "పాల్": 5451,
      "పెద్ద": 5452,
      "పడిన": 5453,
      "బా": 5454,
      "భవ": 5455,
      "భూ": 5456,
      "భరత": 5457,
      "మల": 5458,
      "మూ": 5459,
      "మో": 5460,
      "మిత": 5461,
      "మారు": 5462,
      "యమించ": 5463,
      "రిక": 5464,
      "రకు": 5465,
      "లీ": 5466,
      "లిక": 5467,
      "లక్": 5468,
      "లయా": 5469,
      "లాలు,": 5470,
      "లమె": 5471,
      "ళి,": 5472,
      "వల": 5473,
      "విం": 5474,
      "వంత": 5475,
      "వరి": 5476,
      "వైన": 5477,
      "వార్": 5478,
      "వల్ల": 5479,
      "వులు,": 5480,
      "విత్ర": 5481,
      "వత్ర": 5482,
      "వారి": 5483,
      "శో": 5484,
      "శాన": 5485,
      "శాఖ": 5486,
      "షయాలు": 5487,
      "సన": 5488,
      "సభ": 5489,
      "సీ": 5490,
      "స్ర": 5491,
      "హో": 5492,
      "హల్": 5493,
      "హారం": 5494,
      "ాక్": 5495,
      "ాడే": 5496,
      "ాజ్మ": 5497,
      "ిర": 5498,
      "ిళ": 5499,
      "ిలో": 5500,
      "ితి": 5501,
      "ిస్త": 5502,
      "ీరు": 5503,
      "ీక్ష": 5504,
      "ీషు": 5505,
      "ుగ": 5506,
      "ుమ": 5507,
      "ుక్": 5508,
      "ుల్": 5509,
      "ుత్": 5510,
      "ుపూ": 5511,
      "ూపా": 5512,
      "ూనది": 5513,
      "ెర్": 5514,
      "ెస్": 5515,
      "ెట్ట": 5516,
      "ెక్క": 5517,
      "ెట్ర": 5518,
      "ేయ": 5519,
      "ేది": 5520,
      "ో,": 5521,
      "ో-": 5522,
      "ోత్": 5523,
      "ోంది.": 5524,
      "ౌర": 5525,
      "్మా": 5526,
      "Ἰνδ": 5527,
      "–c.": 5528,
      "—ISBN": 5529,
      "▁=": 5530,
      "▁°": 5531,
      "▁ऑ": 5532,
      "▁ఓ": 5533,
      "▁థ": 5534,
      "▁ధ": 5535,
      "▁₹": 5536,
      "▁'s": 5537,
      "▁టి": 5538,
      "▁enc": 5539,
      "▁ide": 5540,
      "▁ess": 5541,
      "▁ఢాకా": 5542,
      "▁tre": 5543,
      "▁tal": 5544,
      "▁tig": 5545,
      "▁tun": 5546,
      "▁tub": 5547,
      "▁tree": 5548,
      "▁typ": 5549,
      "aning": 5550,
      "ana,": 5551,
      "anch": 5552,
      "head": 5553,
      "hered": 5554,
      "hereas": 5555,
      "hess": 5556,
      "herent": 5557,
      "in.": 5558,
      "inf": 5559,
      "ines": 5560,
      "inth": 5561,
      "ins.": 5562,
      "inated": 5563,
      "inition": 5564,
      "▁कर्म": 5565,
      "on,": 5566,
      "one": 5567,
      "onk": 5568,
      "onic": 5569,
      "onour": 5570,
      "onvi": 5571,
      "onomet": 5572,
      "erial": 5573,
      "erous": 5574,
      "erved": 5575,
      "ercontinent": 5576,
      "ert,": 5577,
      "ret": 5578,
      "rest": 5579,
      "ream": 5580,
      "reem": 5581,
      "reak": 5582,
      "al.": 5583,
      "alf": 5584,
      "aled": 5585,
      "alam,": 5586,
      "ality,": 5587,
      "alcut": 5588,
      "▁own": 5589,
      "▁open": 5590,
      "stant": 5591,
      "aty": 5592,
      "atom": 5593,
      "ata,": 5594,
      "ati,": 5595,
      "atives": 5596,
      "atma": 5597,
      "atpura": 5598,
      "ataraja": 5599,
      "eneral": 5600,
      "diment": 5601,
      "dict": 5602,
      "diction": 5603,
      "dified": 5604,
      "aran": 5605,
      "aras": 5606,
      "ars.": 5607,
      "arsh": 5608,
      "arrow": 5609,
      "ardis": 5610,
      "arlung": 5611,
      "▁केरल": 5612,
      "▁Im": 5613,
      "anda": 5614,
      "andy": 5615,
      "ands,": 5616,
      "andardis": 5617,
      "▁cin": 5618,
      "▁cas": 5619,
      "▁cut": 5620,
      "▁coun": 5621,
      "▁cere": 5622,
      "▁cust": 5623,
      "▁croc": 5624,
      "▁cuis": 5625,
      "ed.": 5626,
      "edd": 5627,
      "edabad": 5628,
      "▁International": 5629,
      "▁Increasing": 5630,
      "▁aut": 5631,
      "▁amp": 5632,
      "▁action": 5633,
      "▁amend": 5634,
      "▁ing": 5635,
      "▁international": 5636,
      "▁innov": 5637,
      "ities": 5638,
      "ities.": 5639,
      "▁wet": 5640,
      "▁way": 5641,
      "▁welf": 5642,
      "▁whereas": 5643,
      "▁she": 5644,
      "▁sal": 5645,
      "▁sil": 5646,
      "▁suc": 5647,
      "▁sour": 5648,
      "▁saw": 5649,
      "▁sole": 5650,
      "▁self": 5651,
      "▁पुन": 5652,
      "▁and,": 5653,
      "orb": 5654,
      "orn": 5655,
      "oral": 5656,
      "oram": 5657,
      "orce": 5658,
      "ories": 5659,
      "orse": 5660,
      "ority": 5661,
      "organ": 5662,
      "▁bal": 5663,
      "▁bar": 5664,
      "▁best": 5665,
      "▁bond": 5666,
      "▁brough": 5667,
      "▁bodi": 5668,
      "▁bulk": 5669,
      "▁breath": 5670,
      "▁break": 5671,
      "▁pul": 5672,
      "▁ple": 5673,
      "▁pet": 5674,
      "▁past": 5675,
      "▁pot": 5676,
      "▁piv": 5677,
      "▁pap": 5678,
      "▁pass": 5679,
      "▁poin": 5680,
      "▁prin": 5681,
      "▁paren": 5682,
      "▁portion": 5683,
      "▁push": 5684,
      "es)": 5685,
      "ese": 5686,
      "▁mand": 5687,
      "▁may": 5688,
      "▁mort": 5689,
      "▁mount": 5690,
      "▁mix": 5691,
      "▁fil": 5692,
      "▁fac": 5693,
      "▁fav": 5694,
      "▁fire": 5695,
      "▁flo": 5696,
      "▁food": 5697,
      "▁foetic": 5698,
      "ic.": 5699,
      "icken": 5700,
      "▁పి": 5701,
      "▁పలు": 5702,
      "▁పి.": 5703,
      "▁పక్ష": 5704,
      "▁ప్ల": 5705,
      "▁పర్వ": 5706,
      "▁పల్ల": 5707,
      "▁పక్క": 5708,
      "▁పటం": 5709,
      "▁పవిత్ర": 5710,
      "్రై": 5711,
      "్రాన్": 5712,
      "ision": 5713,
      "isans": 5714,
      "isions": 5715,
      "isdiction": 5716,
      "ased": 5717,
      "ass.": 5718,
      "▁l.": 5719,
      "▁ling": 5720,
      "▁list": 5721,
      "▁late": 5722,
      "▁lab": 5723,
      "▁live": 5724,
      "▁leng": 5725,
      "▁less": 5726,
      "▁living": 5727,
      "ential": 5728,
      "oman": 5729,
      "oury": 5730,
      "▁each": 5731,
      "▁event": 5732,
      "▁evol": 5733,
      "▁emb": 5734,
      "▁emission": 5735,
      "▁either": 5736,
      "▁edict": 5737,
      "▁To": 5738,
      "▁సిక్": 5739,
      "▁కళ": 5740,
      "▁కృ": 5741,
      "▁కలు": 5742,
      "▁కను": 5743,
      "▁కల్": 5744,
      "▁కల్ప": 5745,
      "▁కనుక": 5746,
      "▁కంటే": 5747,
      "▁కబడ్డ": 5748,
      "▁కిలో": 5749,
      "▁det": 5750,
      "▁dest": 5751,
      "▁dem": 5752,
      "▁doc": 5753,
      "▁dry": 5754,
      "▁down": 5755,
      "▁danc": 5756,
      "▁drew": 5757,
      "▁democratic": 5758,
      "▁dyn": 5759,
      "▁dense": 5760,
      "▁desc": 5761,
      "▁democrac": 5762,
      "▁domestic": 5763,
      "ury": 5764,
      "urta": 5765,
      "ly.": 5766,
      "▁hun": 5767,
      "▁hot": 5768,
      "▁hous": 5769,
      "▁host": 5770,
      "▁house": 5771,
      "▁hock": 5772,
      "▁honour": 5773,
      "▁half": 5774,
      "▁వం": 5775,
      "▁వృద్ధి": 5776,
      "▁వలస": 5777,
      "▁వాయు": 5778,
      "లో,": 5779,
      "▁Ab": 5780,
      "▁At": 5781,
      "▁Ach": 5782,
      "▁Ahm": 5783,
      "▁Agenc": 5784,
      "▁Amrit": 5785,
      "ilitated": 5786,
      "econom": 5787,
      "్యా": 5788,
      "▁वा": 5789,
      "▁rest": 5790,
      "▁rece": 5791,
      "▁reign": 5792,
      "▁rept": 5793,
      "▁rebellion": 5794,
      "▁Can": 5795,
      "▁Col": 5796,
      "▁Cup": 5797,
      "▁Culture": 5798,
      "▁Clim": 5799,
      "▁Cricket": 5800,
      "▁Chess": 5801,
      "▁Calcut": 5802,
      "▁network": 5803,
      "▁ninth": 5804,
      "▁nonvi": 5805,
      "▁narrow": 5806,
      "▁భక్": 5807,
      "▁మర": 5808,
      "▁మార": 5809,
      "▁మాన": 5810,
      "▁మరో": 5811,
      "▁మంత్రి": 5812,
      "▁మలయా": 5813,
      "▁gro": 5814,
      "▁gig": 5815,
      "▁give": 5816,
      "▁govern": 5817,
      "▁gard": 5818,
      "▁geograph": 5819,
      "▁gained": 5820,
      "▁green": 5821,
      "▁geolog": 5822,
      "rior": 5823,
      "oli": 5824,
      "olk": 5825,
      "olent": 5826,
      "olved": 5827,
      "ollowing": 5828,
      "olcan": 5829,
      "▁They": 5830,
      "ul,": 5831,
      "ulos": 5832,
      "ulnerable": 5833,
      "దిన": 5834,
      "దినాలు": 5835,
      "amed": 5836,
      "▁Bal": 5837,
      "▁Between": 5838,
      "▁Bah": 5839,
      "▁Sal": 5840,
      "▁Sim": 5841,
      "▁Sang": 5842,
      "▁Soc": 5843,
      "▁Sub": 5844,
      "▁Sant": 5845,
      "▁Sep": 5846,
      "▁Some": 5847,
      "▁Sarn": 5848,
      "▁Sever": 5849,
      "▁Sultanate": 5850,
      "▁Sund": 5851,
      "▁Sindh": 5852,
      "▁Sabh": 5853,
      "▁Sovi": 5854,
      "▁Satpura": 5855,
      "లుగా": 5856,
      "దేశపు": 5857,
      "దేశ్ల": 5858,
      "ర్శ": 5859,
      "ర్జాత": 5860,
      "ర్తిగా": 5861,
      "ర్థ్యం": 5862,
      "▁ताज": 5863,
      "స్.": 5864,
      "స్వ": 5865,
      "స్ట్": 5866,
      "స్లిం": 5867,
      "▁రకాలు": 5868,
      "▁రూప": 5869,
      "▁రచయ": 5870,
      "▁రూపా": 5871,
      "▁ప్రదేశ": 5872,
      "▁ప్రత్య": 5873,
      "▁ప్రసి": 5874,
      "▁ప్రయో": 5875,
      "▁భారతంలో": 5876,
      "ropp": 5877,
      "vest": 5878,
      "uted": 5879,
      "▁అణ": 5880,
      "▁అంత": 5881,
      "▁అరు": 5882,
      "▁అంట": 5883,
      "▁అవి": 5884,
      "▁అన్ని": 5885,
      "▁అప్ప": 5886,
      "▁అమె": 5887,
      "▁అక్షరాస్యత": 5888,
      "▁అశో": 5889,
      "▁(\"": 5890,
      "▁(B": 5891,
      "▁(U": 5892,
      "▁(आ": 5893,
      "▁(ఆ": 5894,
      "▁(inc": 5895,
      "▁(Ar": 5896,
      "▁(Ἰνδ": 5897,
      "న్నీ": 5898,
      "న్నై": 5899,
      "cean": 5900,
      "ceed": 5901,
      "▁Min": 5902,
      "▁Minister": 5903,
      "▁Major": 5904,
      "ాలు.": 5905,
      "adem": 5906,
      "ada,": 5907,
      "ets": 5908,
      "ety": 5909,
      "etah": 5910,
      "ime": 5911,
      "iming": 5912,
      "imachal": 5913,
      "▁Indians.": 5914,
      "▁बांग": 5915,
      "▁बाढ़": 5916,
      "igion": 5917,
      "▁P.": 5918,
      "▁Pal": 5919,
      "▁Pri": 5920,
      "▁Part": 5921,
      "▁Polit": 5922,
      "గాన్ని": 5923,
      "नाटक": 5924,
      "▁thorn": 5925,
      "iding": 5926,
      "idel": 5927,
      "ide,": 5928,
      "idesp": 5929,
      "iduous": 5930,
      "irm": 5931,
      "irt": 5932,
      "▁run": 5933,
      "▁rang": 5934,
      "▁ranges": 5935,
      "▁range": 5936,
      "▁rati": 5937,
      "▁rising": 5938,
      "angra": 5939,
      "▁शुरुआत": 5940,
      "నిజాలు": 5941,
      "▁begin": 5942,
      "▁behin": 5943,
      "emale": 5944,
      "▁former": 5945,
      "▁fortified": 5946,
      "క్స్": 5947,
      "ాయాలు": 5948,
      "▁జల": 5949,
      "▁జో": 5950,
      "mental": 5951,
      "mented": 5952,
      "▁Gate": 5953,
      "▁Gold": 5954,
      "▁General": 5955,
      "ter-g": 5956,
      "terior": 5957,
      "▁साझ": 5958,
      "▁చూడ": 5959,
      "▁చవి": 5960,
      "▁చిత్ర": 5961,
      "▁చదర": 5962,
      "▁what": 5963,
      "tional": 5964,
      "ాతి": 5965,
      "ాత్మా": 5966,
      "▁Nort": 5967,
      "▁Naren": 5968,
      "▁Network": 5969,
      "▁NDA": 5970,
      "▁Nataraja": 5971,
      "▁Nanda": 5972,
      "▁model": 5973,
      "▁El": 5974,
      "▁Ex": 5975,
      "▁Emerg": 5976,
      "▁Ety": 5977,
      "▁stud": 5978,
      "▁stif": 5979,
      "▁story": 5980,
      "▁standardis": 5981,
      "▁Dis": 5982,
      "▁Dev": 5983,
      "ానీ": 5984,
      "ాను": 5985,
      "కుల": 5986,
      "▁चाल": 5987,
      "acket": 5988,
      "▁Have": 5989,
      "▁Histor": 5990,
      "▁Health": 5991,
      "▁Himachal": 5992,
      "्टवे": 5993,
      "ayat": 5994,
      "ayback": 5995,
      "ayanag": 5996,
      "ured": 5997,
      "▁ఇండ": 5998,
      "▁ఇటీ": 5999,
      "▁ఇంకా": 6000,
      "నులు,": 6001,
      "▁only": 6002,
      "▁onset": 6003,
      "▁exerc": 6004,
      "sel": 6005,
      "seas": 6006,
      "ake.": 6007,
      "akhand": 6008,
      "▁any": 6009,
      "▁anatom": 6010,
      "illing": 6011,
      "ండా": 6012,
      "ండ్": 6013,
      "▁did": 6014,
      "▁died": 6015,
      "▁diseas": 6016,
      "ల్కాత": 6017,
      "ेशियन": 6018,
      "▁orally": 6019,
      "త్తా": 6020,
      "ించి": 6021,
      "ించారు.": 6022,
      "స్తులు": 6023,
      "ders,": 6024,
      "elag": 6025,
      "eligion": 6026,
      "▁ఆగ": 6027,
      "▁ఆదాయ": 6028,
      "▁ఆహారం": 6029,
      "och": 6030,
      "▁are:": 6031,
      "▁area,": 6032,
      "▁area.": 6033,
      "▁unres": 6034,
      "▁united": 6035,
      "▁unitary": 6036,
      "▁untouchability": 6037,
      "▁uncom": 6038,
      "duce": 6039,
      "రి.": 6040,
      "రిస్త": 6041,
      "▁Kath": 6042,
      "▁Kann": 6043,
      "▁Kosi": 6044,
      "▁Kaver": 6045,
      "▁Konk": 6046,
      "▁Kolk": 6047,
      "▁నె": 6048,
      "▁నెల": 6049,
      "▁నెహ": 6050,
      "▁నాయక": 6051,
      "ot.": 6052,
      "otal": 6053,
      "otta": 6054,
      "otech": 6055,
      "▁vary": 6056,
      "▁valle": 6057,
      "▁voted": 6058,
      "▁volcan": 6059,
      "▁vulnerable": 6060,
      "▁తర": 6061,
      "▁తె": 6062,
      "▁తత్వ": 6063,
      "▁తర్వ": 6064,
      "▁తక్కువ": 6065,
      "▁తెలుగు": 6066,
      "▁తాజ్మ": 6067,
      "▁సంస్థ": 6068,
      "▁సంస్క": 6069,
      "▁బంగ": 6070,
      "▁విధ": 6071,
      "▁విలు": 6072,
      "▁విమాన": 6073,
      "▁విషయాలు": 6074,
      "रा,": 6075,
      "రుగు": 6076,
      "ants,": 6077,
      "▁commit": 6078,
      "▁commission": 6079,
      "▁commun": 6080,
      "▁comfort": 6081,
      "▁Ra": 6082,
      "▁River": 6083,
      "▁Religion": 6084,
      "▁alliance": 6085,
      "▁War": 6086,
      "▁Women": 6087,
      "▁Wayback": 6088,
      "ము,": 6089,
      "▁worship": 6090,
      "ends": 6091,
      "▁deleg": 6092,
      "▁depend": 6093,
      "sia,": 6094,
      "▁భారతదేశం,": 6095,
      "▁భారతదేశం.": 6096,
      "▁భారతదేశం–": 6097,
      "▁గత": 6098,
      "▁గంగ": 6099,
      "▁గ్రా": 6100,
      "▁గెలు": 6101,
      "▁గమన": 6102,
      "▁స్త్రీ": 6103,
      "▁Champ": 6104,
      "▁Chandi": 6105,
      "▁Christ": 6106,
      "▁Chhau": 6107,
      "▁UPA": 6108,
      "app": 6109,
      "aps": 6110,
      "ంగా,": 6111,
      "ితే,": 6112,
      "▁Jud": 6113,
      "▁June": 6114,
      "▁chain": 6115,
      "▁chap": 6116,
      "▁chose": 6117,
      "▁changed": 6118,
      "ajpay": 6119,
      "aval": 6120,
      "avated": 6121,
      "avened": 6122,
      "ogam": 6123,
      "పుకో": 6124,
      "పుతూ": 6125,
      "పుణులు": 6126,
      "▁ఎలక్": 6127,
      "▁ఎక్స్": 6128,
      "▁శి": 6129,
      "▁శక్": 6130,
      "▁spic": 6131,
      "ishing": 6132,
      "▁contra": 6133,
      "▁contour": 6134,
      "osing": 6135,
      "osa,": 6136,
      "osphere": 6137,
      "ance,": 6138,
      "▁proj": 6139,
      "▁produced": 6140,
      "▁probably": 6141,
      "▁produce": 6142,
      "▁partially": 6143,
      "ectanc": 6144,
      "▁దాట": 6145,
      "▁plant": 6146,
      "ought": 6147,
      "ంటున్న": 6148,
      "ార్త": 6149,
      "ార్థ": 6150,
      "▁percent": 6151,
      "assical": 6152,
      "assinated": 6153,
      "▁larger": 6154,
      "ously": 6155,
      "iferation": 6156,
      "ally.": 6157,
      "▁cost": 6158,
      "▁पूर्ण": 6159,
      "▁From": 6160,
      "▁Following": 6161,
      "▁Female": 6162,
      "▁cloth": 6163,
      "▁close": 6164,
      "▁class.": 6165,
      "▁agreem": 6166,
      "▁సామా": 6167,
      "▁regist": 6168,
      "mework": 6169,
      "▁హాక": 6170,
      "▁advent": 6171,
      "▁related": 6172,
      "▁kurta": 6173,
      "▁arisen": 6174,
      "stitutes": 6175,
      "▁languages.": 6176,
      "▁economy,": 6177,
      "స్థాన": 6178,
      "▁form,": 6179,
      "▁forms.": 6180,
      "▁formally": 6181,
      "▁V.": 6182,
      "▁Vis": 6183,
      "▁Vedic": 6184,
      "▁Vij": 6185,
      "▁Vajpay": 6186,
      "▁sex": 6187,
      "▁seals": 6188,
      "▁seats": 6189,
      "▁sediment": 6190,
      "▁subduc": 6191,
      "▁substant": 6192,
      "ressive": 6193,
      "▁फ़": 6194,
      "ంచిన": 6195,
      "దుగా": 6196,
      "▁దేశపు": 6197,
      "▁marry": 6198,
      "▁marsh": 6199,
      "▁elect": 6200,
      "▁కూడి": 6201,
      "▁కూడుకొ": 6202,
      "▁Asians": 6203,
      "▁Lat": 6204,
      "▁On": 6205,
      "▁Over": 6206,
      "▁Out": 6207,
      "▁Odish": 6208,
      "▁Oriya,": 6209,
      "▁Octo": 6210,
      "▁Organ": 6211,
      "▁ఈశాన": 6212,
      "▁ఈస్ట్": 6213,
      "▁artic": 6214,
      "▁artistic": 6215,
      "▁artisans": 6216,
      "▁short": 6217,
      "▁shore": 6218,
      "▁shaw": 6219,
      "▁shared": 6220,
      "▁should": 6221,
      "▁decreasing": 6222,
      "▁deciduous": 6223,
      "igned": 6224,
      "త్వంలో": 6225,
      "▁years,": 6226,
      "▁सरकारी": 6227,
      "luding": 6228,
      "wealth": 6229,
      "చ్చే": 6230,
      "▁ఒలం": 6231,
      "▁దేశం.": 6232,
      "▁syn": 6233,
      "▁భాగాన్ని": 6234,
      "▁రాజు": 6235,
      "▁company": 6236,
      "▁comprising": 6237,
      "▁నిడి": 6238,
      "▁నియమించ": 6239,
      "▁నిపుణులు": 6240,
      "▁gender": 6241,
      "▁జాతులు,": 6242,
      "fficial": 6243,
      "▁ending": 6244,
      "▁overran": 6245,
      "▁వ్యవ": 6246,
      "▁వ్యాస": 6247,
      "ections": 6248,
      "rowing": 6249,
      "ighbour": 6250,
      "▁includes": 6251,
      "रेलू": 6252,
      "తోంది.": 6253,
      "వాదం": 6254,
      "▁పేర్లు": 6255,
      "▁resour": 6256,
      "▁మొగలు": 6257,
      "▁ruled": 6258,
      "▁ruling": 6259,
      "▁స్థావ": 6260,
      "ajority": 6261,
      "▁systems": 6262,
      "డుతున్న": 6263,
      "డుకుంట": 6264,
      "▁inform": 6265,
      "▁supreme": 6266,
      "▁supercontinent": 6267,
      "▁peak": 6268,
      "▁peace": 6269,
      "ర్వోత్": 6270,
      "▁అధికారం": 6271,
      "178": 6272,
      "hibian": 6273,
      "ika": 6274,
      "నాథ": 6275,
      "▁घरेलू": 6276,
      "▁లా": 6277,
      "▁లకు": 6278,
      "▁లౌక": 6279,
      "▁imple": 6280,
      "▁imper": 6281,
      "▁medic": 6282,
      "▁measure": 6283,
      "▁medieval": 6284,
      "▁megadi": 6285,
      "▁meaning": 6286,
      "▁latitud": 6287,
      "▁numeral": 6288,
      "▁CE.": 6289,
      "▁ముడి": 6290,
      "▁ముస్లిం": 6291,
      "▁that,": 6292,
      "▁classes": 6293,
      "▁years;": 6294,
      "▁Buddha": 6295,
      "▁Buddhism,": 6296,
      "ianity,": 6297,
      "ందింది.": 6298,
      "త్యం.": 6299,
      "పావ": 6300,
      "పాటు": 6301,
      "పాడుకుంట": 6302,
      "▁ఏక": 6303,
      "▁ఏప్రి": 6304,
      "▁terrac": 6305,
      "▁scen": 6306,
      "▁sched": 6307,
      "▁science": 6308,
      "▁కాపాడుకుంట": 6309,
      "▁dishes": 6310,
      "▁discrimin": 6311,
      "▁largely": 6312,
      "▁large-s": 6313,
      "▁traditions": 6314,
      "▁traditions.": 6315,
      "awat": 6316,
      "ంబే": 6317,
      "తులతో": 6318,
      "రాజ": 6319,
      "ards": 6320,
      "్రమే": 6321,
      "▁కోల్కాత": 6322,
      "▁notable": 6323,
      "ological": 6324,
      "▁చెప్": 6325,
      "▁చెంద": 6326,
      "▁చెన్నై": 6327,
      "▁expanding": 6328,
      "▁exporter": 6329,
      "▁expectanc": 6330,
      "▁ఎన్నుకో": 6331,
      "▁ఎన్నుకుంట": 6332,
      "▁population,": 6333,
      "▁numbers,": 6334,
      "▁मान्यता": 6335,
      "efly": 6336,
      "సియాలో": 6337,
      "సిల్లు": 6338,
      "▁jacket": 6339,
      "▁rapid": 6340,
      "▁appoin": 6341,
      "▁applied": 6342,
      "▁east.": 6343,
      "▁ప్రపంచములో": 6344,
      "ద్దులు": 6345,
      "▁election.": 6346,
      "▁elections.": 6347,
      "▁British-st": 6348,
      "niqu": 6349,
      "▁able": 6350,
      "▁south,": 6351,
      "▁south.": 6352,
      "▁southwest": 6353,
      "▁south-west": 6354,
      "▁folk": 6355,
      "▁పారి": 6356,
      "▁lands": 6357,
      "▁కులాలు,": 6358,
      "▁Common": 6359,
      "▁north,": 6360,
      "▁మతాలు": 6361,
      "ically,": 6362,
      "▁ప్రాంతీయ": 6363,
      "▁ప్రాంతాల్లో": 6364,
      "▁వ్యవస్థకు": 6365,
      "▁పేరు,": 6366,
      "▁music.": 6367,
      "violence": 6368,
      "దాయంలో": 6369,
      "ature,": 6370,
      "▁emphas": 6371,
      "▁Alliance": 6372,
      "▁repeated": 6373,
      "▁represent": 6374,
      "▁Shastri": 6375,
      "▁Pakistan)": 6376,
      "▁Pakistan,": 6377,
      "▁rate,": 6378,
      "▁Chinese": 6379,
      "▁శాసన": 6380,
      "▁period.": 6381,
      "▁Bengali,": 6382,
      "▁Plain": 6383,
      "వే.": 6384,
      "▁therefore": 6385,
      "▁thereafter": 6386,
      "▁power.": 6387,
      "espite": 6388,
      "▁life,": 6389,
      "▁literary": 6390,
      "▁Thail": 6391,
      "▁Tamil,": 6392,
      "▁अंग्रेज": 6393,
      "▁humans": 6394,
      "▁history,": 6395,
      "▁historically": 6396,
      "▁historians": 6397,
      "vement.": 6398,
      "▁అయితే,": 6399,
      "▁Eastern": 6400,
      "▁extreme": 6401,
      "▁extends": 6402,
      "ultaneous": 6403,
      "▁species.": 6404,
      "▁rivers,": 6405,
      "▁భాషా": 6406,
      "▁భాషలను": 6407,
      "▁రాజ్యంగా": 6408,
      "▁స్థానం": 6409,
      "▁స్థానాలను": 6410,
      "▁పార్టీ,": 6411,
      "▁people,": 6412,
      "▁Punjabi,": 6413,
      "101": 6414,
      "ronic": 6415,
      "▁enabl": 6416,
      "▁occas": 6417,
      "▁occurred": 6418,
      "▁Islam,": 6419,
      "▁Islamic": 6420,
      "▁Islands,": 6421,
      "▁warrior": 6422,
      "▁settle": 6423,
      "▁material": 6424,
      "▁mainly": 6425,
      "▁పరిపాల": 6426,
      "▁కాలే": 6427,
      "rigonomet": 6428,
      "▁state,": 6429,
      "▁Himalayas": 6430,
      "▁Himalayas,": 6431,
      "▁ఇతరదేశ": 6432,
      "ritory": 6433,
      "▁leader": 6434,
      "▁ప్రభుత్వాన్ని": 6435,
      "▁Plate.": 6436,
      "165": 6437,
      "-des": 6438,
      "-day": 6439,
      "ization": 6440,
      "ుకుంది.": 6441,
      "▁सुधार": 6442,
      "▁output": 6443,
      "▁others": 6444,
      "▁colonial": 6445,
      "▁prevent": 6446,
      "▁పూర్వ": 6447,
      "▁పూర్తిగా": 6448,
      "▁సభను": 6449,
      "▁వాహ": 6450,
      "▁వాటి": 6451,
      "▁వేద": 6452,
      "▁non-Congress": 6453,
      "▁non-co-": 6454,
      "▁non-violence": 6455,
      "▁gradi": 6456,
      "▁Still": 6457,
      "▁States,": 6458,
      "▁రెండవ": 6459,
      "▁రెండో": 6460,
      "▁అత్యంత": 6461,
      "▁Movement.": 6462,
      "ించినట్లు": 6463,
      "▁defeated": 6464,
      "▁definition": 6465,
      "▁Jainism": 6466,
      "▁Jainism,": 6467,
      "▁playing": 6468,
      "▁సాంకే": 6469,
      "▁country,": 6470,
      "▁country's": 6471,
      "cription": 6472,
      "puts,": 6473,
      "గినది.": 6474,
      "బడింది.": 6475,
      "బడతారు.": 6476,
      "మే.": 6477,
      "లాహో": 6478,
      "▁web": 6479,
      "▁farmer": 6480,
      "▁founded": 6481,
      "▁పరీక్ష": 6482,
      "▁కలిగిన": 6483,
      "▁వెల్ల": 6484,
      "▁next": 6485,
      "▁neighbour": 6486,
      "▁భారత్,": 6487,
      "▁భారత్లో": 6488,
      "▁అతిపెద్ద": 6489,
      "▁జరిగే": 6490,
      "▁Gandhi,": 6491,
      "▁Indo-European": 6492,
      "▁Indo-Gang": 6493,
      "ాబ్ది": 6494,
      "▁territorial": 6495,
      "▁territories.": 6496,
      "▁forest,": 6497,
      "▁forests,": 6498,
      "▁క్రీడా": 6499,
      "▁క్రీడలలో": 6500,
      "▁Sikhs,": 6501,
      "▁అయినా,": 6502,
      "▁स्थाई": 6503,
      "▁entire": 6504,
      "▁जिनके": 6505,
      "mitt": 6506,
      "vidence": 6507,
      "ట్లాడే": 6508,
      "▁usually": 6509,
      "▁techniqu": 6510,
      "▁transform": 6511,
      "athur": 6512,
      "▁cities,": 6513,
      "▁citiz": 6514,
      "▁accom": 6515,
      "▁access": 6516,
      "▁according": 6517,
      "▁industrial": 6518,
      "▁members": 6519,
      "▁feature": 6520,
      "▁పాలనలో": 6521,
      "▁పాలించారు.": 6522,
      "▁lasted": 6523,
      "▁highly": 6524,
      "▁మహాస": 6525,
      "▁మహిళ": 6526,
      "▁మహాత్మా": 6527,
      "▁ప్రస్తుతము": 6528,
      "▁ఉపయో": 6529,
      "▁movement.": 6530,
      "▁assassinated": 6531,
      "▁స్వీ": 6532,
      "▁plains,": 6533,
      "▁coastal": 6534,
      "▁coastline": 6535,
      "▁సాధించిన": 6536,
      "▁support.": 6537,
      "▁ముఖ్యంగా": 6538,
      "▁ముఖ్యమైన": 6539,
      "▁కాంగ్రెస్": 6540,
      "▁literacy,": 6541,
      "▁courts,": 6542,
      "▁courts.": 6543,
      "▁rocky": 6544,
      "▁paintings": 6545,
      "▁English,": 6546,
      "422": 6547,
      "▁न्यायपालिका": 6548,
      "▁संसदीय": 6549,
      "▁ब्रह": 6550,
      "▁यूरेशियन": 6551,
      "-sp": 6552,
      "వుతుంది.": 6553,
      "▁biodiversity": 6554,
      "▁biotech": 6555,
      "▁build": 6556,
      "▁manuf": 6557,
      "▁వర్గ": 6558,
      "▁remained": 6559,
      "▁nationalist": 6560,
      "▁ప్రతిపక్ష": 6561,
      "▁జనతా": 6562,
      "▁జనవరి": 6563,
      "▁statu": 6564,
      "▁exports": 6565,
      "▁exported": 6566,
      "▁exports.": 6567,
      "▁animals": 6568,
      "▁diffused": 6569,
      "▁diversity.": 6570,
      "▁Kashmiri,": 6571,
      "▁నేరే": 6572,
      "▁నేపాల్": 6573,
      "▁సంగీత": 6574,
      "▁విస్తర": 6575,
      "▁విస్తీర్ణ": 6576,
      "▁Rajiv": 6577,
      "▁Rajputs,": 6578,
      "▁devast": 6579,
      "▁arms": 6580,
      "▁archaic": 6581,
      "▁married": 6582,
      "▁generated": 6583,
      "▁చేసే": 6584,
      "▁occupation,": 6585,
      "▁కాలంలో,": 6586,
      "▁right.": 6587,
      "▁సినిమాలు": 6588,
      "▁Gujarati,": 6589,
      "-millennium": 6590,
      "-majority": 6591,
      "century": 6592,
      "ped.": 6593,
      "vene": 6594,
      "ంకెలు": 6595,
      "రోపా": 6596,
      "వర్తి": 6597,
      "▁zon": 6598,
      "▁ఐక్య": 6599,
      "▁ఐరోపా": 6600,
      "ati.": 6601,
      "▁cheetah": 6602,
      "▁carved": 6603,
      "▁intervention": 6604,
      "▁winds": 6605,
      "▁winning": 6606,
      "▁present": 6607,
      "▁presence": 6608,
      "▁president,": 6609,
      "▁monsoon": 6610,
      "▁men,": 6611,
      "▁make": 6612,
      "▁పతాక": 6613,
      "▁సమాజ": 6614,
      "▁refl": 6615,
      "▁nearly": 6616,
      "▁Biodiversity": 6617,
      "▁Mahatma": 6618,
      "▁నాటి": 6619,
      "▁నగరాలు": 6620,
      "▁బ్రిటీ": 6621,
      "▁commerce": 6622,
      "▁workforce": 6623,
      "▁శతాబ్ద": 6624,
      "▁సామర్థ్యం": 6625,
      "▁several": 6626,
      "▁severely": 6627,
      "▁markets.": 6628,
      "ాబాదు": 6629,
      "▁ప్రపంచంలోని": 6630,
      "▁ప్రపంచంలోనే": 6631,
      "▁styles,": 6632,
      "▁contributed": 6633,
      "▁contributes": 6634,
      "▁agriculture.": 6635,
      "▁పట్టణాలు,": 6636,
      "ప్పటికినీ": 6637,
      "▁mathematicians": 6638,
      "▁industry,": 6639,
      "▁సింధూనది": 6640,
      "▁సౌకర్యాలు": 6641,
      "▁సౌకర్యాలలో": 6642,
      "▁ప్రముఖమైన": 6643,
      "▁జాబితాలో": 6644,
      "▁कर्नाटक": 6645,
      "तन्त्र": 6646,
      "361": 6647,
      "-growing": 6648,
      "India": 6649,
      "han,": 6650,
      "laiming": 6651,
      "oor,": 6652,
      "గోళిక": 6653,
      "వచ్చని": 6654,
      "ాటక": 6655,
      "▁ఖనిజాలు": 6656,
      "▁temper": 6657,
      "▁temples": 6658,
      "▁obs": 6659,
      "▁obstruc": 6660,
      "atherers,": 6661,
      "▁civilian": 6662,
      "▁affair": 6663,
      "▁affirm": 6664,
      "▁soon": 6665,
      "▁sitar": 6666,
      "▁sites": 6667,
      "▁borders": 6668,
      "▁multi-": 6669,
      "▁flour": 6670,
      "▁flank": 6671,
      "▁five-y": 6672,
      "▁flowering": 6673,
      "▁పండుగలు": 6674,
      "▁ethical": 6675,
      "▁everyday": 6676,
      "▁సమరం": 6677,
      "▁సుప్రీ": 6678,
      "▁dominion": 6679,
      "▁dominance": 6680,
      "▁భూభాగం": 6681,
      "▁భూటాన్": 6682,
      "▁రంగం": 6683,
      "ettled": 6684,
      "▁Profile": 6685,
      "▁చైనా,": 6686,
      "▁చైనాను": 6687,
      "▁steamed": 6688,
      "▁annually": 6689,
      "▁annual": 6690,
      "▁view": 6691,
      "▁violence": 6692,
      "▁various": 6693,
      "▁బాం": 6694,
      "▁బాంబే": 6695,
      "▁spreading": 6696,
      "▁partition.": 6697,
      "▁administration": 6698,
      "▁Hindustan": 6699,
      "▁subsequently": 6700,
      "▁complex": 6701,
      "▁రైల్వేశాఖ": 6702,
      "▁respective": 6703,
      "▁consider": 6704,
      "▁policy": 6705,
      "▁policies": 6706,
      "▁ఒకటిగా": 6707,
      "▁term.": 6708,
      "▁cause": 6709,
      "▁Union.": 6710,
      "▁texts": 6711,
      "▁textil": 6712,
      "▁పుట్టి": 6713,
      "▁పుట్టుపూ": 6714,
      "▁Plateau,": 6715,
      "▁survives": 6716,
      "▁కారణంగా,": 6717,
      "▁coalition,": 6718,
      "▁legislature": 6719,
      "▁independent": 6720,
      "▁schools": 6721,
      "▁సంవత్సర": 6722,
      "▁స్వాతంత్ర్యం": 6723,
      "▁నిర్వహించింది.": 6724,
      "▁भरत": 6725,
      "▁प्रचलन": 6726,
      "▁घाट": 6727,
      "-east": 6728,
      "-knit": 6729,
      "wana,": 6730,
      "మీటర్": 6731,
      "లేదు": 6732,
      "▁ఢిల్లీ": 6733,
      "▁ఢిల్లీ,": 6734,
      "▁turned": 6735,
      "erculos": 6736,
      "▁II,": 6737,
      "▁creating": 6738,
      "▁creativity": 6739,
      "▁involved": 6740,
      "▁involving": 6741,
      "▁bride": 6742,
      "▁briefly": 6743,
      "▁pilgri": 6744,
      "▁practic": 6745,
      "▁family": 6746,
      "▁female": 6747,
      "▁females": 6748,
      "▁పర్యాయాలు": 6749,
      "▁పర్యాటక": 6750,
      "▁limit": 6751,
      "▁limited": 6752,
      "▁layer": 6753,
      "▁Telang": 6754,
      "▁Telugu": 6755,
      "▁Akbar,": 6756,
      "▁relief,": 6757,
      "▁reliefs": 6758,
      "▁Sea": 6759,
      "▁Sea.": 6760,
      "ాయుత": 6761,
      "▁Gondwana,": 6762,
      "▁Ghats,": 6763,
      "▁Non-Al": 6764,
      "▁Non-Prol": 6765,
      "▁Desert,": 6766,
      "కుంటారు.": 6767,
      "▁ఇవిక": 6768,
      "▁excavated": 6769,
      "▁న్యాయవ్యవస్థ": 6770,
      "▁visit": 6771,
      "▁బౌద్ధులు": 6772,
      "▁గోదావ": 6773,
      "▁sports": 6774,
      "▁Foreign": 6775,
      "▁additional": 6776,
      "▁elites": 6777,
      "▁elites,": 6778,
      "▁నిర్మించ": 6779,
      "▁లోక్సభ": 6780,
      "▁consumption": 6781,
      "▁pollution": 6782,
      "▁meat,": 6783,
      "▁కాశ్మీరు": 6784,
      "▁service": 6785,
      "▁secular,": 6786,
      "▁extensively": 6787,
      "▁రాజ్యాలుగా": 6788,
      "▁సభ్యులు": 6789,
      "▁పాకిస్థాన్,": 6790,
      "▁crust,": 6791,
      "▁ఆధారపడిన": 6792,
      "▁బ్రిటిష్": 6793,
      "▁బ్రిటిషు": 6794,
      "▁renewable": 6795,
      "▁పశ్చిమాన": 6796,
      "▁Tibetan": 6797,
      "▁Nepali,": 6798,
      "▁Uttarakhand": 6799,
      "▁अशोक": 6800,
      "▁मलयाल": 6801,
      "▁असमिया": 6802,
      "-western": 6803,
      "సింగ్": 6804,
      "ీ-లాహో": 6805,
      "▁era": 6806,
      "▁దిగువ": 6807,
      "▁తిరుగు": 6808,
      "arbans": 6809,
      "▁calend": 6810,
      "▁cleared": 6811,
      "▁cattle.": 6812,
      "▁average": 6813,
      "▁initi": 6814,
      "▁inequality,": 6815,
      "▁savoury": 6816,
      "▁size": 6817,
      "▁patron": 6818,
      "▁poverty": 6819,
      "▁males.": 6820,
      "▁margins": 6821,
      "▁mammals,": 6822,
      "▁migration": 6823,
      "▁framework": 6824,
      "▁factor": 6825,
      "▁పార్లమె": 6826,
      "▁పీఠభూ": 6827,
      "▁towns": 6828,
      "▁Territory": 6829,
      "▁Treaty,": 6830,
      "▁సహస్ర": 6831,
      "▁సారస్వ": 6832,
      "▁స్టాక్": 6833,
      "▁సైనిక": 6834,
      "▁సార్వత్ర": 6835,
      "▁సముద్రత": 6836,
      "▁సూచించినట్లు": 6837,
      "▁కిందకు": 6838,
      "▁dhot": 6839,
      "▁hymn": 6840,
      "▁hubs": 6841,
      "▁వలన": 6842,
      "▁Ajanta": 6843,
      "▁Classical": 6844,
      "▁Capital": 6845,
      "▁Caves": 6846,
      "▁భౌగోళిక": 6847,
      "▁మీదగా": 6848,
      "▁మౌర్య": 6849,
      "▁మాత్రమే": 6850,
      "▁gods": 6851,
      "▁goods": 6852,
      "ర్షణ": 6853,
      "▁तेलु": 6854,
      "▁Marathi,": 6855,
      "▁Myanmar,": 6856,
      "▁Malayalam,": 6857,
      "▁isolation": 6858,
      "▁threatened": 6859,
      "▁Geography": 6860,
      "▁చిరు": 6861,
      "▁Economy": 6862,
      "▁ఇంగ్లీషు": 6863,
      "▁extinct": 6864,
      "▁example,": 6865,
      "▁divorce": 6866,
      "▁organisation": 6867,
      "▁victories": 6868,
      "▁విద్యుత్": 6869,
      "ముఖ్యమైన": 6870,
      "▁గణతంత్ర": 6871,
      "▁Urdu.": 6872,
      "▁attract": 6873,
      "▁churidars.": 6874,
      "▁particular": 6875,
      "▁persist": 6876,
      "▁Front": 6877,
      "▁climatic": 6878,
      "▁హైదర": 6879,
      "▁advanced": 6880,
      "▁adopted": 6881,
      "▁separat": 6882,
      "▁కూడుకుని": 6883,
      "▁Lankan": 6884,
      "▁Olympic": 6885,
      "▁Indonesia.": 6886,
      "▁shalwar": 6887,
      "▁companies": 6888,
      "▁వ్యాపార": 6889,
      "▁residents": 6890,
      "▁supplanted": 6891,
      "▁hereditary": 6892,
      "▁display": 6893,
      "▁ఎన్నికల్లో": 6894,
      "▁jurisdiction": 6895,
      "▁railways,": 6896,
      "▁northwest.": 6897,
      "▁Shankar": 6898,
      "▁Sikkim.": 6899,
      "▁జనాభాతో": 6900,
      "▁రాజ్యాంగం": 6901,
      "▁పురుషుల": 6902,
      "▁Eurasian": 6903,
      "▁Europe.": 6904,
      "▁టైటి": 6905,
      "మేనని": 6906,
      "▁weapons": 6907,
      "▁associated": 6908,
      "▁Yakshag": 6909,
      "▁manuscript": 6910,
      "▁garlic,": 6911,
      "▁Bangalore,": 6912,
      "▁ప్రతిపాదనకు": 6913,
      "▁జనగణన": 6914,
      "▁ఏర్పడ్డాయి.": 6915,
      "▁blackbuc": 6916,
      "▁సమాఖ్య.": 6917,
      "▁Assamese,": 6918,
      "▁distinct": 6919,
      "▁response": 6920,
      "▁టెక్నాలజీ": 6921,
      "▁కార్యక్రమాలు": 6922,
      "▁liberalisation": 6923,
      "▁safeguard": 6924,
      "▁loose-knit": 6925,
      "▁returned": 6926,
      "▁Madhya": 6927,
      "▁strongly": 6928,
      "▁ఆఫ్ఘనిస్తాన్": 6929,
      "▁characteristic": 6930,
      "▁architecture,": 6931,
      "▁డాలర్లు.": 6932,
      "▁Zoroastrianism": 6933,
      "▁bronze": 6934,
      "▁కంపెనీ": 6935,
      "▁ప్రారంభించ": 6936,
      "▁జరుపుకుంటారు.": 6937,
      "▁తూర్పున": 6938,
      "▁బంగ్లాదేశ్ల": 6939,
      "▁శెలవుదినాలు": 6940,
      "▁राजस्थान": 6941,
      "▁झारखंड": 6942,
      "▁मशीन": 6943,
      "-ఢిల్లీ-లాహో": 6944,
      "ause": 6945,
      "aemen": 6946,
      "vasive": 6947,
      "xisting": 6948,
      "చుకోవడం": 6949,
      "టోరల్": 6950,
      "బాటు": 6951,
      "ెట్రో": 6952,
      "▁essential": 6953,
      "▁ఢాకా-ఢిల్లీ-లాహో": 6954,
      "▁tuberculos": 6955,
      "▁cereal": 6956,
      "▁custom": 6957,
      "▁crocodi": 6958,
      "edabad,": 6959,
      "▁amphibian": 6960,
      "▁amendments": 6961,
      "▁welfare": 6962,
      "▁bonds": 6963,
      "▁brought": 6964,
      "▁bodies": 6965,
      "▁breathing": 6966,
      "▁pivotal": 6967,
      "▁points": 6968,
      "▁parents": 6969,
      "▁mortality": 6970,
      "▁mountain": 6971,
      "▁flood": 6972,
      "▁foeticide,": 6973,
      "▁పక్కన": 6974,
      "▁length": 6975,
      "▁eventually": 6976,
      "▁edicts": 6977,
      "▁కనుమ": 6978,
      "▁కిలోమీటర్": 6979,
      "▁democracy.": 6980,
      "▁hunter-g": 6981,
      "▁hotspot": 6982,
      "▁houses": 6983,
      "▁hockey": 6984,
      "▁Achaemen": 6985,
      "▁Ahmedabad,": 6986,
      "economic": 6987,
      "▁Cups,": 6988,
      "▁Climate": 6989,
      "▁Calcutta,": 6990,
      "▁nonviolent": 6991,
      "▁మలయాళ": 6992,
      "▁groom": 6993,
      "▁gigawat": 6994,
      "▁garden": 6995,
      "▁greenhouse": 6996,
      "▁Simultaneous": 6997,
      "▁September": 6998,
      "▁Several": 6999,
      "▁Sundarbans": 7000,
      "▁Sabha,": 7001,
      "▁Soviet": 7002,
      "ర్జాతీయ": 7003,
      "▁ताजमहल": 7004,
      "▁రచయిత": 7005,
      "▁రూపాంత": 7006,
      "▁ప్రసిద్ధి": 7007,
      "▁అంతర్జాతీయ": 7008,
      "▁అమెరిక": 7009,
      "▁అశోకు": 7010,
      "▁(including": 7011,
      "▁(Artic": 7012,
      "▁बांग्ला": 7013,
      "▁Politics": 7014,
      "idespread": 7015,
      "▁range,": 7016,
      "▁beginnings": 7017,
      "▁behind": 7018,
      "▁formerly": 7019,
      "▁Golden": 7020,
      "▁చూడండి": 7021,
      "▁చదరంగ": 7022,
      "▁Northeast": 7023,
      "▁Narendra": 7024,
      "▁Emergency,": 7025,
      "▁Etymology": 7026,
      "▁standardised": 7027,
      "▁History": 7028,
      "्टवेय": 7029,
      "ayanagara": 7030,
      "▁ఆదాయం": 7031,
      "▁unresolved": 7032,
      "▁uncommon": 7033,
      "▁Kathak": 7034,
      "▁Kannada,": 7035,
      "▁నెలకొ": 7036,
      "▁తాజ్మహల్": 7037,
      "▁సంస్కరణ": 7038,
      "▁బంగారు": 7039,
      "▁committe": 7040,
      "▁communities.": 7041,
      "▁comfortable": 7042,
      "▁delegates": 7043,
      "▁dependent": 7044,
      "▁గెలుచుకోవడం": 7045,
      "▁స్త్రీలు": 7046,
      "▁Chandigarh": 7047,
      "▁Christianity,": 7048,
      "▁ఎలక్టోరల్": 7049,
      "▁percentage": 7050,
      "▁సామాజిక,": 7051,
      "▁Vijayanagara": 7052,
      "▁substantially": 7053,
      "▁marshy": 7054,
      "▁కూడుకొని": 7055,
      "▁Odisha": 7056,
      "▁October": 7057,
      "▁Organization": 7058,
      "▁ఈశాన్య": 7059,
      "▁shawl": 7060,
      "▁ఒలంపిక్": 7061,
      "▁నిడివి": 7062,
      "▁స్థావరాలు": 7063,
      "▁information": 7064,
      "ర్వోత్తరాలు": 7065,
      "▁imperial": 7066,
      "▁megadiverse": 7067,
      "▁ఏప్రిల్": 7068,
      "▁terracotta": 7069,
      "▁scheduled": 7070,
      "▁కాపాడుకుంటూ": 7071,
      "▁large-scale": 7072,
      "▁కోల్కాతా": 7073,
      "▁చెప్పుకో": 7074,
      "▁చెందాయి.": 7075,
      "▁expectancy": 7076,
      "▁ఎన్నుకోబడతారు.": 7077,
      "▁British-style": 7078,
      "▁Commonwealth": 7079,
      "▁repeatedly": 7080,
      "▁extremely": 7081,
      "▁settlement": 7082,
      "▁defeated.": 7083,
      "▁సాంకేతిక": 7084,
      "▁Indo-Gangetic": 7085,
      "▁transformed": 7086,
      "▁మహాసముద్ర": 7087,
      "▁ఉపయోగి": 7088,
      "▁manufact": 7089,
      "▁నేరేడు": 7090,
      "▁నేపాల్,": 7091,
      "▁five-year": 7092,
      "▁సుప్రీం": 7093,
      "▁పుట్టుపూర్వోత్తరాలు": 7094,
      "▁pilgrim": 7095,
      "▁Non-Aligned": 7096,
      "▁Non-Proliferation": 7097,
      "▁తిరుగుబాటు": 7098,
      "▁పార్లమెంట": 7099,
      "▁సహస్రాబ్ది": 7100,
      "▁సార్వత్రిక": 7101,
      "▁hymns": 7102,
      "▁tuberculosis": 7103,
      "▁కిలోమీటర్లకు": 7104,
      "▁hunter-gatherers,": 7105,
      "▁Simultaneously,": 7106,
      "250": 7107,
      "68": 7108,
      "करा": 7109,
      "कटिबंधीय": 7110,
      "चि": 7111,
      "फा": 7112,
      "बाद": 7113,
      "वर": 7114,
      "ाड़ी": 7115,
      "▁कड़ी": 7116,
      "▁मार्": 7117,
      "▁पद": 7118,
      "ेंज": 7119,
      "▁भे": 7120,
      "▁भवन": 7121,
      "र्शन": 7122,
      "▁उम": 7123,
      "▁उदाहर": 7124,
      "क्शन": 7125,
      "िनल": 7126,
      "▁चले": 7127,
      "▁चुन": 7128,
      "▁योजना": 7129,
      "▁खाड़ी": 7130,
      "्मू": 7131,
      "170": 7132,
      "▁स्वरुप": 7133,
      "▁ओड": 7134,
      "स्थाप": 7135,
      "▁ऊप": 7136,
      "▁लोकतंत्र": 7137,
      "▁मौजूद": 7138,
      "▁चलते": 7139,
      "▁नियुक्त": 7140,
      "▁टीम": 7141,
      "▁टीवी": 7142,
      "▁ग्रंथ": 7143,
      "▁शास्त्रीय": 7144,
      "▁रिपब्लिक": 7145,
      "▁भोजपु": 7146,
      "बा": 7147,
      "मिक": 7148,
      "शल": 7149,
      "ावे": 7150,
      "ीम": 7151,
      "ूनी": 7152,
      "ोब": 7153,
      "▁सिस्ट": 7154,
      "▁सगरी": 7155,
      "▁मू": 7156,
      "ार्मिक": 7157,
      "▁भयल": 7158,
      "▁बिया": 7159,
      "▁बिस्त": 7160,
      "▁भारत,": 7161,
      "▁अंड": 7162,
      "▁लड़": 7163,
      "▁लें।": 7164,
      "▁बाड़": 7165,
      "▁परि": 7166,
      "▁परमान": 7167,
      "▁परधानमंत्री": 7168,
      "▁परिवार": 7169,
      "ास,": 7170,
      "िलियन": 7171,
      "▁धार्मिक": 7172,
      "▁ईपू": 7173,
      "न्नों": 7174,
      "▁जनम": 7175,
      "▁थार": 7176,
      "सीसी": 7177,
      "▁बिदे": 7178,
      "▁बिधायिका": 7179,
      "▁देखे": 7180,
      "▁कइले": 7181,
      "▁कइलस।": 7182,
      "▁बिसाल": 7183,
      "▁सुप्र": 7184,
      "▁पहिला": 7185,
      "▁ठे": 7186,
      "▁आयोज": 7187,
      "▁मोताब": 7188,
      "▁बाने,": 7189,
      "▁होला,": 7190,
      "िथिक": 7191,
      "▁लिहले": 7192,
      "▁ट्राफी": 7193,
      "▁प्रायदीप": 7194,
      "▁मसाला": 7195,
      "▁बिकसित": 7196,
      "▁अंतर्राष्ट्रीय": 7197,
      "▁पहिचान": 7198,
      "▁दुन्नों": 7199,
      "▁रेगिस्तान": 7200,
      "▁सिस्टम": 7201,
      "▁बियाह": 7202,
      "▁बिस्तार": 7203,
      "▁सुप्रीम": 7204,
      "▁मोताबिक": 7205,
      ")–": 7206,
      "-अ": 7207,
      "-चीन": 7208,
      "-पूर्व": 7209,
      "ंजन": 7210,
      "इन": 7211,
      "एशन": 7212,
      "कू": 7213,
      "ठक": 7214,
      "ठित": 7215,
      "दल": 7216,
      "दों": 7217,
      "धन": 7218,
      "पान": 7219,
      "पंथ": 7220,
      "मूल": 7221,
      "शक्ति": 7222,
      "सिय": 7223,
      "सों": 7224,
      "ाइन": 7225,
      "ूर्ण": 7226,
      "१३": 7227,
      "१७": 7228,
      "२५": 7229,
      "२६": 7230,
      "२८": 7231,
      "२९": 7232,
      "४०": 7233,
      "▁‘": 7234,
      "▁कटिबंधीय": 7235,
      "▁सश": 7236,
      "▁सारी": 7237,
      "▁सौह": 7238,
      "▁मार": 7239,
      "▁मना": 7240,
      "▁मिश": 7241,
      "ार्ष": 7242,
      "▁पड़ा": 7243,
      "ेंद्र": 7244,
      "▁हरा": 7245,
      "्रिय": 7246,
      "▁भरा": 7247,
      "▁बे": 7248,
      "▁जन्": 7249,
      "▁जाने": 7250,
      "▁भारत-चीन": 7251,
      "▁अच्छ": 7252,
      "▁आते": 7253,
      "▁आंत": 7254,
      "▁नई": 7255,
      "▁नर": 7256,
      "▁वै": 7257,
      "▁व्य": 7258,
      "▁वार्ष": 7259,
      "▁प्रका": 7260,
      "▁प्रधान": 7261,
      "ाजित": 7262,
      "▁एन": 7263,
      "▁उड़ी": 7264,
      "ना,": 7265,
      "▁इज": 7266,
      "▁इसे": 7267,
      "ता,": 7268,
      "तांत्रिक": 7269,
      "▁शांति": 7270,
      "▁शिख": 7271,
      "▁शुष्क": 7272,
      "▁साक्षर": 7273,
      "▁चौ": 7274,
      "▁ये": 7275,
      "▁यद्य": 7276,
      "▁राजभाषा": 7277,
      "▁होने": 7278,
      "▁करो": 7279,
      "▁समान": 7280,
      "▁सम्म": 7281,
      "▁भारतीयों": 7282,
      "्यादा": 7283,
      "कारी": 7284,
      "▁सभी": 7285,
      "▁ईद": 7286,
      "▁निवास": 7287,
      "▁पूरे": 7288,
      "र्मण": 7289,
      "▁बहुमूल": 7290,
      "▁सरकारों": 7291,
      "▁क्षेत्रों": 7292,
      "१९४": 7293,
      "▁विशाल": 7294,
      "▁धर्मों": 7295,
      "▁जिसने": 7296,
      "▁जिसकी": 7297,
      "▁थी": 7298,
      "▁थी,": 7299,
      "▁अपेक्षा": 7300,
      "ब्ब": 7301,
      "▁मही": 7302,
      "▁चुकी": 7303,
      "▁बढ़ने": 7304,
      "▁लेकर": 7305,
      "▁वर्षा": 7306,
      "ैनिक": 7307,
      "▁लोकतांत्रिक": 7308,
      "▁मध्यम": 7309,
      "▁अनुसू": 7310,
      "▁हुआ,": 7311,
      "▁बनाया": 7312,
      "▁प्राचीनतम": 7313,
      "▁साम्राज्यों": 7314,
      "▁अभिय": 7315,
      "▁रहा।": 7316,
      "▁उनका": 7317,
      "▁उनकी": 7318,
      "▁मोर्": 7319,
      "▁हिन्दुस्त": 7320,
      "▁पार्टियों": 7321,
      "▁सकता": 7322,
      "▁सकते": 7323,
      "▁सक्रिय": 7324,
      "▁पहली": 7325,
      "▁स्थापित": 7326,
      "▁अवधि": 7327,
      "▁रही": 7328,
      "▁प्रभावशाली": 7329,
      "▁अन्तर्": 7330,
      "▁अन्ततः": 7331,
      "स्वरूप": 7332,
      "ार्द": 7333,
      "▁ऊँचाई": 7334,
      "▁छोड़कर": 7335,
      "▁मनमोहन": 7336,
      "▁केन्द्रशासित": 7337,
      "▁नदियों": 7338,
      "▁प्रारम्भिक": 7339,
      "▁निभाई।": 7340,
      "▁बैठक": 7341,
      "▁आकर्मण": 7342,
      "▁सेवाओं": 7343,
      "▁सम्पूर्ण": 7344,
      "▁लड़ाकू": 7345,
      "▁पुरुषों": 7346,
      "▁उत्तर-पश्चिम": 7347,
      "▁उभरा": 7348,
      "▁क्रयशक्ति": 7349,
      "▁परिणामस्वरूप": 7350,
      "होंने": 7351,
      "▁प्रत्येक": 7352,
      "▁प्रसिद्ध": 7353,
      "▁समझौ": 7354,
      "▁विरोध": 7355,
      "▁नेहरू": 7356,
      "▁वास्तविक": 7357,
      "पंथी": 7358,
      "▁सौहार्द": 7359,
      "▁मिश्र": 7360,
      "▁आंतरिक": 7361,
      "▁वार्षिक": 7362,
      "▁प्रकाश": 7363,
      "▁उड़ीसा": 7364,
      "▁साक्षरता": 7365,
      "▁यद्यपि": 7366,
      "▁बहुमूल्य": 7367,
      "-द": 7368,
      "121": 7369,
      "23": 7370,
      "49": 7371,
      "wa": 7372,
      "ंस,": 7373,
      "क्र": 7374,
      "गध": 7375,
      "च,": 7376,
      "चाल": 7377,
      "जं": 7378,
      "जह": 7379,
      "जोर": 7380,
      "जयन": 7381,
      "टा": 7382,
      "ठन": 7383,
      "त्": 7384,
      "थम": 7385,
      "थी": 7386,
      "धु": 7387,
      "नि": 7388,
      "नेशिया": 7389,
      "मण": 7390,
      "लु": 7391,
      "वें": 7392,
      "विका": 7393,
      "श्य": 7394,
      "सत": 7395,
      "सो": 7396,
      "िप्त": 7397,
      "ीए": 7398,
      "ीति": 7399,
      "ुप": 7400,
      "ूने": 7401,
      "ेदारी": 7402,
      "ैंड": 7403,
      "ॉक": 7404,
      "▁कल": 7405,
      "▁क्रा": 7406,
      "onsoon": 7407,
      "▁सहित": 7408,
      "▁मगध": 7409,
      "▁पाल": 7410,
      "्रमण": 7411,
      "▁भाष": 7412,
      "▁बाल": 7413,
      "▁बोल": 7414,
      "्यास": 7415,
      "▁भारतवर्ष": 7416,
      "▁आर": 7417,
      "▁द्र": 7418,
      "▁दौर": 7419,
      "▁नौ": 7420,
      "▁नर्म": 7421,
      "र्त": 7422,
      "र्श": 7423,
      "र्तिक": 7424,
      "िकार": 7425,
      "▁वजह": 7426,
      "ियो": 7427,
      "▁SI": 7428,
      "ों,": 7429,
      "▁प्रश": 7430,
      "▁प्रथम": 7431,
      "203": 7432,
      "▁गोंड": 7433,
      "▁औसत": 7434,
      "▁(W": 7435,
      "▁उल": 7436,
      "▁संक्ष": 7437,
      "▁संबो": 7438,
      "▁संचाल": 7439,
      "ता'": 7440,
      "▁श्री": 7441,
      "▁शिकार": 7442,
      "ित्र": 7443,
      "ters": 7444,
      "▁चला": 7445,
      "▁चोल": 7446,
      "▁होली,": 7447,
      "ंगी": 7448,
      "▁विजयन": 7449,
      "▁नेपाल": 7450,
      "्याचल": 7451,
      "▁खु": 7452,
      "▁सभा": 7453,
      "ंध्याचल": 7454,
      "ली।": 7455,
      "▁सामान": 7456,
      "▁सामना": 7457,
      "▁फै": 7458,
      "▁फाय": 7459,
      "▁पांड": 7460,
      "▁शासित": 7461,
      "्मपु": 7462,
      "▁अप्र": 7463,
      "▁स्वरूप": 7464,
      "▁स्वतन्त्र": 7465,
      "्राम": 7466,
      "▁महात्": 7467,
      "▁मुद्रा": 7468,
      "▁संग्राम": 7469,
      "प्रदेश": 7470,
      "▁कम्प": 7471,
      "ost-": 7472,
      "▁सकल": 7473,
      "▁लाख),": 7474,
      "▁किनारे": 7475,
      "▁आदर्श": 7476,
      "▁नीति": 7477,
      "▁उत्पादन": 7478,
      "▁प्राप्ति": 7479,
      "ोत्तर": 7480,
      "▁केन्द्रीय": 7481,
      "▁तेज़ी": 7482,
      "▁आक्रमण": 7483,
      "▁नवीन": 7484,
      "▁प्रशासनिक": 7485,
      "▁इंडोनेशिया": 7486,
      "डिया,": 7487,
      "▁उठा": 7488,
      "▁दूसरे": 7489,
      "▁वाले": 7490,
      "▁फ्रांस,": 7491,
      "▁आयातक": 7492,
      "▁हस्तक्षेप": 7493,
      "▁आसप": 7494,
      "▁टेलीविजन": 7495,
      "-गंगा": 7496,
      "▁सिन्धु": 7497,
      "▁दिवस,": 7498,
      "ustralian": 7499,
      "ंसावादी": 7500,
      "▁अहिंसावादी": 7501,
      "▁मालदीव,": 7502,
      "▁ब्रह्मपु": 7503,
      "▁तेलुगू": 7504,
      "्टवेयर": 7505,
      "▁नर्मदा": 7506,
      "▁संक्षिप्त": 7507,
      "▁संबोधित": 7508,
      "▁विजयनगर": 7509,
      "▁फायदा": 7510,
      "▁स्वतन्त्रता": 7511,
      "▁महात्मा": 7512,
      "▁ब्रह्मपुत्र": 7513,
      "-छ": 7514,
      "094": 7515,
      "45": 7516,
      "540": 7517,
      "600": 7518,
      "97": 7519,
      "dus": 7520,
      "ँस": 7521,
      "ँधी": 7522,
      "गान": 7523,
      "चेंज": 7524,
      "जो": 7525,
      "ठा": 7526,
      "णिज": 7527,
      "निक": 7528,
      "बन": 7529,
      "मिन्": 7530,
      "म्प": 7531,
      "राष्ट्र": 7532,
      "रबी": 7533,
      "वान": 7534,
      "वारा": 7535,
      "शः": 7536,
      "सवीं": 7537,
      "िड": 7538,
      "ुरी": 7539,
      "ू,": 7540,
      "े।": 7541,
      "ैधान": 7542,
      "ो-": 7543,
      "▁कथ": 7544,
      "▁कै": 7545,
      "▁स्ट": 7546,
      "▁बँ": 7547,
      "▁बुद्ध": 7548,
      "▁ज्य": 7549,
      "▁अंदर": 7550,
      "▁आकार": 7551,
      "▁नक्": 7552,
      "र्भ": 7553,
      "िक्": 7554,
      "ियंस": 7555,
      "▁लक्ष": 7556,
      "▁लीं।": 7557,
      "▁प्रो": 7558,
      "▁प्रयोग": 7559,
      "▁प्रबंधन": 7560,
      "▁प्रवेश": 7561,
      "▁त्या": 7562,
      "▁तौर": 7563,
      "▁गि": 7564,
      "▁गिर": 7565,
      "ाजी": 7566,
      "▁(प": 7567,
      "▁(र": 7568,
      "▁बाहर": 7569,
      "▁परिव": 7570,
      "नाथ": 7571,
      "▁शिल": 7572,
      "▁चैन": 7573,
      "▁चट्ट": 7574,
      "्टर": 7575,
      "लाई": 7576,
      "काव्य": 7577,
      "▁धरो": 7578,
      "▁ईसवी": 7579,
      "▁निरूप": 7580,
      "▁उत्क": 7581,
      "▁देव": 7582,
      "▁बाद,": 7583,
      "▁फल": 7584,
      "▁राष्ट्रभाषा": 7585,
      "▁BCE)": 7586,
      "▁टै": 7587,
      "▁बीसवीं": 7588,
      "▁निर्धार": 7589,
      "शास्त्र": 7590,
      "▁गणतंत्र": 7591,
      "्यापक": 7592,
      "च्चा": 7593,
      "423": 7594,
      "▁महाकाव्य": 7595,
      "स्टर": 7596,
      "स्टमिन्": 7597,
      "▁लाख)": 7598,
      "▁गाँधी": 7599,
      "▁ढाल": 7600,
      "▁उत्पाद,": 7601,
      "▁इतिहासकार": 7602,
      "▁सूत्र": 7603,
      "▁वेस्टमिन्": 7604,
      "▁अनुमान": 7605,
      "▁दलद": 7606,
      "▁दर्शन": 7607,
      "ज्ञानिक": 7608,
      "▁निर्यातक": 7609,
      "क्सचेंज": 7610,
      "▁उष्णकटिबंधीय": 7611,
      "▁जम्मू": 7612,
      "▁फुटब": 7613,
      "▁कानून": 7614,
      "▁श्रेण": 7615,
      "▁पेट्रोलियम,": 7616,
      "-साथ": 7617,
      "▁मशीनरी,": 7618,
      "▁ताजमहल,": 7619,
      "▁ऊपरी": 7620,
      "णिज्य": 7621,
      "ैधानिक": 7622,
      "▁त्याग": 7623,
      "▁शिल्प": 7624,
      "▁धरोहर": 7625,
      "▁निरूपण": 7626,
      "▁वेस्टमिन्स्टर": 7627,
      "-ड": 7628,
      "-म": 7629,
      "अंग्रे": 7630,
      "कूद": 7631,
      "डल": 7632,
      "न।": 7633,
      "लंप": 7634,
      "सन": 7635,
      "स्ट्र": 7636,
      "हू": 7637,
      "ॉडल": 7638,
      "ोमी": 7639,
      "ौनों": 7640,
      "▁किल": 7641,
      "▁क्ल": 7642,
      "▁कौनों": 7643,
      "▁सुरू": 7644,
      "▁सऽ।": 7645,
      "▁मिथ": 7646,
      "▁मॉडल": 7647,
      "▁केमिक": 7648,
      "▁हास": 7649,
      "▁हवा": 7650,
      "▁हऽ।": 7651,
      "▁बर्": 7652,
      "▁बता": 7653,
      "▁आर्ट": 7654,
      "▁दीप": 7655,
      "▁नंबर": 7656,
      "▁लिस्ट": 7657,
      "▁सेक्ट": 7658,
      "▁गहना": 7659,
      "▁औरतन": 7660,
      "▁(अंग्रे": 7661,
      "▁इका": 7662,
      "िनि": 7663,
      "▁चै": 7664,
      "ात्मक": 7665,
      "▁होत": 7666,
      "▁होले": 7667,
      "स्कार": 7668,
      "▁खोज": 7669,
      "काब": 7670,
      "▁सभ,": 7671,
      "▁राज्यक्षेत्र": 7672,
      "▁निचला": 7673,
      "▁लोगन": 7674,
      "▁फार": 7675,
      "ंडल": 7676,
      "ोलिथिक": 7677,
      "▁जेकर": 7678,
      "▁जेवन": 7679,
      "▁जेकरा": 7680,
      "▁बाटे,": 7681,
      "▁बाटे;": 7682,
      "▁रहल;": 7683,
      "▁ओलंप": 7684,
      "▁भइले": 7685,
      "▁पुरस्कार": 7686,
      "▁कइलस": 7687,
      "▁मुगल": 7688,
      "▁मुकाब": 7689,
      "▁जाला,": 7690,
      "▁खेलकूद": 7691,
      "▁दक्खिन-प": 7692,
      "▁जिनहन": 7693,
      "▁अभिन": 7694,
      "▁],": 7695,
      "▁उनहन": 7696,
      "▁किनारा": 7697,
      "▁संगीत,": 7698,
      "▁बाड़ी,": 7699,
      "▁लंबा": 7700,
      "▁देखावत": 7701,
      "▁इंडो-": 7702,
      "▁खेला": 7703,
      "भाषित": 7704,
      "▁मामिला": 7705,
      "▁उत्तर-पूर": 7706,
      "▁पैमाना": 7707,
      "▁जमीन": 7708,
      "▁दसक": 7709,
      "▁समुंद्री": 7710,
      "▁मील)": 7711,
      "▁जगह": 7712,
      "▁आजादी": 7713,
      "▁संरक्षण": 7714,
      "▁प्रतिनि": 7715,
      "▁परबत": 7716,
      "▁उमिर": 7717,
      "▁उदाहरण": 7718,
      "▁चुनल": 7719,
      "▁अंडमान": 7720,
      "▁परिभाषित": 7721,
      "▁बिदेसी": 7722,
      "▁आयोजित": 7723,
      "ोमीटर": 7724,
      "▁किलोमीटर": 7725,
      "▁मिथक": 7726,
      "▁हासिल": 7727,
      "▁बतावल": 7728,
      "▁सेक्टर": 7729,
      "▁(अंग्रेजी": 7730,
      "▁इकाई": 7731,
      "▁ओलंपिक": 7732,
      "-व": 7733,
      "-फ़": 7734,
      "33": 7735,
      "76": 7736,
      "h);": 7737,
      "ंख": 7738,
      "एन": 7739,
      "एस": 7740,
      "कों": 7741,
      "खण्ड": 7742,
      "ग,": 7743,
      "ग्री": 7744,
      "गठित": 7745,
      "जिम": 7746,
      "डा": 7747,
      "ण्": 7748,
      "त्याद": 7749,
      "त्मक": 7750,
      "थल": 7751,
      "थवा": 7752,
      "दय": 7753,
      "नन": 7754,
      "निव": 7755,
      "न्तु": 7756,
      "निरपेक्ष": 7757,
      "पक्ष": 7758,
      "पमान": 7759,
      "बन्": 7760,
      "भाजपा": 7761,
      "मय": 7762,
      "यें": 7763,
      "रिव": 7764,
      "ल)": 7765,
      "लाल": 7766,
      "व्र": 7767,
      "वधान": 7768,
      "वाने": 7769,
      "वश्य": 7770,
      "शि": 7771,
      "श्व": 7772,
      "श्रे": 7773,
      "सन्द": 7774,
      "ही": 7775,
      "हारी": 7776,
      "़री": 7777,
      "ाक्षर": 7778,
      "िग्री": 7779,
      "ुणा": 7780,
      "ुण्": 7781,
      "ूष": 7782,
      "ूदी": 7783,
      "ेद": 7784,
      "ैल": 7785,
      "१४": 7786,
      "१६": 7787,
      "१००": 7788,
      "१२०": 7789,
      "२३": 7790,
      "३२": 7791,
      "३७": 7792,
      "३८": 7793,
      "४३": 7794,
      "५२": 7795,
      "६६": 7796,
      "७९": 7797,
      "▁कहीं": 7798,
      "▁क्यों": 7799,
      "▁कंक": 7800,
      "▁स्र": 7801,
      "▁सर्": 7802,
      "▁सित": 7803,
      "▁सक्ष": 7804,
      "▁स्त्र": 7805,
      "▁सतर": 7806,
      "▁मंत्री": 7807,
      "▁मंच": 7808,
      "▁केब": 7809,
      "▁पुल": 7810,
      "▁पसन्द": 7811,
      "ेंट": 7812,
      "▁हार": 7813,
      "▁हनन": 7814,
      "्रणी": 7815,
      "्रभु": 7816,
      "▁बहा": 7817,
      "्यान": 7818,
      "्यात": 7819,
      "▁जंग": 7820,
      "▁जवा": 7821,
      "▁जारी": 7822,
      "▁अक्ष": 7823,
      "▁अत्य": 7824,
      "▁अथवा": 7825,
      "▁आए": 7826,
      "▁आने": 7827,
      "▁आपू": 7828,
      "▁आवं": 7829,
      "▁आवश्य": 7830,
      "▁दिस": 7831,
      "▁दाद": 7832,
      "▁दमन": 7833,
      "▁रसा": 7834,
      "▁रीति": 7835,
      "▁न्य": 7836,
      "▁नीत": 7837,
      "▁नये": 7838,
      "र्ता": 7839,
      "र्जा": 7840,
      "ानपान": 7841,
      "▁वन": 7842,
      "▁वित": 7843,
      "▁व्या": 7844,
      "▁वक्त": 7845,
      "▁वस्त": 7846,
      "▁वाम": 7847,
      "ियर": 7848,
      "▁लौट": 7849,
      "▁सेमी": 7850,
      "▁सेल्": 7851,
      "▁प्रमाण": 7852,
      "▁तल": 7853,
      "▁त्र": 7854,
      "▁तरा": 7855,
      "▁तनाव": 7856,
      "▁तत्": 7857,
      "▁गये": 7858,
      "▁ग़री": 7859,
      "ाज़": 7860,
      "▁(फ़": 7861,
      "▁(हिन्दी": 7862,
      "▁(एन": 7863,
      "▁एल": 7864,
      "▁एसो": 7865,
      "▁परंत": 7866,
      "▁परन्तु": 7867,
      "▁उदय": 7868,
      "▁संसार": 7869,
      "▁इण्ड": 7870,
      "▁इत्याद": 7871,
      "ड़िया": 7872,
      "ित्व": 7873,
      "▁साफ़": 7874,
      "ासकर": 7875,
      "▁चला,": 7876,
      "▁चरम": 7877,
      "▁चली।": 7878,
      "▁यू": 7879,
      "▁यहा": 7880,
      "▁यूप": 7881,
      "त्री": 7882,
      "▁करवाने": 7883,
      "▁कोपे": 7884,
      "▁हैं–": 7885,
      "▁विधि": 7886,
      "▁विज्ञान": 7887,
      "▁विभाग": 7888,
      "▁विधायिका": 7889,
      "▁विंध्याचल": 7890,
      "सेना,": 7891,
      "िलित": 7892,
      "▁खासकर": 7893,
      "रायल": 7894,
      "▁अनिवार": 7895,
      "का,": 7896,
      "वाह": 7897,
      "याब": 7898,
      "▁इसने": 7899,
      "▁निवेश": 7900,
      "▁उत्थान": 7901,
      "▁नागा": 7902,
      "▁रूपए": 7903,
      "▁रूपरे": 7904,
      "▁देता": 7905,
      "▁देते": 7906,
      "▁तक,": 7907,
      "▁सामने": 7908,
      "िरु": 7909,
      "िराज्य": 7910,
      "▁बहुपक्ष": 7911,
      "्प्र": 7912,
      "्पत्ति": 7913,
      "▁पाई": 7914,
      "▁राष्ट्रों": 7915,
      "▁प्रावधान": 7916,
      "▁दक्षिण-पूर्व": 7917,
      "▁धर्मनिरपेक्ष": 7918,
      "▁द्वीप": 7919,
      "▁यहूदी": 7920,
      "▁घर": 7921,
      "▁घनि": 7922,
      "▁जिसे": 7923,
      "▁स्वर्ण": 7924,
      "▁छूट": 7925,
      "▁उपग्र": 7926,
      "▁अधिकतर": 7927,
      "▁महिला": 7928,
      "ंपरिक": 7929,
      "▁गया,": 7930,
      "▁उत्तरदाय": 7931,
      "हरलाल": 7932,
      "▁समय-स": 7933,
      "▁मानी": 7934,
      "▁निर्मा": 7935,
      "▁डिग्री": 7936,
      "▁देखो": 7937,
      "▁देखने": 7938,
      "▁देखते": 7939,
      "▁भाबर": 7940,
      "▁केंद्र-": 7941,
      "▁केंद्रशासित": 7942,
      "▁भू-आ": 7943,
      "▁ऊर्जा": 7944,
      "▁गुट": 7945,
      "monsoon": 7946,
      "▁पुराने": 7947,
      "▁पुराना": 7948,
      "▁मुम्ब": 7949,
      "▁मध्यप्रदेश": 7950,
      "▁नामों": 7951,
      "ेरल)": 7952,
      "▁बनीं।": 7953,
      "▁करेग": 7954,
      "▁हवेली": 7955,
      "▁संगठन": 7956,
      "म्बर": 7957,
      "▁मैदानों": 7958,
      "▁पारसी": 7959,
      "▁पारंपरिक": 7960,
      "▁हिस्सों": 7961,
      "कालिक": 7962,
      "कालीन": 7963,
      "▁बनाए": 7964,
      "▁बना।": 7965,
      "▁बनाता": 7966,
      "▁बनाई।": 7967,
      "▁बनाई,": 7968,
      "▁अरुणा": 7969,
      "▁मुख्यरूप": 7970,
      "०००": 7971,
      "▁इलावा": 7972,
      "▁ईसाई": 7973,
      "▁स्थित,": 7974,
      "सदन": 7975,
      "ज़न": 7976,
      "िपत्य": 7977,
      "▁तीव्र": 7978,
      "र्षित": 7979,
      "▁जी-": 7980,
      "▁दशह": 7981,
      "▁कामयाब": 7982,
      "ोषण,": 7983,
      "▁असैनिक": 7984,
      "▁करोड़),": 7985,
      "▁हुए,": 7986,
      "▁हुए।": 7987,
      "टी)": 7988,
      "▁पार्टियां": 7989,
      "▁मौसम": 7990,
      "▁इनका": 7991,
      "▁चलने": 7992,
      "▁तीसरे": 7993,
      "▁महाद्वीप": 7994,
      "तिहासिक": 7995,
      "▁माता": 7996,
      "▁कुलीन": 7997,
      "▁पैंती": 7998,
      "न्नति": 7999,
      "त्तरी": 8000,
      "▁अवसा": 8001,
      "▁ढाँच": 8002,
      "▁रेजिम": 8003,
      "▁पर्वतम": 8004,
      "▁आपके": 8005,
      "▁रही।": 8006,
      "सिएशन": 8007,
      "स्थल": 8008,
      "▁सूची": 8009,
      "▁विभाजन": 8010,
      "▁विभाजित": 8011,
      "▁थे,": 8012,
      "▁युद्धों": 8013,
      "ार्कट": 8014,
      "▁वर्गीकरण": 8015,
      "▁मूल्यों": 8016,
      "▁तटों": 8017,
      "▁न्यायालयों": 8018,
      "▁मनोर": 8019,
      "डीए": 8020,
      "देव": 8021,
      "ेडेरल)": 8022,
      "म्बे": 8023,
      "▁बैंक": 8024,
      "▁/वर्ष": 8025,
      "▁अमेरिकी": 8026,
      "▁अग्रणी": 8027,
      "▁आकर्षित": 8028,
      "▁नवगठित": 8029,
      "▁गतिशील": 8030,
      "▁जनतांत्रिक": 8031,
      "▁शहरीकरण": 8032,
      "▁जिन्हे": 8033,
      "▁सम्प्रभु": 8034,
      "▁मिला,": 8035,
      "▁(कॉ": 8036,
      "▁(कुल": 8037,
      "▁वर्णित": 8038,
      "▁अशांति": 8039,
      "▁दर्ज़": 8040,
      "▁राजाओं": 8041,
      "भाषी": 8042,
      "▁मामले": 8043,
      "▁तापमान": 8044,
      "१८५": 8045,
      "–(A": 8046,
      "–(B": 8047,
      "▁ऐसे": 8048,
      "▁ऐसी": 8049,
      "▁ऐतिहासिक": 8050,
      "▁जैसी": 8051,
      "▁गए।": 8052,
      "▁पर्यटक": 8053,
      "▁उन्होंने": 8054,
      "▁वालों": 8055,
      "▁फ्रांस": 8056,
      "▁मिलियन)": 8057,
      "वर्ग": 8058,
      "▁रखने": 8059,
      "▁राशि": 8060,
      "▁इस्लाम": 8061,
      "▁अधिराज्य": 8062,
      "▁मध्यकालीन": 8063,
      "▁पैमाने": 8064,
      "▁प्रायद्वीप": 8065,
      "▁पर्वतश्रे": 8066,
      "▁अमेरिका,": 8067,
      "▁अलावा,": 8068,
      "▁हस्ताक्षर": 8069,
      "▁शहरों": 8070,
      "▁अल्पाइन": 8071,
      "▁टेलीविज़न": 8072,
      "ुक्यों": 8073,
      "▁फिल्म": 8074,
      "▁मात्र": 8075,
      "▁आठवीं": 8076,
      "▁योग्य": 8077,
      "▁ज़्यादा": 8078,
      "▁एवम": 8079,
      "▁शक्तियों": 8080,
      "▁निम्नवत": 8081,
      "▁नागरिकों": 8082,
      "▁कंपनियों": 8083,
      "▁मीणा": 8084,
      "▁बहती": 8085,
      "▁अर्ध": 8086,
      "▁रत्न,": 8087,
      "▁तिब्ब": 8088,
      "▁निरपेक्ष": 8089,
      "▁न्यायाधिकार": 8090,
      "▁पहाड़ियाँ": 8091,
      "▁कर्मियों": 8092,
      "▁साझेदारी": 8093,
      "▁चालुक्यों": 8094,
      "▁अंग्रेजों": 8095,
      "सियस": 8096,
      "▁सशस्त्र": 8097,
      "▁मनाए": 8098,
      "▁बेटे": 8099,
      "▁जन्म": 8100,
      "▁नरेंद्र": 8101,
      "▁वैश्व": 8102,
      "▁इजरायल": 8103,
      "▁शिखर": 8104,
      "▁करोड": 8105,
      "▁सम्मिलित": 8106,
      "▁महीने": 8107,
      "▁मध्यमवर्ग": 8108,
      "▁अनुसूची": 8109,
      "▁अभियानों": 8110,
      "▁मोर्चा": 8111,
      "▁अन्तर्गत": 8112,
      "▁उभरा।": 8113,
      "▁समझौते": 8114,
      "▁सौहार्दपूर्ण": 8115,
      "▁मिश्रित": 8116,
      "▁भाषी": 8117,
      "र्तिकर्ता": 8118,
      "▁संचालित": 8119,
      "ंगीण": 8120,
      "▁सामान्य": 8121,
      "▁उठाया": 8122,
      "▁आसपास": 8123,
      "▁सिन्धु-गंगा": 8124,
      "एसजी": 8125,
      "निवेश": 8126,
      "रिवाज": 8127,
      "ुण्ण": 8128,
      "▁क्योंकि": 8129,
      "▁कंकड": 8130,
      "▁स्रोत": 8131,
      "▁सर्वा": 8132,
      "▁सक्षम": 8133,
      "▁मंचों,": 8134,
      "▁पुलिस": 8135,
      "▁जंगलों": 8136,
      "▁जवाहरलाल": 8137,
      "▁अक्षुण्ण": 8138,
      "▁आपूर्तिकर्ता": 8139,
      "▁दादरा": 8140,
      "▁रसायन": 8141,
      "▁वित्त": 8142,
      "▁वस्तु": 8143,
      "▁सेमी.": 8144,
      "▁सेल्सियस": 8145,
      "▁तराई": 8146,
      "▁तत्कालीन": 8147,
      "▁एसोसिएशन": 8148,
      "▁परंतु": 8149,
      "▁इण्डिया": 8150,
      "▁इत्यादि": 8151,
      "▁यहां": 8152,
      "▁यूपीए": 8153,
      "▁कोपेन": 8154,
      "▁अनिवार्य": 8155,
      "▁रूपरेखा": 8156,
      "▁बहुपक्षीय": 8157,
      "▁घनिष्ठ": 8158,
      "▁उपग्रह": 8159,
      "▁समय-समय": 8160,
      "▁भू-आक": 8161,
      "▁महाद्वीपों": 8162,
      "▁पैंतीस": 8163,
      "▁रेजिमेंट": 8164,
      "▁पर्वतमाला": 8165,
      "ार्कटिका": 8166,
      "▁मनोरंजन": 8167,
      "▁पर्वतश्रेणी": 8168,
      "\")": 8169,
      "\"),": 8170,
      "%:": 8171,
      "%;": 8172,
      "%).": 8173,
      "')": 8174,
      "'.": 8175,
      "'E": 8176,
      "'í": 8177,
      "):": 8178,
      ")।": 8179,
      ")).": 8180,
      "-D": 8181,
      "-H": 8182,
      "-T": 8183,
      "-Y": 8184,
      "-h": 8185,
      "-n": 8186,
      "-ज": 8187,
      "-त": 8188,
      "-श": 8189,
      "-ఇ": 8190,
      "-ట": 8191,
      "-re": 8192,
      "-di": 8193,
      "-and": 8194,
      "-or": 8195,
      "-ri": 8196,
      "-దేశ": 8197,
      "-ter": 8198,
      "-der": 8199,
      "-el": 8200,
      "-li": 8201,
      "-ము": 8202,
      "-sh": 8203,
      "-we": 8204,
      "-urban": 8205,
      "-own": 8206,
      "-pl": 8207,
      "-ins": 8208,
      "-प्र": 8209,
      "-work": 8210,
      "-i-": 8211,
      "-round": 8212,
      "-pro": 8213,
      "-cut": 8214,
      "-cast": 8215,
      "-భారత": 8216,
      "-పరి": 8217,
      "-inc": 8218,
      "-reg": 8219,
      "-div": 8220,
      "-operation": 8221,
      "-force": 8222,
      "-gener": 8223,
      "-inf": 8224,
      "-sel": 8225,
      "-century": 8226,
      "/G": 8227,
      "01": 8228,
      "05": 8229,
      "119": 8230,
      "113": 8231,
      "230": 8232,
      "235": 8233,
      "232": 8234,
      "34": 8235,
      "37": 8236,
      "350": 8237,
      "380": 8238,
      "343": 8239,
      "421": 8240,
      "431": 8241,
      "54": 8242,
      "546": 8243,
      "580": 8244,
      "522": 8245,
      "562": 8246,
      "65": 8247,
      "627": 8248,
      "663": 8249,
      "79": 8250,
      "740": 8251,
      "731": 8252,
      "800": 8253,
      "91": 8254,
      "940": 8255,
      "AL": 8256,
      "Ara": 8257,
      "Aph": 8258,
      "Ala": 8259,
      "BBC": 8260,
      "CN": 8261,
      "CIA": 8262,
      "F)": 8263,
      "GDP": 8264,
      "II": 8265,
      "IN": 8266,
      "Isl": 8267,
      "I-gener": 8268,
      "Kad": 8269,
      "Lord": 8270,
      "Mus": 8271,
      "Map": 8272,
      "NA": 8273,
      "NDA": 8274,
      "PP": 8275,
      "Pol": 8276,
      "Pub": 8277,
      "Pakistan": 8278,
      "Qut": 8279,
      "St": 8280,
      "Sovereign": 8281,
      "The": 8282,
      "UCN": 8283,
      "ao": 8284,
      "az": 8285,
      "aṅ": 8286,
      "a—": 8287,
      "aon": 8288,
      "aut": 8289,
      "aid": 8290,
      "aud": 8291,
      "aiv": 8292,
      "aff": 8293,
      "augh": 8294,
      "a—s": 8295,
      "ba": 8296,
      "by": 8297,
      "bɦ": 8298,
      "bon": 8299,
      "band": 8300,
      "bic": 8301,
      "bec": 8302,
      "bul": 8303,
      "bro": 8304,
      "bate": 8305,
      "bodi": 8306,
      "bade": 8307,
      "bird": 8308,
      "bled": 8309,
      "bility": 8310,
      "bined": 8311,
      "breath": 8312,
      "bhā": 8313,
      "bally.": 8314,
      "cre": 8315,
      "cur": 8316,
      "col": 8317,
      "cul": 8318,
      "cation": 8319,
      "curing": 8320,
      "culture": 8321,
      "ca.": 8322,
      "clo": 8323,
      "colog": 8324,
      "cise": 8325,
      "crop": 8326,
      "cked": 8327,
      "cook": 8328,
      "cines": 8329,
      "cadem": 8330,
      "claiming": 8331,
      "da": 8332,
      "din": 8333,
      "dent": 8334,
      "dro": 8335,
      "de,": 8336,
      "dates": 8337,
      "dled": 8338,
      "drop": 8339,
      "dministr": 8340,
      "dasi": 8341,
      "dden": 8342,
      "ee": 8343,
      "e—": 8344,
      "eat": 8345,
      "een": 8346,
      "eing": 8347,
      "eas": 8348,
      "eur": 8349,
      "eum": 8350,
      "eav": 8351,
      "eved": 8352,
      "eep": 8353,
      "eace": 8354,
      "eech": 8355,
      "ees)": 8356,
      "f.": 8357,
      "fl": 8358,
      "fre": 8359,
      "fen": 8360,
      "ful": 8361,
      "fast": 8362,
      "first": 8363,
      "fts": 8364,
      "fted": 8365,
      "ford": 8366,
      "fess": 8367,
      "fices": 8368,
      "foli": 8369,
      "ger": 8370,
      "gal": 8371,
      "gation": 8372,
      "gid": 8373,
      "gir": 8374,
      "gment": 8375,
      "gence": 8376,
      "gine": 8377,
      "graph": 8378,
      "gative": 8379,
      "grad": 8380,
      "geb": 8381,
      "greg": 8382,
      "gic,": 8383,
      "gressive": 8384,
      "h.": 8385,
      "ha": 8386,
      "hl": 8387,
      "hic": 8388,
      "hou": 8389,
      "hur": 8390,
      "hil": 8391,
      "ham": 8392,
      "hang": 8393,
      "hab": 8394,
      "hich": 8395,
      "has,": 8396,
      "hyan": 8397,
      "hadi": 8398,
      "hyth": 8399,
      "hary,": 8400,
      "haps": 8401,
      "hgal": 8402,
      "i.": 8403,
      "iu": 8404,
      "ier": 8405,
      "iand": 8406,
      "iec": 8407,
      "iation": 8408,
      "iber": 8409,
      "i),": 8410,
      "ipp": 8411,
      "ihi": 8412,
      "iens": 8413,
      "ivers": 8414,
      "ief": 8415,
      "iple": 8416,
      "iversity": 8417,
      "io,": 8418,
      "iers": 8419,
      "i-d": 8420,
      "iary,": 8421,
      "iii)": 8422,
      "iature,": 8423,
      "ji": 8424,
      "jam": 8425,
      "jid": 8426,
      "jav": 8427,
      "jour": 8428,
      "join": 8429,
      "jured": 8430,
      "k;": 8431,
      "ka": 8432,
      "kent": 8433,
      "kut": 8434,
      "kir": 8435,
      "kies": 8436,
      "khar": 8437,
      "ksh": 8438,
      "kable": 8439,
      "kers,": 8440,
      "kara": 8441,
      "key": 8442,
      "k-e": 8443,
      "kma": 8444,
      "kar.": 8445,
      "killed": 8446,
      "kman": 8447,
      "lt": 8448,
      "lin": 8449,
      "lon": 8450,
      "ler": 8451,
      "len": 8452,
      "lar": 8453,
      "lit": 8454,
      "lor": 8455,
      "las": 8456,
      "lil": 8457,
      "lut": 8458,
      "lig": 8459,
      "lid": 8460,
      "la,": 8461,
      "lated": 8462,
      "lav": 8463,
      "les,": 8464,
      "ligh": 8465,
      "liter": 8466,
      "less": 8467,
      "lped": 8468,
      "lating": 8469,
      "lock": 8470,
      "laving": 8471,
      "line.": 8472,
      "laps": 8473,
      "mm": 8474,
      "mo": 8475,
      "mā": 8476,
      "men": 8477,
      "mic": 8478,
      "mad": 8479,
      "mast": 8480,
      "mop": 8481,
      "mi,": 8482,
      "mod": 8483,
      "minister": 8484,
      "mond": 8485,
      "mani": 8486,
      "most": 8487,
      "metic": 8488,
      "mense": 8489,
      "ned": 8490,
      "nut": 8491,
      "nial": 8492,
      "na,": 8493,
      "not": 8494,
      "national": 8495,
      "nas,": 8496,
      "nam,": 8497,
      "nai,": 8498,
      "ners.": 8499,
      "naty": 8500,
      "nathur": 8501,
      "oa": 8502,
      "ox": 8503,
      "oic": 8504,
      "oist": 8505,
      "oet": 8506,
      "oast": 8507,
      "os.": 8508,
      "oi,": 8509,
      "oog": 8510,
      "ooth": 8511,
      "oard": 8512,
      "oals": 8513,
      "oork": 8514,
      "official": 8515,
      "pa": 8516,
      "po": 8517,
      "pre": 8518,
      "part": 8519,
      "pure": 8520,
      "pli": 8521,
      "pect": 8522,
      "pire": 8523,
      "power": 8524,
      "pren": 8525,
      "pani": 8526,
      "pared": 8527,
      "post": 8528,
      "prop": 8529,
      "posed": 8530,
      "panding": 8531,
      "present": 8532,
      "position": 8533,
      "pressed": 8534,
      "rion": 8535,
      "ris": 8536,
      "ring": 8537,
      "ril": 8538,
      "rang": 8539,
      "rous": 8540,
      "rince": 8541,
      "ring,": 8542,
      "ration,": 8543,
      "rata": 8544,
      "roup": 8545,
      "rgarh": 8546,
      "raries": 8547,
      "ranged": 8548,
      "rune": 8549,
      "rance,": 8550,
      "s\"": 8551,
      "sing": 8552,
      "sang": 8553,
      "sive": 8554,
      "ses,": 8555,
      "squ": 8556,
      "site": 8557,
      "sions": 8558,
      "sar,": 8559,
      "sue": 8560,
      "sched": 8561,
      "sued": 8562,
      "serv": 8563,
      "svara": 8564,
      "s—w": 8565,
      "sine,": 8566,
      "sche": 8567,
      "scription": 8568,
      "sful": 8569,
      "skir": 8570,
      "smen": 8571,
      "t.": 8572,
      "tan": 8573,
      "ton": 8574,
      "tis": 8575,
      "tent": 8576,
      "tation": 8577,
      "ts.": 8578,
      "tment": 8579,
      "tection": 8580,
      "ties.": 8581,
      "tas,": 8582,
      "thes": 8583,
      "ti-": 8584,
      "trin": 8585,
      "tained": 8586,
      "tropical": 8587,
      "tre.": 8588,
      "tivity": 8589,
      "tling": 8590,
      "tras": 8591,
      "twat": 8592,
      "tally.": 8593,
      "t-h": 8594,
      "ux": 8595,
      "udi": 8596,
      "uth": 8597,
      "ument": 8598,
      "ue,": 8599,
      "uff": 8600,
      "uistic": 8601,
      "uaries": 8602,
      "uidel": 8603,
      "van": 8604,
      "vis": 8605,
      "vir": 8606,
      "vate": 8607,
      "vial": 8608,
      "vant": 8609,
      "vall": 8610,
      "veng": 8611,
      "vals": 8612,
      "vail": 8613,
      "vati.": 8614,
      "wing": 8615,
      "went": 8616,
      "wif": 8617,
      "wide": 8618,
      "wani": 8619,
      "wice": 8620,
      "ware": 8621,
      "wanted": 8622,
      "weri": 8623,
      "wstr": 8624,
      "wati.": 8625,
      "xic": 8626,
      "xford": 8627,
      "y)": 8628,
      "yā": 8629,
      "yī": 8630,
      "yer": 8631,
      "yst": 8632,
      "yed": 8633,
      "yder": 8634,
      "yond": 8635,
      "yi-": 8636,
      "yjam": 8637,
      "ylon": 8638,
      "zadi": 8639,
      "Ön": 8640,
      "á'í": 8641,
      "âl": 8642,
      "āṇ": 8643,
      "ādh": 8644,
      "ābhā": 8645,
      "āham": 8646,
      "āmā": 8647,
      "Śul": 8648,
      "ūtras": 8649,
      "ət": 8650,
      "ɦɪ": 8651,
      "ɾət": 8652,
      "ʊˈ": 8653,
      "ˈbɦ": 8654,
      "ία": 8655,
      "ς),": 8656,
      "ός),": 8657,
      "ंरिक": 8658,
      "आई": 8659,
      "आर": 8660,
      "इंड": 8661,
      "ईल": 8662,
      "ऊ,": 8663,
      "कप": 8664,
      "कता": 8665,
      "कणी": 8666,
      "खर": 8667,
      "खे": 8668,
      "गण": 8669,
      "गी": 8670,
      "गार": 8671,
      "गुरू": 8672,
      "छे": 8673,
      "टें": 8674,
      "ट्य": 8675,
      "डम": 8676,
      "डियो": 8677,
      "त,": 8678,
      "तवाँ": 8679,
      "त्थान": 8680,
      "तंरिक": 8681,
      "थिल": 8682,
      "दु": 8683,
      "दान": 8684,
      "दड़": 8685,
      "दूर": 8686,
      "धता": 8687,
      "धारी": 8688,
      "नो": 8689,
      "निस": 8690,
      "पद": 8691,
      "पी": 8692,
      "पुर": 8693,
      "प्प": 8694,
      "पाली": 8695,
      "पटल": 8696,
      "बंगा": 8697,
      "बेट": 8698,
      "भो": 8699,
      "म्य": 8700,
      "मित": 8701,
      "म्म": 8702,
      "मड़ा": 8703,
      "मर,": 8704,
      "मबेट": 8705,
      "यी": 8706,
      "यंती": 8707,
      "रक": 8708,
      "रद": 8709,
      "रस": 8710,
      "रने": 8711,
      "लत": 8712,
      "लब": 8713,
      "वार": 8714,
      "वली": 8715,
      "वनी": 8716,
      "शे": 8717,
      "सुल": 8718,
      "ाव": 8719,
      "ांड": 8720,
      "ाधिकार": 8721,
      "िश्च": 8722,
      "ीव": 8723,
      "ूत्र": 8724,
      "ूद्वीप": 8725,
      "ूमर,": 8726,
      "ृष्": 8727,
      "ेन्न": 8728,
      "ॉप": 8729,
      "ो,": 8730,
      "ौतम": 8731,
      "ौलत": 8732,
      "्लिक": 8733,
      "ంథ": 8734,
      "ంపా": 8735,
      "ంజి": 8736,
      "ంతి,": 8737,
      "ం\",": 8738,
      "ఆర్య": 8739,
      "ఇదే": 8740,
      "ఉదా": 8741,
      "ఋతు": 8742,
      "ఒక": 8743,
      "ఔట్": 8744,
      "క,": 8745,
      "కల": 8746,
      "క్ర": 8747,
      "కమైన": 8748,
      "క్యం": 8749,
      "కల్ప": 8750,
      "కెట్": 8751,
      "కమేన": 8752,
      "కత్తా": 8753,
      "ఖిక": 8754,
      "ఖకు": 8755,
      "ఖో,": 8756,
      "గమ": 8757,
      "గృ": 8758,
      "గర్": 8759,
      "గించ": 8760,
      "గులు": 8761,
      "గింది.": 8762,
      "గలి": 8763,
      "గి,": 8764,
      "గలు,": 8765,
      "గమించ": 8766,
      "గర్,": 8767,
      "ఘు": 8768,
      "ఘిక,": 8769,
      "చన": 8770,
      "చూ": 8771,
      "చ్": 8772,
      "చార": 8773,
      "చల్": 8774,
      "చింది.": 8775,
      "చిత": 8776,
      "చులు,": 8777,
      "చీ,": 8778,
      "చారం": 8779,
      "చిత్ర": 8780,
      "చనలో": 8781,
      "చర్,": 8782,
      "చెట్ట": 8783,
      "ఛే": 8784,
      "ఛాయుత": 8785,
      "జవ": 8786,
      "జా": 8787,
      "జె": 8788,
      "జ్ర": 8789,
      "జన్": 8790,
      "జిన": 8791,
      "జిత": 8792,
      "జర్వ": 8793,
      "జపా": 8794,
      "జీ,": 8795,
      "జెండ": 8796,
      "జ్యం": 8797,
      "జనాలు": 8798,
      "జెట్": 8799,
      "ఞాన": 8800,
      "టక": 8801,
      "టన": 8802,
      "టె": 8803,
      "టే": 8804,
      "టో": 8805,
      "ట్య": 8806,
      "టండ": 8807,
      "టంలో": 8808,
      "టం,": 8809,
      "టులు,": 8810,
      "టచే": 8811,
      "టంతో": 8812,
      "టాట": 8813,
      "టాయి": 8814,
      "టర్ల": 8815,
      "టమూ": 8816,
      "ఠీ;": 8817,
      "డ్య": 8818,
      "డింది.": 8819,
      "డ్చ": 8820,
      "డ్ల": 8821,
      "డాలు,": 8822,
      "డవస్థ": 8823,
      "డానికి": 8824,
      "డించింది.": 8825,
      "డారి": 8826,
      "డించి,": 8827,
      "డతాయి.": 8828,
      "ఢవి": 8829,
      "ణం": 8830,
      "ణే": 8831,
      "ణిక": 8832,
      "ణాలు": 8833,
      "ణుల": 8834,
      "ణదారులు,": 8835,
      "త,": 8836,
      "తల": 8837,
      "తే": 8838,
      "తాన": 8839,
      "తీ,": 8840,
      "తారం": 8841,
      "తమై": 8842,
      "తాలతో": 8843,
      "తెలుగు": 8844,
      "థమ": 8845,
      "థి": 8846,
      "థాత": 8847,
      "థిక్": 8848,
      "దీ": 8849,
      "దూ": 8850,
      "దాన": 8851,
      "దీయ": 8852,
      "దులు": 8853,
      "దారు": 8854,
      "దులు,": 8855,
      "దీర్": 8856,
      "దర్శ": 8857,
      "దండా": 8858,
      "దగినది.": 8859,
      "దాబాదు": 8860,
      "ధా": 8861,
      "ధాల": 8862,
      "ధిన": 8863,
      "ధం,": 8864,
      "ధనా": 8865,
      "ధుమ": 8866,
      "న,": 8867,
      "నత": 8868,
      "నూ": 8869,
      "నై": 8870,
      "న్య": 8871,
      "నలు": 8872,
      "నల్": 8873,
      "నంలో": 8874,
      "నవి": 8875,
      "నికి": 8876,
      "నర్వ": 8877,
      "నీ,": 8878,
      "నలలో": 8879,
      "నలు,": 8880,
      "నీప": 8881,
      "నబడిన": 8882,
      "ననీ": 8883,
      "నసా": 8884,
      "నవచ్చు.": 8885,
      "నమో": 8886,
      "నప్పటికినీ": 8887,
      "నకల": 8888,
      "పం": 8889,
      "పద": 8890,
      "పబ": 8891,
      "పర": 8892,
      "పవ": 8893,
      "పే": 8894,
      "పలి": 8895,
      "పత్య": 8896,
      "పట్": 8897,
      "ప్రా": 8898,
      "పించింది.": 8899,
      "పం:": 8900,
      "పతులు": 8901,
      "పస్,": 8902,
      "పడుతున్న": 8903,
      "ఫల": 8904,
      "ఫ్ట": 8905,
      "ఫరా": 8906,
      "ఫిక్": 8907,
      "బల": 8908,
      "బి": 8909,
      "బై": 8910,
      "బాల్": 8911,
      "బ్రె": 8912,
      "బియ": 8913,
      "బద్ధం": 8914,
      "బుల్": 8915,
      "భ్య": 8916,
      "భదాయ": 8917,
      "మర": 8918,
      "మ్": 8919,
      "మార": 8920,
      "మ్య": 8921,
      "మర్": 8922,
      "మిం": 8923,
      "మిక": 8924,
      "మని": 8925,
      "మాయ": 8926,
      "మాత": 8927,
      "మంత": 8928,
      "మంలో": 8929,
      "మలి": 8930,
      "మికి": 8931,
      "మాలు,": 8932,
      "ములు,": 8933,
      "మి,": 8934,
      "మించిన": 8935,
      "మీ;": 8936,
      "మస్,": 8937,
      "మార్త": 8938,
      "యం": 8939,
      "యూ": 8940,
      "యర్": 8941,
      "యిన": 8942,
      "యి.": 8943,
      "యంలో": 8944,
      "యం,": 8945,
      "యాత్ర": 8946,
      "యంతో": 8947,
      "యన్మ": 8948,
      "యుక్": 8949,
      "ర,": 8950,
      "రలో": 8951,
      "రాయ": 8952,
      "రద్": 8953,
      "రత్": 8954,
      "రంత": 8955,
      "రతు": 8956,
      "రెండ": 8957,
      "రం.": 8958,
      "రవే": 8959,
      "రారి": 8960,
      "రూప": 8961,
      "రమై": 8962,
      "రించే": 8963,
      "రక్షరాస్యత": 8964,
      "రకూ": 8965,
      "రవిం": 8966,
      "రమే.": 8967,
      "రచింది.": 8968,
      "రఫరా": 8969,
      "రబద్ధం": 8970,
      "ల,": 8971,
      "లల": 8972,
      "లహ": 8973,
      "లె": 8974,
      "లాలు": 8975,
      "లిన": 8976,
      "లిత": 8977,
      "లీ,": 8978,
      "లీన": 8979,
      "లకాల": 8980,
      "లబె": 8981,
      "లమాన": 8982,
      "లసిల్లు": 8983,
      "లబై": 8984,
      "ళులు,": 8985,
      "ళుక": 8986,
      "ళాఖ": 8987,
      "ళూరు": 8988,
      "ళవిం": 8989,
      "వీ": 8990,
      "వై": 8991,
      "వార": 8992,
      "వలు": 8993,
      "వులు": 8994,
      "వరు": 8995,
      "విత": 8996,
      "వలి": 8997,
      "వస్తు": 8998,
      "వుల": 8999,
      "వంటి": 9000,
      "వలను": 9001,
      "వరాలు": 9002,
      "వరీ": 9003,
      "వమి,": 9004,
      "శక": 9005,
      "శై": 9006,
      "శాల": 9007,
      "శలో": 9008,
      "శంలో": 9009,
      "శారు": 9010,
      "శ్రా": 9011,
      "శ్వ": 9012,
      "శాతం": 9013,
      "షే": 9014,
      "షాలు": 9015,
      "షం.": 9016,
      "షా,": 9017,
      "షకా": 9018,
      "షం\",": 9019,
      "షనల్": 9020,
      "సం": 9021,
      "సే": 9022,
      "సొ": 9023,
      "సాల": 9024,
      "సాలు": 9025,
      "సగా": 9026,
      "సాయ": 9027,
      "సిన": 9028,
      "సార్": 9029,
      "స్రి": 9030,
      "సాక": 9031,
      "సరా": 9032,
      "సీ,": 9033,
      "సభా": 9034,
      "సమి": 9035,
      "సత్త": 9036,
      "సారిగా": 9037,
      "సెస్": 9038,
      "సరిస్త": 9039,
      "సాయుత": 9040,
      "సరమై": 9041,
      "హక": 9042,
      "హ్": 9043,
      "హాయ": 9044,
      "హిత": 9045,
      "హపు": 9046,
      "హాలు,": 9047,
      "హ్మ": 9048,
      "హావ": 9049,
      "హాస": 9050,
      "హర్ల": 9051,
      "హంగా,": 9052,
      "ాంబ": 9053,
      "ాసు": 9054,
      "ాగో": 9055,
      "ాభారత": 9056,
      "ాము.": 9057,
      "ాశ్ర": 9058,
      "ానిస్తాన్": 9059,
      "ాదిన": 9060,
      "ాదాయంలో": 9061,
      "ాధిన": 9062,
      "ామని": 9063,
      "ాళుక": 9064,
      "ి:": 9065,
      "ిష్ట": 9066,
      "ిస్తు": 9067,
      "ిగి": 9068,
      "ిలే": 9069,
      "ిస్తారు.": 9070,
      "ిళ్ళ": 9071,
      "ిటన్": 9072,
      "ిజిన": 9073,
      "ీలు": 9074,
      "ీతం": 9075,
      "ీరం": 9076,
      "ీతులు": 9077,
      "ీకరణ": 9078,
      "ీవిత": 9079,
      "ీశారు": 9080,
      "ుని": 9081,
      "ును": 9082,
      "ురు": 9083,
      "ుంట": 9084,
      "ుట్ట": 9085,
      "ుతో": 9086,
      "ుట్": 9087,
      "ుర్య": 9088,
      "ువు": 9089,
      "ురాలు": 9090,
      "ుడైన": 9091,
      "ునిక": 9092,
      "ుస్తులు": 9093,
      "ుచులు,": 9094,
      "ుళూరు": 9095,
      "ూ,": 9096,
      "ూలా": 9097,
      "ూ—ISBN": 9098,
      "ూటన": 9099,
      "ూరత్": 9100,
      "ూలాలు": 9101,
      "ృక్ష": 9102,
      "ృష్ట": 9103,
      "ృద్ధ": 9104,
      "ృతంగా": 9105,
      "ె,": 9106,
      "ెన్న": 9107,
      "ెనే": 9108,
      "ెజి": 9109,
      "ెల్లో": 9110,
      "ెలిచ": 9111,
      "ెబియ": 9112,
      "ేత": 9113,
      "ేవ": 9114,
      "ేష్": 9115,
      "ేణి": 9116,
      "ేకా": 9117,
      "ేసింది.": 9118,
      "ేలిక": 9119,
      "ేకమైన": 9120,
      "ేటాయి": 9121,
      "ేననీ": 9122,
      "ేషం.": 9123,
      "ైక": 9124,
      "ైను": 9125,
      "ైతం": 9126,
      "ైపా": 9127,
      "ైపో": 9128,
      "ైలీ": 9129,
      "ొట్ట": 9130,
      "ొక్క": 9131,
      "ొమ్మ": 9132,
      "ొందింది.": 9133,
      "ొలీ,": 9134,
      "ోక్ష": 9135,
      "ోనే": 9136,
      "ోసి": 9137,
      "ోద్య": 9138,
      "ోబె": 9139,
      "ోతూ": 9140,
      "ోయింది.": 9141,
      "ోత్రి": 9142,
      "ోచనలో": 9143,
      "ోధనా": 9144,
      "ోళులు,": 9145,
      "ౌళి,": 9146,
      "్;": 9147,
      "్లో": 9148,
      "్వే": 9149,
      "్వామ": 9150,
      "ṇa,": 9151,
      "ṣṭ": 9152,
      "–మా": 9153,
      "–the": 9154,
      "–ISBN": 9155,
      "–భరత": 9156,
      "–ముఖ్యమైన": 9157,
      "–Ara": 9158,
      "–Kad": 9159,
      "–Pakistan": 9160,
      "–తెలుగు": 9161,
      "–నమో": 9162,
      "—లో": 9163,
      "—am": 9164,
      "—li": 9165,
      "—to": 9166,
      "—low": 9167,
      "—ex": 9168,
      "—passing": 9169,
      "—cover": 9170,
      "—India": 9171,
      "—BBC": 9172,
      "—CIA": 9173,
      "—The": 9174,
      "—bec": 9175,
      "—cook": 9176,
      "—dates": 9177,
      "—not": 9178,
      "—జవ": 9179,
      "▁&": 9180,
      "▁^": 9181,
      "▁ic": 9182,
      "▁il": 9183,
      "▁లు": 9184,
      "▁ver": 9185,
      "▁id": 9186,
      "▁ill": 9187,
      "▁ub": 9188,
      "▁త్వ": 9189,
      "▁లి": 9190,
      "▁యా": 9191,
      "▁డి": 9192,
      "▁ens": 9193,
      "▁ident": 9194,
      "▁i)": 9195,
      "▁Qut": 9196,
      "▁i),": 9197,
      "▁Ön": 9198,
      "▁Śul": 9199,
      "▁ɦɪ": 9200,
      "▁ˈbɦ": 9201,
      "▁ఋతు": 9202,
      "▁ఔట్": 9203,
      "▁tat": 9204,
      "▁tou": 9205,
      "▁tur": 9206,
      "▁tri": 9207,
      "▁tang": 9208,
      "▁tuc": 9209,
      "▁ties": 9210,
      "▁tap": 9211,
      "▁tour": 9212,
      "▁tect": 9213,
      "▁treat": 9214,
      "▁trough": 9215,
      "▁tabl": 9216,
      "▁tied": 9217,
      "▁tight": 9218,
      "▁tons": 9219,
      "▁trial": 9220,
      "▁trigonomet": 9221,
      "▁taugh": 9222,
      "▁trous": 9223,
      "▁twice": 9224,
      "an.": 9225,
      "an;": 9226,
      "anar": 9227,
      "anam": 9228,
      "ans,": 9229,
      "anim": 9230,
      "ani,": 9231,
      "anct": 9232,
      "ana.": 9233,
      "anistan": 9234,
      "anism,": 9235,
      "anadi": 9236,
      "anaty": 9237,
      "anjav": 9238,
      "anweri": 9239,
      "hes.": 9240,
      "hether": 9241,
      "inet": 9242,
      "inate": 9243,
      "inel": 9244,
      "inational": 9245,
      "ines.": 9246,
      "inite": 9247,
      "inations": 9248,
      "inade": 9249,
      "ined,": 9250,
      "incial": 9251,
      "inaries": 9252,
      "in-pro": 9253,
      "ini.": 9254,
      "▁कों": 9255,
      "▁कने": 9256,
      "▁कमा": 9257,
      "▁काली": 9258,
      "▁कबी": 9259,
      "▁कला,": 9260,
      "▁कच्चा": 9261,
      "▁कृष्": 9262,
      "▁क्लिक": 9263,
      "▁theor": 9264,
      "▁theore": 9265,
      "ons.": 9266,
      "onisation": 9267,
      "onia": 9268,
      "onists": 9269,
      "onmental": 9270,
      "ontally.": 9271,
      "onyi-": 9272,
      "ero": 9273,
      "erly": 9274,
      "erve": 9275,
      "er's": 9276,
      "erren": 9277,
      "ering,": 9278,
      "erations": 9279,
      "eration,": 9280,
      "erving": 9281,
      "eria": 9282,
      "ermin": 9283,
      "er-body": 9284,
      "er—cover": 9285,
      "▁सॉ": 9286,
      "▁सार": 9287,
      "▁स्त": 9288,
      "▁सन्": 9289,
      "▁सुख": 9290,
      "▁सारा": 9291,
      "▁सत्त": 9292,
      "reed": 9293,
      "rely": 9294,
      "res,": 9295,
      "reet": 9296,
      "reate": 9297,
      "rehen": 9298,
      "reland": 9299,
      "remental": 9300,
      "repren": 9301,
      "al,": 9302,
      "alo": 9303,
      "aland": 9304,
      "alli": 9305,
      "ali,": 9306,
      "also": 9307,
      "alite": 9308,
      "alised": 9309,
      "alue": 9310,
      "alms": 9311,
      "aldiv": 9312,
      "▁oro": 9313,
      "▁oper": 9314,
      "▁oven": 9315,
      "▁ocean": 9316,
      "ster": 9317,
      "sting": 9318,
      "sted,": 9319,
      "stock": 9320,
      "standing": 9321,
      "staː": 9322,
      "stead": 9323,
      "stream": 9324,
      "at,": 9325,
      "atur": 9326,
      "atist": 9327,
      "atter": 9328,
      "atab": 9329,
      "atant": 9330,
      "aturing": 9331,
      "atite": 9332,
      "athem": 9333,
      "aters": 9334,
      "atory": 9335,
      "atis,": 9336,
      "atriya,": 9337,
      "atna,": 9338,
      "endi": 9339,
      "ening": 9340,
      "ens.": 9341,
      "enomin": 9342,
      "enistic": 9343,
      "ening.": 9344,
      "ennial": 9345,
      "▁म्या": 9346,
      "di,": 9347,
      "dial": 9348,
      "diers,": 9349,
      "ditation": 9350,
      "arri": 9351,
      "arth": 9352,
      "ars,": 9353,
      "arter": 9354,
      "ari,": 9355,
      "arated": 9356,
      "arket": 9357,
      "arhi,": 9358,
      "arla": 9359,
      "arov": 9360,
      "arvest": 9361,
      "arapp": 9362,
      "arcation": 9363,
      "arji": 9364,
      "arless": 9365,
      "armad": 9366,
      "arāham": 9367,
      "▁के,": 9368,
      "▁I,": 9369,
      "▁I.": 9370,
      "▁IT": 9371,
      "▁Imp": 9372,
      "▁Iran": 9373,
      "▁IUCN": 9374,
      "▁Ident": 9375,
      "▁Iyer": 9376,
      "▁Ireland": 9377,
      "anded": 9378,
      "anda,": 9379,
      "andari": 9380,
      "andmast": 9381,
      "▁cra": 9382,
      "▁cig": 9383,
      "▁cab": 9384,
      "▁cum": 9385,
      "▁cak": 9386,
      "▁city": 9387,
      "▁cult": 9388,
      "▁cres": 9389,
      "▁cot": 9390,
      "▁cli": 9391,
      "▁core": 9392,
      "▁call": 9393,
      "▁crow": 9394,
      "▁card": 9395,
      "▁cited": 9396,
      "▁city,": 9397,
      "▁camp": 9398,
      "▁cropp": 9399,
      "▁caval": 9400,
      "▁cuff": 9401,
      "▁create": 9402,
      "edary": 9403,
      "edals": 9404,
      "eda—": 9405,
      "edkar.": 9406,
      "▁Indust": 9407,
      "▁Intell": 9408,
      "▁Interior": 9409,
      "▁Instead": 9410,
      "▁adi": 9411,
      "▁ach": 9412,
      "▁act": 9413,
      "▁amb": 9414,
      "▁acut": 9415,
      "▁astr": 9416,
      "▁ahead": 9417,
      "▁awa": 9418,
      "▁auth": 9419,
      "▁aveng": 9420,
      "▁in,": 9421,
      "▁in.": 9422,
      "▁indic": 9423,
      "▁internal": 9424,
      "▁invention": 9425,
      "▁insur": 9426,
      "▁inval": 9427,
      "▁invest": 9428,
      "▁invasive": 9429,
      "▁inscription": 9430,
      "ito": 9431,
      "itol": 9432,
      "its,": 9433,
      "itter": 9434,
      "itous": 9435,
      "ities,": 9436,
      "ittle": 9437,
      "itual": 9438,
      "itants": 9439,
      "itched": 9440,
      "its;": 9441,
      "itage.": 9442,
      "itime": 9443,
      "itoch": 9444,
      "▁wil": 9445,
      "▁wra": 9446,
      "▁will": 9447,
      "▁wage": 9448,
      "▁wood": 9449,
      "▁wai": 9450,
      "▁wool": 9451,
      "▁walled": 9452,
      "▁where": 9453,
      "▁wanted": 9454,
      "▁wedd": 9455,
      "▁woman": 9456,
      "▁widespread": 9457,
      "▁waters": 9458,
      "▁sent": 9459,
      "▁sol": 9460,
      "▁sus": 9461,
      "▁sun": 9462,
      "▁sem": 9463,
      "▁sac": 9464,
      "▁sher": 9465,
      "▁sum": 9466,
      "▁sap": 9467,
      "▁same": 9468,
      "▁shar": 9469,
      "▁sine": 9470,
      "▁side": 9471,
      "▁sust": 9472,
      "▁slowing": 9473,
      "▁sung": 9474,
      "▁southeast": 9475,
      "▁silt": 9476,
      "▁sales": 9477,
      "▁suture": 9478,
      "▁snow": 9479,
      "▁swat": 9480,
      "▁sandy": 9481,
      "▁sidel": 9482,
      "▁sought": 9483,
      "▁saut": 9484,
      "▁skilled": 9485,
      "▁slid": 9486,
      "▁swif": 9487,
      "▁sanct": 9488,
      "▁पों": 9489,
      "▁पोर्ट": 9490,
      "▁हड़": 9491,
      "or,": 9492,
      "oration": 9493,
      "orad": 9494,
      "orism": 9495,
      "orally": 9496,
      "oration,": 9497,
      "oriz": 9498,
      "oramic": 9499,
      "orne": 9500,
      "orship": 9501,
      "orities": 9502,
      "orarji": 9503,
      "▁ban": 9504,
      "▁bes": 9505,
      "▁bur": 9506,
      "▁big": 9507,
      "▁bak": 9508,
      "▁bust": 9509,
      "▁blo": 9510,
      "▁blowing": 9511,
      "▁bird": 9512,
      "▁bann": 9513,
      "▁bitter": 9514,
      "▁pou": 9515,
      "▁pac": 9516,
      "▁pay": 9517,
      "▁pill": 9518,
      "▁pav": 9519,
      "▁pree": 9520,
      "▁pron": 9521,
      "▁panc": 9522,
      "▁pool": 9523,
      "▁pants": 9524,
      "▁phan": 9525,
      "▁pett": 9526,
      "▁poss": 9527,
      "▁pran": 9528,
      "▁pants,": 9529,
      "▁post-": 9530,
      "▁paid": 9531,
      "▁piec": 9532,
      "▁poet": 9533,
      "▁prince": 9534,
      "▁pyjam": 9535,
      "ioned": 9536,
      "ions.": 9537,
      "ionals,": 9538,
      "es\"": 9539,
      "es;": 9540,
      "esi": 9541,
      "esans": 9542,
      "esert": 9543,
      "eserv": 9544,
      "▁ming": 9545,
      "▁ment": 9546,
      "▁mist": 9547,
      "▁met": 9548,
      "▁mang": 9549,
      "▁mart": 9550,
      "▁mud": 9551,
      "▁mel": 9552,
      "▁mant": 9553,
      "▁map": 9554,
      "▁mass": 9555,
      "▁must": 9556,
      "▁might": 9557,
      "▁miss": 9558,
      "▁myth": 9559,
      "▁mrid": 9560,
      "▁myst": 9561,
      "▁medals": 9562,
      "▁morally": 9563,
      "▁भगत": 9564,
      "▁ful": 9565,
      "▁fle": 9566,
      "▁fun": 9567,
      "▁fart": 9568,
      "▁fel": 9569,
      "▁foc": 9570,
      "▁foun": 9571,
      "▁fend": 9572,
      "▁few": 9573,
      "▁fine": 9574,
      "▁free": 9575,
      "▁fell": 9576,
      "▁flowing": 9577,
      "▁fru": 9578,
      "▁fix": 9579,
      "▁foss": 9580,
      "▁future": 9581,
      "▁filled": 9582,
      "▁fables,": 9583,
      "▁faith": 9584,
      "▁fie": 9585,
      "▁fought": 9586,
      "▁freed": 9587,
      "ics,": 9588,
      "icus": 9589,
      "iction": 9590,
      "icide": 9591,
      "icially": 9592,
      "iches": 9593,
      "ickable": 9594,
      "▁పది": 9595,
      "▁పర్": 9596,
      "▁పచ్చ": 9597,
      "▁పడు": 9598,
      "▁పవర్": 9599,
[...]
