{
  "version": "1.0",
  "truncation": null,
  "padding": null,
  "added_tokens": [
    {
      "id": 0,
      "content": "[UNK]",
      "single_word": false,
      "lstrip": false,
      "rstrip": false,
      "normalized": false,
      "special": true
    }
  ],
  "normalizer": {
    "type": "NFKC"
  },
  "pre_tokenizer": {
    "type": "Sequence",
    "pretokenizers": [
      {
        "type": "Whitespace"
      },
      {
        "type": "Punctuation",
        "behavior": "Isolated"
      },
      {
        "type": "Split",
        "pattern": {
          "Regex": "\\d{1,3}"
        },
        "behavior": "Isolated",
        "invert": false
      }
    ]
  },
  "post_processor": null,
  "decoder": {
    "type": "Metaspace",
    "replacement": " ",
    "prepend_scheme": "always",
    "split": true
  },
  "model": {
    "type": "BPE",
    "dropout": null,
    "unk_token": "[UNK]",
    "continuing_subword_prefix": null,
    "end_of_word_suffix": null,
    "fuse_unk": false,
    "byte_fallback": false,
    "ignore_merges": false,
    "vocab": {
      "[UNK]": 0,
      "\"": 1,
      "$": 2,
      "%": 3,
      "&": 4,
      "'": 5,
      "(": 6,
      ")": 7,
      "+": 8,
      ",": 9,
      "-": 10,
      ".": 11,
      "/": 12,
      "0": 13,
      "1": 14,
      "2": 15,
      "3": 16,
      "4": 17,
      "5": 18,
      "6": 19,
      "7": 20,
      "8": 21,
      "9": 22,
      ":": 23,
      ";": 24,
      "=": 25,
      "?": 26,
      "A": 27,
      "B": 28,
      "C": 29,
      "D": 30,
      "E": 31,
      "F": 32,
      "G": 33,
      "H": 34,
      "I": 35,
      "J": 36,
      "K": 37,
      "L": 38,
      "M": 39,
      "N": 40,
      "O": 41,
      "P": 42,
      "Q": 43,
      "R": 44,
      "S": 45,
      "T": 46,
      "U": 47,
      "V": 48,
      "W": 49,
      "Y": 50,
      "Z": 51,
      "[": 52,
      "]": 53,
      "^": 54,
      "a": 55,
      "b": 56,
      "c": 57,
      "d": 58,
      "e": 59,
      "f": 60,
      "g": 61,
      "h": 62,
      "i": 63,
      "j": 64,
      "k": 65,
      "l": 66,
      "m": 67,
      "n": 68,
      "o": 69,
      "p": 70,
      "q": 71,
      "r": 72,
      "s": 73,
      "t": 74,
      "u": 75,
      "v": 76,
      "w": 77,
      "x": 78,
      "y": 79,
      "z": 80,
      "|": 81,
      "°": 82,
      "Ö": 83,
      "á": 84,
      "â": 85,
      "í": 86,
      "ā": 87,
      "ī": 88,
      "Ś": 89,
      "ū": 90,
      "ə": 91,
      "ɦ": 92,
      "ɪ": 93,
      "ɾ": 94,
      "ʊ": 95,
      "ˈ": 96,
      "ː": 97,
      "Ι": 98,
      "ί": 99,
      "α": 100,
      "δ": 101,
      "ν": 102,
      "ο": 103,
      "ς": 104,
      "ό": 105,
      "ँ": 106,
      "ं": 107,
      "ः": 108,
      "अ": 109,
      "आ": 110,
      "इ": 111,
      "ई": 112,
      "उ": 113,
      "ऊ": 114,
      "ऋ": 115,
      "ऍ": 116,
      "ए": 117,
      "ऐ": 118,
      "ऑ": 119,
      "ओ": 120,
      "औ": 121,
      "क": 122,
      "ख": 123,
      "ग": 124,
      "घ": 125,
      "च": 126,
      "छ": 127,
      "ज": 128,
      "झ": 129,
      "ञ": 130,
      "ट": 131,
      "ठ": 132,
      "ड": 133,
      "ढ": 134,
      "ण": 135,
      "त": 136,
      "थ": 137,
      "द": 138,
      "ध": 139,
      "न": 140,
      "प": 141,
      "फ": 142,
      "ब": 143,
      "भ": 144,
      "म": 145,
      "य": 146,
      "र": 147,
      "ल": 148,
      "व": 149,
      "श": 150,
      "ष": 151,
      "स": 152,
      "ह": 153,
      "़": 154,
      "ऽ": 155,
      "ा": 156,
      "ि": 157,
      "ी": 158,
      "ु": 159,
      "ू": 160,
      "ृ": 161,
      "े": 162,
      "ै": 163,
      "ॉ": 164,
      "ो": 165,
      "ौ": 166,
      "्": 167,
      "।": 168,
      "०": 169,
      "१": 170,
      "२": 171,
      "३": 172,
      "४": 173,
      "५": 174,
      "६": 175,
      "७": 176,
      "८": 177,
      "९": 178,
      "॰": 179,
      "ం": 180,
      "ః": 181,
      "అ": 182,
      "ఆ": 183,
      "ఇ": 184,
      "ఈ": 185,
      "ఉ": 186,
      "ఋ": 187,
      "ఎ": 188,
      "ఏ": 189,
      "ఐ": 190,
      "ఒ": 191,
      "ఓ": 192,
      "ఔ": 193,
      "క": 194,
      "ఖ": 195,
      "గ": 196,
      "ఘ": 197,
      "చ": 198,
      "ఛ": 199,
      "జ": 200,
      "ఞ": 201,
      "ట": 202,
      "ఠ": 203,
      "డ": 204,
      "ఢ": 205,
      "ణ": 206,
      "త": 207,
      "థ": 208,
      "ద": 209,
      "ధ": 210,
      "న": 211,
      "ప": 212,
      "ఫ": 213,
      "బ": 214,
      "భ": 215,
      "మ": 216,
      "య": 217,
      "ర": 218,
      "ల": 219,
      "ళ": 220,
      "వ": 221,
      "శ": 222,
      "ష": 223,
      "స": 224,
      "హ": 225,
      "ా": 226,
      "ి": 227,
      "ీ": 228,
      "ు": 229,
      "ూ": 230,
      "ృ": 231,
      "ె": 232,
      "ే": 233,
      "ై": 234,
      "ొ": 235,
      "ో": 236,
      "ౌ": 237,
      "్": 238,
      "ṅ": 239,
      "ṇ": 240,
      "ṣ": 241,
      "ṭ": 242,
      "Ἰ": 243,
      "–": 244,
      "—": 245,
      "‘": 246,
      "’": 247,
      "†": 248,
      "′": 249,
      "₹": 250,
      "th": 251,
      "an": 252,
      "in": 253,
      "the": 254,
      "er": 255,
      "on": 256,
      "ar": 257,
      "के": 258,
      "al": 259,
      "en": 260,
      "es": 261,
      "di": 262,
      "at": 263,
      "ार": 264,
      "ed": 265,
      "or": 266,
      "and": 267,
      "as": 268,
      "In": 269,
      "of": 270,
      "ें": 271,
      "्र": 272,
      "is": 273,
      "में": 274,
      "Indi": 275,
      "ion": 276,
      "re": 277,
      "it": 278,
      "ic": 279,
      "్ర": 280,
      "ing": 281,
      "ార": 282,
      "्य": 283,
      "to": 284,
      "ent": 285,
      "India": 286,
      "om": 287,
      "भार": 288,
      "ాల": 289,
      "भारत": 290,
      "ur": 291,
      "st": 292,
      "स्": 293,
      "र्": 294,
      "का": 295,
      "है": 296,
      "से": 297,
      "le": 298,
      "ान": 299,
      "ou": 300,
      "ly": 301,
      "ec": 302,
      "లో": 303,
      "స్": 304,
      "रा": 305,
      "il": 306,
      "िय": 307,
      "am": 308,
      "िक": 309,
      "్య": 310,
      "Th": 311,
      "प्र": 312,
      "ad": 313,
      "19": 314,
      "ter": 315,
      "ों": 316,
      "ाल": 317,
      "న్": 318,
      "क्": 319,
      "ol": 320,
      "ది": 321,
      "ना": 322,
      "దే": 323,
      "ప్ర": 324,
      "ri": 325,
      "లు": 326,
      "ch": 327,
      "ver": 328,
      "దేశ": 329,
      "की": 330,
      "The": 331,
      "ర్": 332,
      "ిం": 333,
      "20": 334,
      "और": 335,
      "सा": 336,
      "em": 337,
      "li": 338,
      "ul": 339,
      "ిక": 340,
      "ation": 341,
      "భార": 342,
      "భారత": 343,
      "बा": 344,
      "पर": 345,
      "ra": 346,
      "for": 347,
      "ro": 348,
      "ीय": 349,
      "सं": 350,
      "ता": 351,
      "న్న": 352,
      "ने": 353,
      "ce": 354,
      "ాలు": 355,
      "be": 356,
      "ut": 357,
      "ve": 358,
      "se": 359,
      "Indian": 360,
      "ag": 361,
      "by": 362,
      "est": 363,
      "ति": 364,
      "lo": 365,
      "वि": 366,
      "कर": 367,
      "con": 368,
      "ला": 369,
      "గా": 370,
      "us": 371,
      "wi": 372,
      "ड़": 373,
      "िया": 374,
      "un": 375,
      "ir": 376,
      "न्": 377,
      "त्र": 378,
      "ct": 379,
      "de": 380,
      "gh": 381,
      "ast": 382,
      "था": 383,
      "ist": 384,
      "भा": 385,
      "ang": 386,
      "दे": 387,
      "क्ष": 388,
      "ate": 389,
      "im": 390,
      "हि": 391,
      "wh": 392,
      "కు": 393,
      "ని": 394,
      "వి": 395,
      "राज": 396,
      "with": 397,
      "క్": 398,
      "su": 399,
      "rom": 400,
      "ాయ": 401,
      "was": 402,
      "त्": 403,
      "मा": 404,
      "जा": 405,
      "हा": 406,
      "ex": 407,
      "00": 408,
      "ాత": 409,
      "ab": 410,
      "ain": 411,
      "du": 412,
      "si": 413,
      "कार": 414,
      "ాన": 415,
      "ies": 416,
      "ong": 417,
      "et": 418,
      "po": 419,
      "res": 420,
      "దేశం": 421,
      "ित": 422,
      "हो": 423,
      "der": 424,
      "ment": 425,
      "हु": 426,
      "ay": 427,
      "को": 428,
      "రా": 429,
      "art": 430,
      "from": 431,
      "్ట": 432,
      "द्": 433,
      "ద్": 434,
      "ను": 435,
      "ical": 436,
      "दी": 437,
      "तर": 438,
      "wer": 439,
      "हैं": 440,
      "over": 441,
      "ंग": 442,
      "ak": 443,
      "has": 444,
      "mo": 445,
      "ము": 446,
      "्या": 447,
      "सम": 448,
      "भारतीय": 449,
      "ండ": 450,
      "ల్": 451,
      "are": 452,
      "ich": 453,
      "ill": 454,
      "ले": 455,
      "कि": 456,
      "या": 457,
      "ిన": 458,
      "ీయ": 459,
      "ोग": 460,
      "ial": 461,
      "per": 462,
      "త్": 463,
      "्ट": 464,
      "co": 465,
      "ear": 466,
      "స్త": 467,
      "मि": 468,
      "भी": 469,
      "sh": 470,
      "తి": 471,
      "वा": 472,
      "201": 473,
      "ती": 474,
      "ించ": 475,
      "which": 476,
      "so": 477,
      "ld": 478,
      "पा": 479,
      "नि": 480,
      "com": 481,
      "ts": 482,
      "ంది": 483,
      "um": 484,
      "cent": 485,
      "id": 486,
      "రి": 487,
      "ions": 488,
      "रू": 489,
      "शा": 490,
      "rit": 491,
      "ity": 492,
      "ult": 493,
      "ap": 494,
      "cl": 495,
      "ంత": 496,
      "oun": 497,
      "देश": 498,
      "एक": 499,
      "इल": 500,
      "राज्य": 501,
      "ac": 502,
      "sp": 503,
      "we": 504,
      "पू": 505,
      "मु": 506,
      "me": 507,
      "wor": 508,
      "సం": 509,
      "ther": 510,
      "స్థ": 511,
      "cont": 512,
      "री": 513,
      "lar": 514,
      "its": 515,
      "बि": 516,
      "పు": 517,
      "రు": 518,
      "ure": 519,
      "मान": 520,
      "hi": 521,
      "pl": 522,
      "ली": 523,
      "ులు": 524,
      "pro": 525,
      "ud": 526,
      "ary": 527,
      "ते": 528,
      "ig": 529,
      "ive": 530,
      "టి": 531,
      "ans": 532,
      "ंद": 533,
      "सी": 534,
      "ाला": 535,
      "Ch": 536,
      "por": 537,
      "नी": 538,
      "ంలో": 539,
      "end": 540,
      "ish": 541,
      "ింది": 542,
      "ాయి": 543,
      "larg": 544,
      "वी": 545,
      "ru": 546,
      "वर्": 547,
      "tern": 548,
      "భారతదేశం": 549,
      "form": 550,
      "were": 551,
      "gen": 552,
      "no": 553,
      "od": 554,
      "ated": 555,
      "iv": 556,
      "जन": 557,
      "टे": 558,
      "ष्ट": 559,
      "जि": 560,
      "భా": 561,
      "ass": 562,
      "econ": 563,
      "रूप": 564,
      "स्त": 565,
      "Hin": 566,
      "af": 567,
      "ంగ": 568,
      "ంగా": 569,
      "ైన": 570,
      "ant": 571,
      "श्": 572,
      "CE": 573,
      "ry": 574,
      "सभ": 575,
      "200": 576,
      "उत्": 577,
      "av": 578,
      "ma": 579,
      "ధిక": 580,
      "age": 581,
      "तथा": 582,
      "up": 583,
      "जी": 584,
      "पु": 585,
      "ber": 586,
      "el": 587,
      "min": 588,
      "mar": 589,
      "part": 590,
      "ఉన్న": 591,
      "ూడ": 592,
      "ism": 593,
      "uring": 594,
      "ंत्र": 595,
      "षा": 596,
      "सर": 597,
      "सि": 598,
      "ిత": 599,
      "ance": 600,
      "all": 601,
      "outh": 602,
      "ame": 603,
      "low": 604,
      "रह": 605,
      "अन": 606,
      "pe": 607,
      "tion": 608,
      "ंध": 609,
      "వా": 610,
      "సా": 611,
      "ారు": 612,
      "ough": 613,
      "overn": 614,
      "वे": 615,
      "तक": 616,
      "cre": 617,
      "og": 618,
      "ple": 619,
      "ची": 620,
      "ంట": 621,
      "పా": 622,
      "any": 623,
      "reg": 624,
      "ous": 625,
      "క్ష": 626,
      "centur": 627,
      "पूर्": 628,
      "धान": 629,
      "ष्ट्र": 630,
      "साथ": 631,
      "bec": 632,
      "ార్": 633,
      "angu": 634,
      "शास": 635,
      "्रा": 636,
      "बाद": 637,
      "इस": 638,
      "but": 639,
      "mill": 640,
      "nor": 641,
      "ally": 642,
      "overnment": 643,
      "लोग": 644,
      "bo": 645,
      "क्षे": 646,
      "लि": 647,
      "्रे": 648,
      "स्व": 649,
      "मुख": 650,
      "fir": 651,
      "ha": 652,
      "ine": 653,
      "into": 654,
      "ates": 655,
      "econom": 656,
      "प्": 657,
      "कृ": 658,
      "बहु": 659,
      "मी": 660,
      "र्म": 661,
      "ंड": 662,
      "ढ़": 663,
      "धिक": 664,
      "भाषा": 665,
      "langu": 666,
      "pul": 667,
      "वार": 668,
      "్చ": 669,
      "stit": 670,
      "ही": 671,
      "मिल": 672,
      "सब": 673,
      "क्षेत्र": 674,
      "fe": 675,
      "lat": 676,
      "uc": 677,
      "ష్ట": 678,
      "स्थ": 679,
      "र्थ": 680,
      "world": 681,
      "Hindu": 682,
      "सरकार": 683,
      "199": 684,
      "during": 685,
      "oc": 686,
      "year": 687,
      "िण": 688,
      "కో": 689,
      "దు": 690,
      "నే": 691,
      "వ్య": 692,
      "ore": 693,
      "ect": 694,
      "राष्ट्र": 695,
      "ప్రా": 696,
      "sub": 697,
      "ress": 698,
      "రాజ": 699,
      "first": 700,
      "खा": 701,
      "रु": 702,
      "स्था": 703,
      "सबसे": 704,
      "गो": 705,
      "बी": 706,
      "195": 707,
      "खे": 708,
      "किया": 709,
      "दि": 710,
      "Ind": 711,
      "द्ध": 712,
      "Asi": 713,
      "ces": 714,
      "pt": 715,
      "ంచ": 716,
      "కా": 717,
      "క్ర": 718,
      "కూడ": 719,
      "జాత": 720,
      "్ల": 721,
      "eral": 722,
      "196": 723,
      "lig": 724,
      "ational": 725,
      "ution": 726,
      "यु": 727,
      "रे": 728,
      "प्रा": 729,
      "कु": 730,
      "dec": 731,
      "government": 732,
      "land": 733,
      "pri": 734,
      "qu": 735,
      "ట్ట": 736,
      "తర": 737,
      "నా": 738,
      "సి": 739,
      "incl": 740,
      "ence": 741,
      "lect": 742,
      "popul": 743,
      "ద్ధ": 744,
      "port": 745,
      "after": 746,
      "१९": 747,
      "ल्": 748,
      "दा": 749,
      "दक्ष": 750,
      "202": 751,
      "न्द": 752,
      "दक्षिण": 753,
      "ci": 754,
      "ire": 755,
      "ric": 756,
      "sy": 757,
      "ved": 758,
      "చ్చ": 759,
      "పే": 760,
      "మొ": 761,
      "ister": 762,
      "భారతీయ": 763,
      "century": 764,
      "ड़ी": 765,
      "ंग्रे": 766,
      "उत्तर": 767,
      "लो": 768,
      "dh": 769,
      "ew": 770,
      "har": 771,
      "tra": 772,
      "మా": 773,
      "లి": 774,
      "eng": 775,
      "భారతదేశ": 776,
      "ages": 777,
      "largest": 778,
      "धर्म": 779,
      "सद": 780,
      "ers": 781,
      "लग": 782,
      "ड़ा": 783,
      "जे": 784,
      "सु": 785,
      "स्कृ": 786,
      "gan": 787,
      "had": 788,
      "ta": 789,
      "vi": 790,
      "గు": 791,
      "చే": 792,
      "ద్ర": 793,
      "రై": 794,
      "వే": 795,
      "row": 796,
      "dern": 797,
      "రాష్ట": 798,
      "త్వ": 799,
      "ound": 800,
      "stitution": 801,
      "రాష్ట్ర": 802,
      "यह": 803,
      "शासन": 804,
      "सार": 805,
      "ral": 806,
      "ub": 807,
      "ok": 808,
      "194": 809,
      "ाली": 810,
      "18": 811,
      "आध": 812,
      "म्": 813,
      "South": 814,
      "ach": 815,
      "elect": 816,
      "her": 817,
      "jor": 818,
      "long": 819,
      "mp": 820,
      "ni": 821,
      "par": 822,
      "pol": 823,
      "rad": 824,
      "tw": 825,
      "తో": 826,
      "వాత": 827,
      "also": 828,
      "estern": 829,
      "atic": 830,
      "stem": 831,
      "काल": 832,
      "ికి": 833,
      "bet": 834,
      "been": 835,
      "used": 836,
      "comm": 837,
      "ount": 838,
      "became": 839,
      "वारा": 840,
      "జాతీయ": 841,
      "system": 842,
      "ाने": 843,
      "पार": 844,
      "महा": 845,
      "ंद्र": 846,
      "बाटे": 847,
      "ब्": 848,
      "चु": 849,
      "17": 850,
      "cor": 851,
      "cial": 852,
      "more": 853,
      "sc": 854,
      "ser": 855,
      "war": 856,
      "ओं": 857,
      "అధిక": 858,
      "కే": 859,
      "ఖ్య": 860,
      "డు": 861,
      "తం": 862,
      "పాల": 863,
      "యా": 864,
      "వచ్చ": 865,
      "inf": 866,
      "them": 867,
      "ased": 868,
      "relig": 869,
      "ome": 870,
      "imal": 871,
      "ండి": 872,
      "ల్ల": 873,
      "class": 874,
      "thern": 875,
      "contin": 876,
      "minister": 877,
      "million": 878,
      "years": 879,
      "వ్యవ": 880,
      "जो": 881,
      "बंध": 882,
      "अप": 883,
      "च्": 884,
      "त्य": 885,
      "कई": 886,
      "द्वारा": 887,
      "जिस": 888,
      "चीन": 889,
      "उप": 890,
      "हर": 891,
      "An": 892,
      "Cong": 893,
      "ban": 894,
      "cast": 895,
      "fic": 896,
      "he": 897,
      "num": 898,
      "wn": 899,
      "ఉంది": 900,
      "కొ": 901,
      "కార": 902,
      "డి": 903,
      "ణా": 904,
      "ధ్య": 905,
      "మైన": 906,
      "incre": 907,
      "ari": 908,
      "ural": 909,
      "197": 910,
      "lim": 911,
      "such": 912,
      "ext": 913,
      "000": 914,
      "most": 915,
      "ంత్ర": 916,
      "major": 917,
      "रहल": 918,
      "have": 919,
      "Congress": 920,
      "साम": 921,
      "करे": 922,
      "समय": 923,
      "पूर्व": 924,
      "गया": 925,
      "ध्य": 926,
      "स्ट": 927,
      "BCE": 928,
      "वर्ष": 929,
      "संस्कृ": 930,
      "अनु": 931,
      "Bud": 932,
      "ced": 933,
      "grow": 934,
      "main": 935,
      "ph": 936,
      "गु": 937,
      "बढ़": 938,
      "ैद": 939,
      "ोल": 940,
      "కాల": 941,
      "టు": 942,
      "పంచ": 943,
      "మార్": 944,
      "ాబ": 945,
      "that": 946,
      "their": 947,
      "dition": 948,
      "lear": 949,
      "out": 950,
      "vers": 951,
      "ght": 952,
      "माण": 953,
      "modern": 954,
      "ulture": 955,
      "ween": 956,
      "श्व": 957,
      "ఉన్నాయి": 958,
      "region": 959,
      "Asia": 960,
      "prime": 961,
      "two": 962,
      "వ్యవస్థ": 963,
      "lic": 964,
      "त्व": 965,
      "गइल": 966,
      "विश्व": 967,
      "क्र": 968,
      "चल": 969,
      "दो": 970,
      "शिया": 971,
      "िम": 972,
      "िका": 973,
      "टी": 974,
      "वन": 975,
      "ालय": 976,
      "26": 977,
      "Af": 978,
      "Ma": 979,
      "ca": 980,
      "dance": 981,
      "gre": 982,
      "our": 983,
      "pre": 984,
      "पी": 985,
      "చె": 986,
      "తు": 987,
      "త్య": 988,
      "పార": 989,
      "శా": 990,
      "ures": 991,
      "amil": 992,
      "దేశాల": 993,
      "ర్వ": 994,
      "ింద": 995,
      "anges": 996,
      "who": 997,
      "निर्": 998,
      "large": 999,
      "not": 1000,
      "both": 1001,
      "ंप": 1002,
      "गी": 1003,
      "तिक": 1004,
      "वाला": 1005,
      "ep": 1006,
      "मंत्र": 1007,
      "act": 1008,
      "संघ": 1009,
      "माज": 1010,
      "ोड़": 1011,
      "थी": 1012,
      "साल": 1013,
      "नाव": 1014,
      "Emp": 1015,
      "Un": 1016,
      "ai": 1017,
      "ef": 1018,
      "hm": 1019,
      "kh": 1020,
      "led": 1021,
      "red": 1022,
      "ris": 1023,
      "rough": 1024,
      "ss": 1025,
      "अधिक": 1026,
      "भू": 1027,
      "ంబ": 1028,
      "ఎన్న": 1029,
      "ఒక": 1030,
      "కి": 1031,
      "డ్": 1032,
      "ధాన": 1033,
      "పె": 1034,
      "ాన్": 1035,
      "though": 1036,
      "ince": 1037,
      "one": 1038,
      "केंद्र": 1039,
      "ory": 1040,
      "isation": 1041,
      "ree": 1042,
      "्यव": 1043,
      "urban": 1044,
      "leg": 1045,
      "లోని": 1046,
      "olog": 1047,
      "life": 1048,
      "న్ని": 1049,
      "under": 1050,
      "istan": 1051,
      "स्तान": 1052,
      "language": 1053,
      "includ": 1054,
      "population": 1055,
      "between": 1056,
      "caste": 1057,
      "number": 1058,
      "गर": 1059,
      "धी": 1060,
      "15": 1061,
      "तु": 1062,
      "हन": 1063,
      "प्रमुख": 1064,
      "ियों": 1065,
      "बर": 1066,
      "भइल": 1067,
      "प्त": 1068,
      "बहुत": 1069,
      "हाँ": 1070,
      "Brit": 1071,
      "Con": 1072,
      "aj": 1073,
      "aw": 1074,
      "fol": 1075,
      "ll": 1076,
      "lu": 1077,
      "lit": 1078,
      "mil": 1079,
      "mus": 1080,
      "many": 1081,
      "te": 1082,
      "ty": 1083,
      "western": 1084,
      "अंग्रे": 1085,
      "ज्य": 1086,
      "ట్": 1087,
      "పర": 1088,
      "మే": 1089,
      "మధ్య": 1090,
      "ిన్న": 1091,
      "ెండ": 1092,
      "this": 1093,
      "ics": 1094,
      "ament": 1095,
      "ప్రపంచ": 1096,
      "emp": 1097,
      "ement": 1098,
      "ations": 1099,
      "began": 1100,
      "velo": 1101,
      "sup": 1102,
      "able": 1103,
      "ానికి": 1104,
      "ద్ద": 1105,
      "peri": 1106,
      "స్థాన": 1107,
      "rule": 1108,
      "uclear": 1109,
      "continent": 1110,
      "Buddh": 1111,
      "మార్గ": 1112,
      "Empire": 1113,
      "British": 1114,
      "नाम": 1115,
      "निक": 1116,
      "ारी": 1117,
      "लोक": 1118,
      "्यवस्था": 1119,
      "late": 1120,
      "सू": 1121,
      "ublic": 1122,
      "मध्य": 1123,
      "एशिया": 1124,
      "तंत्र": 1125,
      "बन": 1126,
      "क्त": 1127,
      "द्य": 1128,
      "प्रदेश": 1129,
      "अन्य": 1130,
      "ज़": 1131,
      "21": 1132,
      "Com": 1133,
      "Eur": 1134,
      "It": 1135,
      "Pak": 1136,
      "cy": 1137,
      "count": 1138,
      "ding": 1139,
      "fer": 1140,
      "gar": 1141,
      "io": 1142,
      "ket": 1143,
      "les": 1144,
      "rate": 1145,
      "south": 1146,
      "కృ": 1147,
      "త్ర": 1148,
      "దా": 1149,
      "పరి": 1150,
      "మీ": 1151,
      "వర": 1152,
      "వర్": 1153,
      "సు": 1154,
      "హింద": 1155,
      "than": 1156,
      "ere": 1157,
      "erg": 1158,
      "als": 1159,
      "ens": 1160,
      "ited": 1161,
      "ition": 1162,
      "omin": 1163,
      "among": 1164,
      "ade": 1165,
      "ప్రధాన": 1166,
      "ular": 1167,
      "set": 1168,
      "exp": 1169,
      "ically": 1170,
      "ially": 1171,
      "స్తు": 1172,
      "work": 1173,
      "lowing": 1174,
      "north": 1175,
      "northern": 1176,
      "economic": 1177,
      "later": 1178,
      "ప్రాంత": 1179,
      "కూడా": 1180,
      "పేరు": 1181,
      "మొద": 1182,
      "అధికార": 1183,
      "influ": 1184,
      "velop": 1185,
      "Pakistan": 1186,
      "198": 1187,
      "कारण": 1188,
      "वीं": 1189,
      "दिया": 1190,
      "हवे": 1191,
      "र्व": 1192,
      "न्दी": 1193,
      "हिन्दी": 1194,
      "जाता": 1195,
      "चा": 1196,
      "शन": 1197,
      "दु": 1198,
      "ेर": 1199,
      "दू": 1200,
      "ष्": 1201,
      "न्न": 1202,
      "मैद": 1203,
      "मैदान": 1204,
      "Beng": 1205,
      "Mo": 1206,
      "Mu": 1207,
      "ds": 1208,
      "ft": 1209,
      "krit": 1210,
      "lish": 1211,
      "mer": 1212,
      "other": 1213,
      "since": 1214,
      "tim": 1215,
      "ya": 1216,
      "रो": 1217,
      "वं": 1218,
      "ఆర్": 1219,
      "కర": 1220,
      "దాయ": 1221,
      "దక్ష": 1222,
      "నాలు": 1223,
      "మత": 1224,
      "లం": 1225,
      "ana": 1226,
      "ani": 1227,
      "ins": 1228,
      "arn": 1229,
      "esh": 1230,
      "ప్రజ": 1231,
      "raph": 1232,
      "develop": 1233,
      "ghal": 1234,
      "power": 1235,
      "हुआ": 1236,
      "spec": 1237,
      "high": 1238,
      "ign": 1239,
      "Chin": 1240,
      "భాష": 1241,
      "peo": 1242,
      "economy": 1243,
      "languages": 1244,
      "రాజ్య": 1245,
      "క్రీ": 1246,
      "tradition": 1247,
      "రైలు": 1248,
      "classical": 1249,
      "versity": 1250,
      "liter": 1251,
      "music": 1252,
      "period": 1253,
      "Bengal": 1254,
      "ाना": 1255,
      "ियन": 1256,
      "प्राचीन": 1257,
      "मो": 1258,
      "पुर": 1259,
      "ian": 1260,
      "दक्": 1261,
      "यू": 1262,
      "िन": 1263,
      "हिस्": 1264,
      "बीच": 1265,
      "US": 1266,
      "इंड": 1267,
      "कइल": 1268,
      "हल": 1269,
      "परंप": 1270,
      "राज्यों": 1271,
      "सभसे": 1272,
      "परंपरा": 1273,
      "न्या": 1274,
      "बना": 1275,
      "जाति": 1276,
      "मू": 1277,
      "तिर": 1278,
      "श्च": 1279,
      "हीं": 1280,
      "By": 1281,
      "Del": 1282,
      "Himal": 1283,
      "Is": 1284,
      "Pun": 1285,
      "Si": 1286,
      "Sans": 1287,
      "Tamil": 1288,
      "gr": 1289,
      "ho": 1290,
      "hist": 1291,
      "hum": 1292,
      "jab": 1293,
      "mid": 1294,
      "non": 1295,
      "new": 1296,
      "os": 1297,
      "pany": 1298,
      "tal": 1299,
      "ten": 1300,
      "ting": 1301,
      "tec": 1302,
      "vement": 1303,
      "west": 1304,
      "जाला": 1305,
      "ంద్ర": 1306,
      "అయ": 1307,
      "జనా": 1308,
      "పూ": 1309,
      "ప్": 1310,
      "బా": 1311,
      "వె": 1312,
      "వార": 1313,
      "శ్ర": 1314,
      "సభ": 1315,
      "there": 1316,
      "ese": 1317,
      "ised": 1318,
      "ite": 1319,
      "itary": 1320,
      "sty": 1321,
      "old": 1322,
      "fore": 1323,
      "ately": 1324,
      "క్కు": 1325,
      "ాత్ర": 1326,
      "pos": 1327,
      "్టీ": 1328,
      "cour": 1329,
      "social": 1330,
      "ultan": 1331,
      "భారతదేశంలో": 1332,
      "subcontinent": 1333,
      "increased": 1334,
      "After": 1335,
      "పార్టీ": 1336,
      "including": 1337,
      "Mughal": 1338,
      "దక్షి": 1339,
      "people": 1340,
      "Himalay": 1341,
      "Punjab": 1342,
      "Sanskrit": 1343,
      "40": 1344,
      "बड़": 1345,
      "मन": 1346,
      "योग": 1347,
      "ैन": 1348,
      "हुई": 1349,
      "ंगा": 1350,
      "प्रति": 1351,
      "्राज्य": 1352,
      "कुछ": 1353,
      "साम्राज्य": 1354,
      "द्योग": 1355,
      "10": 1356,
      "ust": 1357,
      "खेल": 1358,
      "आर्थ": 1359,
      "गण": 1360,
      "Indus": 1361,
      "आर्थिक": 1362,
      "इला": 1363,
      "मुख्य": 1364,
      "mon": 1365,
      "००": 1366,
      "राष्ट्रीय": 1367,
      "आधार": 1368,
      "अनुसार": 1369,
      "मंत्री": 1370,
      "30": 1371,
      "अर्थ": 1372,
      "गा": 1373,
      "Mus": 1374,
      "St": 1375,
      "ath": 1376,
      "bal": 1377,
      "ck": 1378,
      "cal": 1379,
      "ned": 1380,
      "nuclear": 1381,
      "pres": 1382,
      "ron": 1383,
      "ren": 1384,
      "sur": 1385,
      "ti": 1386,
      "ually": 1387,
      "पै": 1388,
      "पश्च": 1389,
      "मत": 1390,
      "ఉత్": 1391,
      "తా": 1392,
      "భు": 1393,
      "మి": 1394,
      "రో": 1395,
      "రెండ": 1396,
      "లా": 1397,
      "ష్": 1398,
      "arm": 1399,
      "enni": 1400,
      "diversity": 1401,
      "ities": 1402,
      "ాల్": 1403,
      "state": 1404,
      "lead": 1405,
      "िये": 1406,
      "్యం": 1407,
      "ప్రభు": 1408,
      "river": 1409,
      "ribut": 1410,
      "liament": 1411,
      "constitution": 1412,
      "ird": 1413,
      "ains": 1414,
      "ముఖ్య": 1415,
      "ించింది": 1416,
      "app": 1417,
      "ack": 1418,
      "produ": 1419,
      "general": 1420,
      "millenni": 1421,
      "occ": 1422,
      "खातिर": 1423,
      "cient": 1424,
      "parliament": 1425,
      "కేంద్ర": 1426,
      "పెద్ద": 1427,
      "హిందూ": 1428,
      "species": 1429,
      "दक्ख": 1430,
      "Delhi": 1431,
      "millennium": 1432,
      "कार्य": 1433,
      "16": 1434,
      "ईसा": 1435,
      "दल": 1436,
      "ार्": 1437,
      "्री": 1438,
      "Plate": 1439,
      "ख्या": 1440,
      "लिए": 1441,
      "स्वतंत्र": 1442,
      "स्थान": 1443,
      "Indo": 1444,
      "Wor": 1445,
      "टि": 1446,
      "बे": 1447,
      "देशों": 1448,
      "च्छ": 1449,
      "World": 1450,
      "अर": 1451,
      "विधान": 1452,
      "चुनाव": 1453,
      "हिस्सा": 1454,
      "दश": 1455,
      "क्ति": 1456,
      "जिन": 1457,
      "Cent": 1458,
      "En": 1459,
      "East": 1460,
      "Ganges": 1461,
      "National": 1462,
      "au": 1463,
      "bar": 1464,
      "bill": 1465,
      "col": 1466,
      "ded": 1467,
      "ei": 1468,
      "ev": 1469,
      "edi": 1470,
      "eas": 1471,
      "fin": 1472,
      "ga": 1473,
      "ke": 1474,
      "king": 1475,
      "ope": 1476,
      "pan": 1477,
      "pen": 1478,
      "pur": 1479,
      "prom": 1480,
      "public": 1481,
      "rol": 1482,
      "sch": 1483,
      "tr": 1484,
      "ted": 1485,
      "ude": 1486,
      "अम": 1487,
      "अन्": 1488,
      "इन": 1489,
      "रि": 1490,
      "అత్య": 1491,
      "ఇది": 1492,
      "ఇతర": 1493,
      "గర": 1494,
      "గి": 1495,
      "తరు": 1496,
      "పో": 1497,
      "బడ": 1498,
      "బె": 1499,
      "మన": 1500,
      "మహ": 1501,
      "లకు": 1502,
      "వీ": 1503,
      "వు": 1504,
      "సిం": 1505,
      "సరి": 1506,
      "ీన": 1507,
      "through": 1508,
      "esp": 1509,
      "asing": 1510,
      "offic": 1511,
      "్రా": 1512,
      "omen": 1513,
      "left": 1514,
      "స్కృ": 1515,
      "ild": 1516,
      "aman": 1517,
      "ember": 1518,
      "emerg": 1519,
      "forest": 1520,
      "agric": 1521,
      "cons": 1522,
      "wide": 1523,
      "విస్త": 1524,
      "किस्तान": 1525,
      "early": 1526,
      "స్త్ర": 1527,
      "ించిన": 1528,
      "पाकिस्तान": 1529,
      "medi": 1530,
      "contribut": 1531,
      "play": 1532,
      "gener": 1533,
      "ivil": 1534,
      "సాం": 1535,
      "ograph": 1536,
      "lands": 1537,
      "ద్ధి": 1538,
      "polit": 1539,
      "served": 1540,
      "వచ్చింది": 1541,
      "majority": 1542,
      "caused": 1543,
      "military": 1544,
      "Company": 1545,
      "Europe": 1546,
      "country": 1547,
      "influen": 1548,
      "China": 1549,
      "tech": 1550,
      "క్కువ": 1551,
      "Muslim": 1552,
      "billion": 1553,
      "शी": 1554,
      "समाज": 1555,
      "स्थाप": 1556,
      "12": 1557,
      "कॉ": 1558,
      "वल": 1559,
      "व्यवस्था": 1560,
      "स्त्र": 1561,
      "संविधान": 1562,
      "क्षा": 1563,
      "14": 1564,
      "Am": 1565,
      "चार": 1566,
      "डी": 1567,
      "तमिल": 1568,
      "मह": 1569,
      "मालय": 1570,
      "देख": 1571,
      "हिमालय": 1572,
      "संस्कृति": 1573,
      "एह": 1574,
      "शु": 1575,
      "शता": 1576,
      "काम": 1577,
      "संख्या": 1578,
      "ब्दी": 1579,
      "न्याय": 1580,
      "शताब्दी": 1581,
      "उन": 1582,
      "जब": 1583,
      "नों": 1584,
      "पाल": 1585,
      "रहा": 1586,
      "ोष": 1587,
      "करने": 1588,
      "करोड़": 1589,
      "होता": 1590,
      "हुए": 1591,
      "धानमंत्री": 1592,
      "इसके": 1593,
      "पे": 1594,
      "वाली": 1595,
      "हिन्द": 1596,
      "50": 1597,
      "ँव": 1598,
      "गंगा": 1599,
      "निय": 1600,
      "हाला": 1601,
      "विका": 1602,
      "प्ले": 1603,
      "गीत": 1604,
      "Al": 1605,
      "Dem": 1606,
      "Gu": 1607,
      "Gand": 1608,
      "Jain": 1609,
      "ace": 1610,
      "can": 1611,
      "culture": 1612,
      "day": 1613,
      "eh": 1614,
      "east": 1615,
      "fi": 1616,
      "found": 1617,
      "ia": 1618,
      "last": 1619,
      "man": 1620,
      "ose": 1621,
      "rat": 1622,
      "rural": 1623,
      "secon": 1624,
      "some": 1625,
      "tro": 1626,
      "ving": 1627,
      "गत": 1628,
      "पहि": 1629,
      "फ़": 1630,
      "అతి": 1631,
      "ఉంట": 1632,
      "కలి": 1633,
      "గం": 1634,
      "గీ": 1635,
      "గో": 1636,
      "గ్": 1637,
      "గిన": 1638,
      "జన": 1639,
      "జరి": 1640,
      "పట": 1641,
      "పట్ట": 1642,
      "రవా": 1643,
      "ుకు": 1644,
      "third": 1645,
      "ank": 1646,
      "ann": 1647,
      "theast": 1648,
      "dire": 1649,
      "disp": 1650,
      "ati": 1651,
      "ories": 1652,
      "orig": 1653,
      "reat": 1654,
      "్రె": 1655,
      "territ": 1656,
      "साहि": 1657,
      "భారత్": 1658,
      "loy": 1659,
      "lower": 1660,
      "ction": 1661,
      "ists": 1662,
      "ange": 1663,
      "విధ": 1664,
      "క్క": 1665,
      "dust": 1666,
      "sig": 1667,
      "द्वी": 1668,
      "నుండి": 1669,
      "cook": 1670,
      "soci": 1671,
      "ident": 1672,
      "acy": 1673,
      "wever": 1674,
      "mathem": 1675,
      "ిత్ర": 1676,
      "centuries": 1677,
      "धिकार": 1678,
      "स्थित": 1679,
      "election": 1680,
      "cording": 1681,
      "ాబ్": 1682,
      "మార్గాలు": 1683,
      "ఆర్ధిక": 1684,
      "క్రీడ": 1685,
      "Sikh": 1686,
      "అయిన": 1687,
      "జనాభా": 1688,
      "ultanate": 1689,
      "इलाका": 1690,
      "ప్రభుత్వ": 1691,
      "Central": 1692,
      "Eng": 1693,
      "తరువాత": 1694,
      "Gandhi": 1695,
      "second": 1696,
      "రవాణా": 1697,
      "द्वीप": 1698,
      "कर्": 1699,
      "िर": 1700,
      "निर्माण": 1701,
      "अब": 1702,
      "ओर": 1703,
      "चे": 1704,
      "नहीं": 1705,
      "सके": 1706,
      "सभा": 1707,
      "संसद": 1708,
      "न्ह": 1709,
      "तीस": 1710,
      "पूर्ण": 1711,
      "भाषाओं": 1712,
      "Ar": 1713,
      "Sh": 1714,
      "गठ": 1715,
      "हरी": 1716,
      "193": 1717,
      "संबंध": 1718,
      "राजनी": 1719,
      "सम्": 1720,
      "निर": 1721,
      "ंग्रेस": 1722,
      "पार्ट": 1723,
      "ँकि": 1724,
      "णा": 1725,
      "तृ": 1726,
      "बाने": 1727,
      "स्तर": 1728,
      "नेतृ": 1729,
      "तिहा": 1730,
      "होला": 1731,
      "संस्कृत": 1732,
      "ोलन": 1733,
      "अंग्रेजी": 1734,
      "दक्खिन": 1735,
      "दशक": 1736,
      "हालाँकि": 1737,
      "प्लेट": 1738,
      "नेतृत्व": 1739,
      "ंस": 1740,
      "दर्": 1741,
      "भर": 1742,
      "साहित्य": 1743,
      "चना": 1744,
      "पं": 1745,
      "सदी": 1746,
      "भाग": 1747,
      "भाव": 1748,
      "अरब": 1749,
      "कल": 1750,
      "मौ": 1751,
      "स्य": 1752,
      "कुल": 1753,
      "भूमि": 1754,
      "चुनावों": 1755,
      "42": 1756,
      "400": 1757,
      "Ac": 1758,
      "Bra": 1759,
      "Jan": 1760,
      "Neh": 1761,
      "Prad": 1762,
      "Se": 1763,
      "air": 1764,
      "bu": 1765,
      "bre": 1766,
      "car": 1767,
      "cur": 1768,
      "do": 1769,
      "dom": 1770,
      "dle": 1771,
      "daman": 1772,
      "fed": 1773,
      "hat": 1774,
      "ious": 1775,
      "ling": 1776,
      "men": 1777,
      "made": 1778,
      "member": 1779,
      "national": 1780,
      "nolog": 1781,
      "ood": 1782,
      "pain": 1783,
      "pend": 1784,
      "sing": 1785,
      "tur": 1786,
      "tri": 1787,
      "vent": 1788,
      "women": 1789,
      "कप": 1790,
      "पह": 1791,
      "बो": 1792,
      "ब्र": 1793,
      "అనే": 1794,
      "ఉప": 1795,
      "ఎక్కువ": 1796,
      "ఏర్": 1797,
      "కీయ": 1798,
      "ట్ల": 1799,
      "ణం": 1800,
      "పం": 1801,
      "బహ": 1802,
      "మ్": 1803,
      "మంత్ర": 1804,
      "రంగ": 1805,
      "లే": 1806,
      "లలో": 1807,
      "వల": 1808,
      "వృ": 1809,
      "శ్": 1810,
      "ిమ": 1811,
      "ిల్ల": 1812,
      "ances": 1813,
      "indust": 1814,
      "they": 1815,
      "ered": 1816,
      "arch": 1817,
      "ali": 1818,
      "alle": 1819,
      "ess": 1820,
      "ice": 1821,
      "్రి": 1822,
      "omet": 1823,
      "ాలో": 1824,
      "str": 1825,
      "states": 1826,
      "ecially": 1827,
      "नाँव": 1828,
      "ప్రస్తు": 1829,
      "ప్రదాయ": 1830,
      "right": 1831,
      "very": 1832,
      "verse": 1833,
      "rock": 1834,
      "Indians": 1835,
      "und": 1836,
      "देस": 1837,
      "ments": 1838,
      "movement": 1839,
      "areas": 1840,
      "coal": 1841,
      "coast": 1842,
      "స్తాన్": 1843,
      "ించి": 1844,
      "ందిన": 1845,
      "central": 1846,
      "control": 1847,
      "ports": 1848,
      "forms": 1849,
      "ives": 1850,
      "Hindi": 1851,
      "ంగ్రె": 1852,
      "party": 1853,
      "సాధ": 1854,
      "పాకి": 1855,
      "regions": 1856,
      "feat": 1857,
      "Hinduism": 1858,
      "రాజకీయ": 1859,
      "కాంగ్రె": 1860,
      "include": 1861,
      "common": 1862,
      "scri": 1863,
      "religious": 1864,
      "Andaman": 1865,
      "growth": 1866,
      "కాలంలో": 1867,
      "great": 1868,
      "తున్న": 1869,
      "United": 1870,
      "ఎన్నో": 1871,
      "Constitution": 1872,
      "following": 1873,
      "employ": 1874,
      "Buddhist": 1875,
      "ensus": 1876,
      "మొదటి": 1877,
      "time": 1878,
      "literacy": 1879,
      "human": 1880,
      "దక్షిణ": 1881,
      "ఉత్తర": 1882,
      "eastern": 1883,
      "trans": 1884,
      "అత్యధిక": 1885,
      "సరిహ": 1886,
      "especially": 1887,
      "emerged": 1888,
      "political": 1889,
      "Guj": 1890,
      "direct": 1891,
      "origin": 1892,
      "English": 1893,
      "Nehru": 1894,
      "Pradesh": 1895,
      "painting": 1896,
      "तन": 1897,
      "भग": 1898,
      "ैली": 1899,
      "ोज": 1900,
      "लगभग": 1901,
      "पश्चिम": 1902,
      "ंतर": 1903,
      "जू": 1904,
      "फल": 1905,
      "र्ट": 1906,
      "लाख": 1907,
      "्यापार": 1908,
      "धीरे": 1909,
      "दर": 1910,
      "बंग": 1911,
      "inter": 1912,
      "िक्": 1913,
      "संगीत": 1914,
      "क्षेत्रीय": 1915,
      "सदस्य": 1916,
      "एगो": 1917,
      "जल": 1918,
      "णी": 1919,
      "ण्": 1920,
      "पच्छ": 1921,
      "सेना": 1922,
      "प्रकार": 1923,
      "विस्त": 1924,
      "हिंद": 1925,
      "जाती": 1926,
      "होखे": 1927,
      "च्च": 1928,
      "मूल": 1929,
      "कॉंग्रेस": 1930,
      "24": 1931,
      "ँच": 1932,
      "उद्योग": 1933,
      "ग्र": 1934,
      "जरा": 1935,
      "बौ": 1936,
      "लं": 1937,
      "प्रधानमंत्री": 1938,
      "परि": 1939,
      "परमाण": 1940,
      "विकास": 1941,
      "परमाणु": 1942,
      "13": 1943,
      "अव": 1944,
      "इस्": 1945,
      "कम": 1946,
      "गति": 1947,
      "बै": 1948,
      "हे": 1949,
      "न्द्र": 1950,
      "आधारित": 1951,
      "टक": 1952,
      "धि": 1953,
      "शि": 1954,
      "्यादा": 1955,
      "जनसंख्या": 1956,
      "गणराज्य": 1957,
      "स्वतंत्रता": 1958,
      "Ara": 1959,
      "BJ": 1960,
      "Bh": 1961,
      "Bang": 1962,
      "DP": 1963,
      "GDP": 1964,
      "Its": 1965,
      "Kas": 1966,
      "Per": 1967,
      "Raj": 1968,
      "bir": 1969,
      "bod": 1970,
      "based": 1971,
      "back": 1972,
      "cult": 1973,
      "cap": 1974,
      "cru": 1975,
      "census": 1976,
      "den": 1977,
      "dra": 1978,
      "eth": 1979,
      "far": 1980,
      "fig": 1981,
      "ge": 1982,
      "ip": 1983,
      "ide": 1984,
      "ians": 1985,
      "line": 1986,
      "mi": 1987,
      "ne": 1988,
      "ool": 1989,
      "ped": 1990,
      "rul": 1991,
      "ration": 1992,
      "rates": 1993,
      "sou": 1994,
      "sultanate": 1995,
      "uch": 1996,
      "ven": 1997,
      "vis": 1998,
      "vast": 1999,
      "vill": 2000,
      "घोष": 2001,
      "त्या": 2002,
      "फी": 2003,
      "ुनिक": 2004,
      "ంధ": 2005,
      "ంటి": 2006,
      "ందు": 2007,
      "ఇండి": 2008,
      "క్య": 2009,
      "గల": 2010,
      "గంగా": 2011,
      "చిన్న": 2012,
      "జాబ": 2013,
      "టె": 2014,
      "ణి": 2015,
      "దం": 2016,
      "దార": 2017,
      "పై": 2018,
      "పతి": 2019,
      "భూ": 2020,
      "మూ": 2021,
      "మై": 2022,
      "యు": 2023,
      "యో": 2024,
      "లతో": 2025,
      "షు": 2026,
      "సము": 2027,
      "ావర": 2028,
      "ుకో": 2029,
      "ెలు": 2030,
      "animal": 2031,
      "ancient": 2032,
      "inv": 2033,
      "ines": 2034,
      "ert": 2035,
      "ale": 2036,
      "dif": 2037,
      "dis": 2038,
      "ata": 2039,
      "ors": 2040,
      "ash": 2041,
      "rel": 2042,
      "remain": 2043,
      "ites": 2044,
      "ారం": 2045,
      "ently": 2046,
      "ాలలో": 2047,
      "ste": 2048,
      "ecut": 2049,
      "amm": 2050,
      "amp": 2051,
      "There": 2052,
      "These": 2053,
      "ప్రతి": 2054,
      "lief": 2055,
      "ulpt": 2056,
      "ిక్": 2057,
      "ago": 2058,
      "local": 2059,
      "union": 2060,
      "depend": 2061,
      "istic": 2062,
      "sive": 2063,
      "ety": 2064,
      "ders": 2065,
      "ద్దు": 2066,
      "aksh": 2067,
      "ండు": 2068,
      "compos": 2069,
      "spe": 2070,
      "సంస్కృ": 2071,
      "సంగీ": 2072,
      "बिस्व": 2073,
      "formed": 2074,
      "now": 2075,
      "ంగ్ల": 2076,
      "marri": 2077,
      "market": 2078,
      "ప్రాచ": 2079,
      "cess": 2080,
      "క్రమ": 2081,
      "సిని": 2082,
      "viol": 2083,
      "రాష్ట్రాలు": 2084,
      "आधुनिक": 2085,
      "sculpt": 2086,
      "religions": 2087,
      "కారం": 2088,
      "growing": 2089,
      "grew": 2090,
      "శాస్త్ర": 2091,
      "whose": 2092,
      "rise": 2093,
      "support": 2094,
      "ప్రాంతాలు": 2095,
      "histor": 2096,
      "Himalayas": 2097,
      "occup": 2098,
      "parliamentary": 2099,
      "penins": 2100,
      "widely": 2101,
      "European": 2102,
      "Brahm": 2103,
      "వృద్ధి": 2104,
      "alley": 2105,
      "సరిహద్దు": 2106,
      "Gujar": 2107,
      "BJP": 2108,
      "Kashm": 2109,
      "Persi": 2110,
      "body": 2111,
      "पड़": 2112,
      "पर्व": 2113,
      "लर": 2114,
      "सित": 2115,
      "सैन": 2116,
      "soon": 2117,
      "जनजाति": 2118,
      "तिहास": 2119,
      "सैन्य": 2120,
      "55": 2121,
      "लिये": 2122,
      "्यता": 2123,
      "पाद": 2124,
      "उत्पाद": 2125,
      "100": 2126,
      "300": 2127,
      "छो": 2128,
      "जहाँ": 2129,
      "द्र": 2130,
      "शे": 2131,
      "िमी": 2132,
      "सामाज": 2133,
      "ived": 2134,
      "शासित": 2135,
      "बंधन": 2136,
      "सामाजिक": 2137,
      "अउ": 2138,
      "लें": 2139,
      "साब": 2140,
      "बाड़ी": 2141,
      "हिसाब": 2142,
      "दीप": 2143,
      "बिध": 2144,
      "वर्त": 2145,
      "सिंध": 2146,
      "शील": 2147,
      "आग": 2148,
      "आत": 2149,
      "सो": 2150,
      "रहे": 2151,
      "पंजा": 2152,
      "500": 2153,
      "एवं": 2154,
      "गई": 2155,
      "रक्षा": 2156,
      "िकी": 2157,
      "न्तु": 2158,
      "भाई": 2159,
      "भाज": 2160,
      "१९९": 2161,
      "जिसमें": 2162,
      "स्थापना": 2163,
      "राजनीतिक": 2164,
      "ण्ड": 2165,
      "बौद्ध": 2166,
      "28": 2167,
      "ज्": 2168,
      "थे": 2169,
      "दारी": 2170,
      "विक": 2171,
      "ाय": 2172,
      "युद्ध": 2173,
      "युक्त": 2174,
      "म्भ": 2175,
      "उपमहा": 2176,
      "70": 2177,
      "Act": 2178,
      "Ass": 2179,
      "Bhar": 2180,
      "During": 2181,
      "Government": 2182,
      "II": 2183,
      "Nad": 2184,
      "West": 2185,
      "Western": 2186,
      "bor": 2187,
      "ble": 2188,
      "cri": 2189,
      "cities": 2190,
      "des": 2191,
      "dem": 2192,
      "fast": 2193,
      "five": 2194,
      "gu": 2195,
      "grad": 2196,
      "iz": 2197,
      "ked": 2198,
      "lam": 2199,
      "lay": 2200,
      "mak": 2201,
      "nat": 2202,
      "ning": 2203,
      "oor": 2204,
      "pr": 2205,
      "tt": 2206,
      "tle": 2207,
      "til": 2208,
      "tions": 2209,
      "ual": 2210,
      "use": 2211,
      "won": 2212,
      "way": 2213,
      "yan": 2214,
      "अलग": 2215,
      "आप": 2216,
      "आधिकार": 2217,
      "ऊपर": 2218,
      "एकर": 2219,
      "जवन": 2220,
      "बड़ा": 2221,
      "सह": 2222,
      "అభ": 2223,
      "ఆధ": 2224,
      "కం": 2225,
      "కాలు": 2226,
      "గణ": 2227,
      "గే": 2228,
      "గలు": 2229,
      "చరి": 2230,
      "జీ": 2231,
      "టా": 2232,
      "టీ": 2233,
      "ఢిల్ల": 2234,
      "ణంగా": 2235,
      "తూ": 2236,
      "తిక": 2237,
      "తంత్ర": 2238,
      "తాబ్": 2239,
      "ధి": 2240,
      "నీ": 2241,
      "నె": 2242,
      "నడి": 2243,
      "నగర": 2244,
      "పి": 2245,
      "పించ": 2246,
      "బ్రి": 2247,
      "భిన్న": 2248,
      "మె": 2249,
      "మూడ": 2250,
      "మాత్ర": 2251,
      "రం": 2252,
      "రహ": 2253,
      "రే": 2254,
      "లను": 2255,
      "వై": 2256,
      "వత్": 2257,
      "శతాబ్": 2258,
      "సౌ": 2259,
      "సింది": 2260,
      "సమా": 2261,
      "ీర్": 2262,
      "three": 2263,
      "ants": 2264,
      "indi": 2265,
      "ond": 2266,
      "ara": 2267,
      "ard": 2268,
      "ars": 2269,
      "alth": 2270,
      "along": 2271,
      "div": 2272,
      "dish": 2273,
      "diverse": 2274,
      "ating": 2275,
      "ारा": 2276,
      "educ": 2277,
      "often": 2278,
      "republic": 2279,
      "ico": 2280,
      "tom": 2281,
      "ాలను": 2282,
      "urther": 2283,
      "stat": 2284,
      "oup": 2285,
      "ould": 2286,
      "స్య": 2287,
      "స్వ": 2288,
      "స్వా": 2289,
      "్యాయ": 2290,
      "term": 2291,
      "क्ट": 2292,
      "ప్రము": 2293,
      "ప్రకారం": 2294,
      "ర్లు": 2295,
      "emper": 2296,
      "utes": 2297,
      "sever": 2298,
      "sequ": 2299,
      "ung": 2300,
      "defin": 2301,
      "వివిధ": 2302,
      "within": 2303,
      "execut": 2304,
      "duct": 2305,
      "etic": 2306,
      "దేశంలో": 2307,
      "దేశంలోని": 2308,
      "earli": 2309,
      "ంతో": 2310,
      "well": 2311,
      "endem": 2312,
      "భాగం": 2313,
      "minist": 2314,
      "alled": 2315,
      "సామ": 2316,
      "created": 2317,
      "become": 2318,
      "కోర్": 2319,
      "ected": 2320,
      "popular": 2321,
      "భారతదేశపు": 2322,
      "వేగంగా": 2323,
      "రాష్ట్రపతి": 2324,
      "elections": 2325,
      "longer": 2326,
      "nific": 2327,
      "commer": 2328,
      "serv": 2329,
      "अपना": 2330,
      "head": 2331,
      "regional": 2332,
      "శాఖ": 2333,
      "ఒకటి": 2334,
      "డ్డ": 2335,
      "ప్రపంచంలో": 2336,
      "Buddhism": 2337,
      "ज़ी": 2338,
      "మొదల": 2339,
      "కర్య": 2340,
      "ప్రజా": 2341,
      "development": 2342,
      "traditional": 2343,
      "पुरान": 2344,
      "परंपरागत": 2345,
      "Islam": 2346,
      "ప్పట": 2347,
      "style": 2348,
      "styles": 2349,
      "States": 2350,
      "రెండు": 2351,
      "ాల్లో": 2352,
      "బెంగ": 2353,
      "సింధ": 2354,
      "official": 2355,
      "agriculture": 2356,
      "influenced": 2357,
      "technolog": 2358,
      "Among": 2359,
      "fied": 2360,
      "పట్టణ": 2361,
      "territories": 2362,
      "mathematic": 2363,
      "According": 2364,
      "buil": 2365,
      "federal": 2366,
      "ఏర్ప": 2367,
      "బహు": 2368,
      "మంత్రి": 2369,
      "industry": 2370,
      "employed": 2371,
      "southern": 2372,
      "ఇండియా": 2373,
      "జాబిత": 2374,
      "దారులు": 2375,
      "peninsular": 2376,
      "Persian": 2377,
      "Nadu": 2378,
      "आधिकारिक": 2379,
      "అభి": 2380,
      "చరిత్ర": 2381,
      "ఢిల్లీ": 2382,
      "సౌకర్య": 2383,
      "education": 2384,
      "ప్రముఖ": 2385,
      "nificant": 2386,
      "ప్పటిక": 2387,
      "चर": 2388,
      "जु": 2389,
      "तम": 2390,
      "मिक": 2391,
      "र्य": 2392,
      "करण": 2393,
      "वादी": 2394,
      "वायु": 2395,
      "राष्ट्रप": 2396,
      "आन्द": 2397,
      "गल": 2398,
      "घा": 2399,
      "रचना": 2400,
      "वाल": 2401,
      "वरी": 2402,
      "मिला": 2403,
      "पास": 2404,
      "वर्ग": 2405,
      "ल्ली": 2406,
      "wa": 2407,
      "ंट": 2408,
      "अभ": 2409,
      "आय": 2410,
      "इतिहास": 2411,
      "एँ": 2412,
      "छोड़": 2413,
      "तट": 2414,
      "माल": 2415,
      "शक्ति": 2416,
      "सफल": 2417,
      "ृत": 2418,
      "२०": 2419,
      "२००": 2420,
      "नेमा": 2421,
      "भाष": 2422,
      "तरह": 2423,
      "सीमा": 2424,
      "सिनेमा": 2425,
      "वर्षों": 2426,
      "गुजरा": 2427,
      "अन्त": 2428,
      "न्यायालय": 2429,
      "न्हें": 2430,
      "ज्ञ": 2431,
      "120": 2432,
      "इसी": 2433,
      "इहाँ": 2434,
      "एही": 2435,
      "चला": 2436,
      "केन्द्र": 2437,
      "ारम्भ": 2438,
      "प्रारम्भ": 2439,
      "संयुक्त": 2440,
      "वर्ण": 2441,
      "प्राप्त": 2442,
      "उत्तरी": 2443,
      "185": 2444,
      "बढ़ती": 2445,
      "पार्टी": 2446,
      "हिंदू": 2447,
      "शेष": 2448,
      "सिंधु": 2449,
      "पहा": 2450,
      "बद": 2451,
      "बार": 2452,
      "ये": 2453,
      "लिक": 2454,
      "शैली": 2455,
      "सागर": 2456,
      "वाद": 2457,
      "शास्त्र": 2458,
      "बहुमत": 2459,
      "युग": 2460,
      "अर्थव्यवस्था": 2461,
      "पालिका": 2462,
      "36": 2463,
      "ंक": 2464,
      "ज्यादा": 2465,
      "सक": 2466,
      "नाटक": 2467,
      "सां": 2468,
      "श्मी": 2469,
      "रुआत": 2470,
      "दिल्ली": 2471,
      "ष्ण": 2472,
      "रोप": 2473,
      "यूरोप": 2474,
      "महत्व": 2475,
      "ब्रि": 2476,
      "जलवायु": 2477,
      "11": 2478,
      "46": 2479,
      "78": 2480,
      "गि": 2481,
      "दार": 2482,
      "मल": 2483,
      "प्रचल": 2484,
      "जात": 2485,
      "माना": 2486,
      "जीत": 2487,
      "तीसरी": 2488,
      "आन्दोलन": 2489,
      "31": 2490,
      "80": 2491,
      "All": 2492,
      "Civil": 2493,
      "De": 2494,
      "Dal": 2495,
      "For": 2496,
      "Gup": 2497,
      "Ho": 2498,
      "Keral": 2499,
      "Nor": 2500,
      "Nico": 2501,
      "Re": 2502,
      "Sou": 2503,
      "Valley": 2504,
      "ah": 2505,
      "ail": 2506,
      "aver": 2507,
      "bl": 2508,
      "bro": 2509,
      "bio": 2510,
      "cro": 2511,
      "cut": 2512,
      "clo": 2513,
      "civil": 2514,
      "dr": 2515,
      "domin": 2516,
      "dances": 2517,
      "every": 2518,
      "four": 2519,
      "famil": 2520,
      "fact": 2521,
      "further": 2522,
      "glo": 2523,
      "get": 2524,
      "hen": 2525,
      "his": 2526,
      "hou": 2527,
      "hav": 2528,
      "ile": 2529,
      "jo": 2530,
      "kno": 2531,
      "lf": 2532,
      "lad": 2533,
      "mit": 2534,
      "mult": 2535,
      "mary": 2536,
      "mall": 2537,
      "na": 2538,
      "ob": 2539,
      "op": 2540,
      "ow": 2541,
      "oper": 2542,
      "pay": 2543,
      "pical": 2544,
      "pass": 2545,
      "rich": 2546,
      "round": 2547,
      "ratic": 2548,
      "sar": 2549,
      "sec": 2550,
      "sari": 2551,
      "small": 2552,
      "trad": 2553,
      "uary": 2554,
      "vo": 2555,
      "vari": 2556,
      "win": 2557,
      "wild": 2558,
      "xim": 2559,
      "ze": 2560,
      "ठो": 2561,
      "डॉ": 2562,
      "थिय": 2563,
      "बनी": 2564,
      "बड़ी": 2565,
      "ब्यवस्था": 2566,
      "मे": 2567,
      "लिया": 2568,
      "सर्व": 2569,
      "हथिय": 2570,
      "ంద": 2571,
      "అను": 2572,
      "కళ": 2573,
      "కల్": 2574,
      "చైన": 2575,
      "చిత్ర": 2576,
      "జి": 2577,
      "జ్య": 2578,
      "డే": 2579,
      "తన": 2580,
      "తమి": 2581,
      "నాల": 2582,
      "పత": 2583,
      "పద": 2584,
      "పొ": 2585,
      "పద్ధ": 2586,
      "పండు": 2587,
      "బ్": 2588,
      "మ్య": 2589,
      "మలు": 2590,
      "మాన": 2591,
      "యాలు": 2592,
      "రూ": 2593,
      "ళం": 2594,
      "ళ్ల": 2595,
      "వడ": 2596,
      "వహ": 2597,
      "వంటి": 2598,
      "సమ": 2599,
      "సై": 2600,
      "సార": 2601,
      "సర్వ": 2602,
      "హా": 2603,
      "ుల": 2604,
      "ుంది": 2605,
      "inct": 2606,
      "independ": 2607,
      "ons": 2608,
      "around": 2609,
      "ales": 2610,
      "dist": 2611,
      "ditions": 2612,
      "atak": 2613,
      "ative": 2614,
      "organ": 2615,
      "off": 2616,
      "ise": 2617,
      "iss": 2618,
      "read": 2619,
      "recor": 2620,
      "total": 2621,
      "ents": 2622,
      "stru": 2623,
      "స్వాత": 2624,
      "ility": 2625,
      "amas": 2626,
      "This": 2627,
      "administ": 2628,
      "olved": 2629,
      "ప్రదేశ": 2630,
      "changes": 2631,
      "emple": 2632,
      "liber": 2633,
      "ross": 2634,
      "संग": 2635,
      "న్నాయి": 2636,
      "utra": 2637,
      "again": 2638,
      "estim": 2639,
      "estab": 2640,
      "विदेश": 2641,
      "करना": 2642,
      "consi": 2643,
      "conduct": 2644,
      "ियाँ": 2645,
      "until": 2646,
      "ghts": 2647,
      "astri": 2648,
      "angered": 2649,
      "क्षण": 2650,
      "import": 2651,
      "when": 2652,
      "where": 2653,
      "కుల": 2654,
      "నిర్": 2655,
      "నిర్వ": 2656,
      "sum": 2657,
      "जाते": 2658,
      "ained": 2659,
      "poin": 2660,
      "resp": 2661,
      "resident": 2662,
      "నుక": 2663,
      "ముంబ": 2664,
      "ల్వే": 2665,
      "త్తం": 2666,
      "shor": 2667,
      "निभाई": 2668,
      "comple": 2669,
      "appro": 2670,
      "aputra": 2671,
      "spread": 2672,
      "worn": 2673,
      "సంఖ్య": 2674,
      "సంవత్": 2675,
      "పుట్ట": 2676,
      "plate": 2677,
      "plain": 2678,
      "place": 2679,
      "prov": 2680,
      "endangered": 2681,
      "ternal": 2682,
      "gency": 2683,
      "anted": 2684,
      "upper": 2685,
      "partition": 2686,
      "ఉన్నారు": 2687,
      "Hindust": 2688,
      "ocratic": 2689,
      "వ్యా": 2690,
      "subsequ": 2691,
      "Asian": 2692,
      "కూడిన": 2693,
      "సియా": 2694,
      "ricket": 2695,
      "మొత్తం": 2696,
      "traditions": 2697,
      "ength": 2698,
      "భారతదేశానికి": 2699,
      "सदन": 2700,
      "చేయ": 2701,
      "రైల్వే": 2702,
      "polic": 2703,
      "వాతావర": 2704,
      "పాలన": 2705,
      "పాలిత": 2706,
      "continu": 2707,
      "अपने": 2708,
      "अपनी": 2709,
      "held": 2710,
      "కార్య": 2711,
      "కారణంగా": 2712,
      "increasing": 2713,
      "दोनों": 2714,
      "దేశాలలో": 2715,
      "Union": 2716,
      "thought": 2717,
      "legis": 2718,
      "numbers": 2719,
      "ట్లు": 2720,
      "పరంగా": 2721,
      "empire": 2722,
      "supp": 2723,
      "స్థానంలో": 2724,
      "పరిశ్ర": 2725,
      "అధికారిక": 2726,
      "दुन": 2727,
      "times": 2728,
      "developed": 2729,
      "భాషలు": 2730,
      "Islands": 2731,
      "group": 2732,
      "however": 2733,
      "middle": 2734,
      "వెబ్": 2735,
      "oldest": 2736,
      "court": 2737,
      "courts": 2738,
      "present": 2739,
      "surv": 2740,
      "leader": 2741,
      "leading": 2742,
      "produc": 2743,
      "కేంద్రపాలిత": 2744,
      "Plateau": 2745,
      "kingdom": 2746,
      "school": 2747,
      "अमेर": 2748,
      "Although": 2749,
      "Jainism": 2750,
      "ఉంటాయి": 2751,
      "జరిగిన": 2752,
      "significant": 2753,
      "cooked": 2754,
      "गठबंधन": 2755,
      "भूमिका": 2756,
      "January": 2757,
      "पहले": 2758,
      "అనేక": 2759,
      "ఎక్కువగా": 2760,
      "ప్రస్తుతం": 2761,
      "coalition": 2762,
      "కాంగ్రెసు": 2763,
      "Arab": 2764,
      "birth": 2765,
      "figures": 2766,
      "village": 2767,
      "సముద్ర": 2768,
      "differ": 2769,
      "composed": 2770,
      "speak": 2771,
      "ప్రాచీన": 2772,
      "sculpture": 2773,
      "Brahmaputra": 2774,
      "Gujarat": 2775,
      "Kashmir": 2776,
      "भाजपा": 2777,
      "Bharat": 2778,
      "రహదారులు": 2779,
      "శతాబ్దం": 2780,
      "executive": 2781,
      "earliest": 2782,
      "technology": 2783,
      "అభివృద్ధి": 2784,
      "ज्ञान": 2785,
      "Kerala": 2786,
      "Nicobar": 2787,
      "Southeast": 2788,
      "families": 2789,
      "known": 2790,
      "operation": 2791,
      "ximately": 2792,
      "हथियार": 2793,
      "స్వాతంత్ర": 2794,
      "establish": 2795,
      "consider": 2796,
      "నిర్వహ": 2797,
      "approximately": 2798,
      "వాతావరణం": 2799,
      "kingdoms": 2800,
      "अफ": 2801,
      "इसे": 2802,
      "जान": 2803,
      "बने": 2804,
      "वैद": 2805,
      "ृद्ध": 2806,
      "जनता": 2807,
      "ंधी": 2808,
      "वंश": 2809,
      "गांधी": 2810,
      "बंगाल": 2811,
      "वैदिक": 2812,
      "आया": 2813,
      "आदि": 2814,
      "खाना": 2815,
      "तः": 2816,
      "व्य": 2817,
      "व्यापार": 2818,
      "समर्थ": 2819,
      "अधिकार": 2820,
      "वर्तमान": 2821,
      "राष्ट्रपति": 2822,
      "Rep": 2823,
      "आई": 2824,
      "वना": 2825,
      "ौर": 2826,
      "प्रशासन": 2827,
      "लिम": 2828,
      "इंडिया": 2829,
      "ज्यादातर": 2830,
      "Republic": 2831,
      "25": 2832,
      "29": 2833,
      "700": 2834,
      "date": 2835,
      "आज": 2836,
      "चि": 2837,
      "धार": 2838,
      "मंद": 2839,
      "लु": 2840,
      "शहरी": 2841,
      "देखा": 2842,
      "पूरा": 2843,
      "सभ्यता": 2844,
      "नावल": 2845,
      "दुनिया": 2846,
      "मंदिर": 2847,
      "ऊँ": 2848,
      "एं": 2849,
      "खी": 2850,
      "दृ": 2851,
      "पठ": 2852,
      "मण": 2853,
      "मै": 2854,
      "ूत": 2855,
      "ोच्च": 2856,
      "्यों": 2857,
      "सेवा": 2858,
      "होती": 2859,
      "किन्तु": 2860,
      "लीन": 2861,
      "रुप": 2862,
      "१९७": 2863,
      "१९८": 2864,
      "ल्प": 2865,
      "जिसके": 2866,
      "क्रि": 2867,
      "बड़े": 2868,
      "कर्ज": 2869,
      "विस्तृत": 2870,
      "सहयोग": 2871,
      "डॉलर": 2872,
      "सर्वोच्च": 2873,
      "विदेशी": 2874,
      "22": 2875,
      "कला": 2876,
      "कश्मी": 2877,
      "जलो": 2878,
      "नदी": 2879,
      "यल": 2880,
      "रल": 2881,
      "शत": 2882,
      "शब्": 2883,
      "ानी": 2884,
      "विवाद": 2885,
      "हिं": 2886,
      "वाँ": 2887,
      "अंग्रेज़ी": 2888,
      "इंडो": 2889,
      "प्रतिशत": 2890,
      "जबकि": 2891,
      "यूरोपीय": 2892,
      "जलोढ़": 2893,
      "असम": 2894,
      "आर्": 2895,
      "कर्म": 2896,
      "नगर": 2897,
      "मार": 2898,
      "श्री": 2899,
      "सत": 2900,
      "समा": 2901,
      "स्लिम": 2902,
      "बाकी": 2903,
      "बाहरी": 2904,
      "मुस्लिम": 2905,
      "मानसू": 2906,
      "सिं": 2907,
      "वेश": 2908,
      "गुप्त": 2909,
      "पंजाब": 2910,
      "मानसून": 2911,
      "35": 2912,
      "Ak": 2913,
      "As": 2914,
      "Ary": 2915,
      "Bi": 2916,
      "Count": 2917,
      "Carn": 2918,
      "Des": 2919,
      "Dec": 2920,
      "Dra": 2921,
      "Dance": 2922,
      "Gree": 2923,
      "Ghat": 2924,
      "Gond": 2925,
      "HO": 2926,
      "Ko": 2927,
      "Kr": 2928,
      "Karn": 2929,
      "Min": 2930,
      "Mar": 2931,
      "Mal": 2932,
      "Mad": 2933,
      "Mum": 2934,
      "Many": 2935,
      "Mani": 2936,
      "Non": 2937,
      "Nep": 2938,
      "Nuclear": 2939,
      "PA": 2940,
      "Par": 2941,
      "Pro": 2942,
      "Ram": 2943,
      "Sing": 2944,
      "Sri": 2945,
      "Ti": 2946,
      "Tel": 2947,
      "Temple": 2948,
      "Utt": 2949,
      "Va": 2950,
      "War": 2951,
      "WHO": 2952,
      "adi": 2953,
      "band": 2954,
      "bas": 2955,
      "bri": 2956,
      "bai": 2957,
      "called": 2958,
      "dar": 2959,
      "ez": 2960,
      "equ": 2961,
      "eign": 2962,
      "eograph": 2963,
      "ff": 2964,
      "fl": 2965,
      "fam": 2966,
      "fem": 2967,
      "fest": 2968,
      "flo": 2969,
      "fish": 2970,
      "fund": 2971,
      "gra": 2972,
      "hy": 2973,
      "hab": 2974,
      "jur": 2975,
      "ject": 2976,
      "just": 2977,
      "kk": 2978,
      "ken": 2979,
      "kame": 2980,
      "la": 2981,
      "ls": 2982,
      "nam": 2983,
      "near": 2984,
      "name": 2985,
      "nomin": 2986,
      "own": 2987,
      "pa": 2988,
      "pil": 2989,
      "pra": 2990,
      "put": 2991,
      "phar": 2992,
      "pred": 2993,
      "rest": 2994,
      "range": 2995,
      "sim": 2996,
      "saf": 2997,
      "sine": 2998,
      "sect": 2999,
      "tu": 3000,
      "test": 3001,
      "tel": 3002,
      "ues": 3003,
      "went": 3004,
      "wear": 3005,
      "writ": 3006,
      "इले": 3007,
      "उष्ण": 3008,
      "एकरे": 3009,
      "कटि": 3010,
      "चाल": 3011,
      "पत्": 3012,
      "बिक": 3013,
      "बदल": 3014,
      "అని": 3015,
      "ఆఫ": 3016,
      "ఇవ": 3017,
      "ఇన్": 3018,
      "కల": 3019,
      "ఖండ": 3020,
      "గ్ర": 3021,
      "చి": 3022,
      "చార": 3023,
      "జ్": 3024,
      "జన్": 3025,
      "టం": 3026,
      "డాల": 3027,
      "తల": 3028,
      "థిక": 3029,
      "దన": 3030,
      "దర": 3031,
      "దీ": 3032,
      "ద్య": 3033,
      "నాయ": 3034,
      "న్యాయ": 3035,
      "పశ": 3036,
      "పక్ష": 3037,
      "పాత్ర": 3038,
      "బౌ": 3039,
      "మల": 3040,
      "మాలు": 3041,
      "మించ": 3042,
      "యం": 3043,
      "ర్య": 3044,
      "రకాల": 3045,
      "లక్ష": 3046,
      "వరి": 3047,
      "వంట": 3048,
      "వలం": 3049,
      "సర": 3050,
      "సూ": 3051,
      "సే": 3052,
      "సార్": 3053,
      "హ్": 3054,
      "హార": 3055,
      "హిమ": 3056,
      "ిల్": 3057,
      "ీలు": 3058,
      "ెల": 3059,
      "ోర": 3060,
      "ining": 3061,
      "intro": 3062,
      "these": 3063,
      "ering": 3064,
      "ones": 3065,
      "aries": 3066,
      "alli": 3067,
      "ality": 3068,
      "alwar": 3069,
      "ened": 3070,
      "enact": 3071,
      "ensive": 3072,
      "dian": 3073,
      "atical": 3074,
      "oro": 3075,
      "anding": 3076,
      "ase": 3077,
      "associ": 3078,
      "Indira": 3079,
      "reach": 3080,
      "relief": 3081,
      "ital": 3082,
      "itect": 3083,
      "ices": 3084,
      "ings": 3085,
      "top": 3086,
      "tour": 3087,
      "took": 3088,
      "touch": 3089,
      "omy": 3090,
      "ాలీ": 3091,
      "ాలతో": 3092,
      "oul": 3093,
      "లోక్": 3094,
      "స్లా": 3095,
      "్యా": 3096,
      "Thar": 3097,
      "प्रसार": 3098,
      "ada": 3099,
      "ado": 3100,
      "adv": 3101,
      "ades": 3102,
      "addition": 3103,
      "ola": 3104,
      "olid": 3105,
      "దినాలు": 3106,
      "नाच": 3107,
      "ries": 3108,
      "rights": 3109,
      "char": 3110,
      "ched": 3111,
      "change": 3112,
      "దేశానికి": 3113,
      "Their": 3114,
      "ర్ల": 3115,
      "ర్కొ": 3116,
      "lies": 3117,
      "lied": 3118,
      "ికత": 3119,
      "force": 3120,
      "role": 3121,
      "ceut": 3122,
      "being": 3123,
      "below": 3124,
      "before": 3125,
      "uted": 3126,
      "veget": 3127,
      "वित": 3128,
      "consu": 3129,
      "uscri": 3130,
      "del": 3131,
      "anged": 3132,
      "కుంట": 3133,
      "కుటు": 3134,
      "राजा": 3135,
      "ాయు": 3136,
      "exts": 3137,
      "exports": 3138,
      "external": 3139,
      "ably": 3140,
      "abad": 3141,
      "about": 3142,
      "ability": 3143,
      "due": 3144,
      "six": 3145,
      "side": 3146,
      "ett": 3147,
      "etwork": 3148,
      "result": 3149,
      "రాస్య": 3150,
      "arts": 3151,
      "ద్వీ": 3152,
      "overeign": 3153,
      "ake": 3154,
      "akh": 3155,
      "ములో": 3156,
      "ల్లో": 3157,
      "area": 3158,
      "స్తారు": 3159,
      "shar": 3160,
      "show": 3161,
      "तीन": 3162,
      "centre": 3163,
      "ided": 3164,
      "ultural": 3165,
      "spor": 3166,
      "weap": 3167,
      "meat": 3168,
      "సంఘ": 3169,
      "సంప్రదాయ": 3170,
      "స్థాన్": 3171,
      "बिधान": 3172,
      "ples": 3173,
      "prot": 3174,
      "process": 3175,
      "ively": 3176,
      "టిలో": 3177,
      "portion": 3178,
      "ishna": 3179,
      "ternational": 3180,
      "భారతదేశంలోని": 3181,
      "genous": 3182,
      "ival": 3183,
      "जनवरी": 3184,
      "टेक्": 3185,
      "aff": 3186,
      "anta": 3187,
      "avour": 3188,
      "maceut": 3189,
      "पुरु": 3190,
      "elites": 3191,
      "lows": 3192,
      "ంటే": 3193,
      "పాక్": 3194,
      "ously": 3195,
      "క్షరాస్య": 3196,
      "bodi": 3197,
      "ineering": 3198,
      "్చిమ": 3199,
      "lative": 3200,
      "uced": 3201,
      "स्थि": 3202,
      "కోట్ల": 3203,
      "दिहल": 3204,
      "ంచి": 3205,
      "కాశ్": 3206,
      "declar": 3207,
      "decades": 3208,
      "quality": 3209,
      "rica": 3210,
      "लगा": 3211,
      "स्कृतिक": 3212,
      "tax": 3213,
      "vidian": 3214,
      "గువ": 3215,
      "రైళ్ల": 3216,
      "రాష్ట్రాల": 3217,
      "elected": 3218,
      "here": 3219,
      "चुकल": 3220,
      "wards": 3221,
      "కేవలం": 3222,
      "వచ్చిన": 3223,
      "religion": 3224,
      "बंधीय": 3225,
      "Ancient": 3226,
      "కొన్ని": 3227,
      "మైనది": 3228,
      "extant": 3229,
      "Africa": 3230,
      "Maur": 3231,
      "చెందిన": 3232,
      "చెందు": 3233,
      "reduced": 3234,
      "rising": 3235,
      "డ్డు": 3236,
      "तुल": 3237,
      "Constit": 3238,
      "awa": 3239,
      "tea": 3240,
      "మేన": 3241,
      "amental": 3242,
      "స్థానం": 3243,
      "Euras": 3244,
      "garh": 3245,
      "ergy": 3246,
      "ప్రధానమంత్రి": 3247,
      "express": 3248,
      "influence": 3249,
      "others": 3250,
      "ఆర్థిక": 3251,
      "కరణ": 3252,
      "highest": 3253,
      "రాజ్యాలు": 3254,
      "traditionally": 3255,
      "history": 3256,
      "పూర్వ": 3257,
      "బాద్": 3258,
      "వారస": 3259,
      "వారి": 3260,
      "సభ్య": 3261,
      "foreign": 3262,
      "దక్షిణా": 3263,
      "अर्थब्यवस्था": 3264,
      "renew": 3265,
      "రోడ్డు": 3266,
      "ష్ణ": 3267,
      "constitutional": 3268,
      "ముఖ్యమైన": 3269,
      "appear": 3270,
      "colleg": 3271,
      "eight": 3272,
      "బడిన": 3273,
      "agricultural": 3274,
      "consolid": 3275,
      "mediately": 3276,
      "సాంప్రదాయ": 3277,
      "influences": 3278,
      "tropical": 3279,
      "కలిగి": 3280,
      "cooking": 3281,
      "ప్రభుత్వం": 3282,
      "Sea": 3283,
      "down": 3284,
      "oods": 3285,
      "single": 3286,
      "turned": 3287,
      "vention": 3288,
      "architect": 3289,
      "పాకిస్తాన్": 3290,
      "పాకిస్థాన్": 3291,
      "features": 3292,
      "commonly": 3293,
      "script": 3294,
      "greater": 3295,
      "దక్షిణాన": 3296,
      "directly": 3297,
      "पच्छिम": 3298,
      "Banglad": 3299,
      "crust": 3300,
      "పైగా": 3301,
      "relations": 3302,
      "సంస్కృతి": 3303,
      "సంగీతం": 3304,
      "సినిమా": 3305,
      "violence": 3306,
      "శాస్త్రం": 3307,
      "makes": 3308,
      "ఆధార": 3309,
      "నడిపించ": 3310,
      "బ్రిటి": 3311,
      "మూడు": 3312,
      "మాత్రం": 3313,
      "indigenous": 3314,
      "స్వతంత్ర": 3315,
      "స్వామ్య": 3316,
      "సామ్రా": 3317,
      "commercial": 3318,
      "బెంగాలీ": 3319,
      "mathematics": 3320,
      "built": 3321,
      "జాబితా": 3322,
      "ప్పటికీ": 3323,
      "waist": 3324,
      "सांस्कृतिक": 3325,
      "Gupta": 3326,
      "However": 3327,
      "dramas": 3328,
      "global": 3329,
      "house": 3330,
      "secular": 3331,
      "సర్వీ": 3332,
      "ataka": 3333,
      "recorded": 3334,
      "ప్రదేశ్": 3335,
      "estimated": 3336,
      "conducted": 3337,
      "important": 3338,
      "summer": 3339,
      "ముంబై": 3340,
      "continued": 3341,
      "వెబ్సై": 3342,
      "producer": 3343,
      "different": 3344,
      "established": 3345,
      "Carnatic": 3346,
      "Dravidian": 3347,
      "Greek": 3348,
      "Ghats": 3349,
      "Krishna": 3350,
      "Karnataka": 3351,
      "Mumbai": 3352,
      "Singh": 3353,
      "Tibet": 3354,
      "Uttar": 3355,
      "fundamental": 3356,
      "kameez": 3357,
      "pract": 3358,
      "pharmaceut": 3359,
      "sector": 3360,
      "कटिबंधीय": 3361,
      "ఆఫ్": 3362,
      "ఇన్ఫ": 3363,
      "పశ్చిమ": 3364,
      "బౌద్ధ": 3365,
      "హిమాల": 3366,
      "introdu": 3367,
      "enacted": 3368,
      "కుటుంబ": 3369,
      "resulting": 3370,
      "पुरुष": 3371,
      "క్షరాస్యత": 3372,
      "కాశ్మీ": 3373,
      "చెందుతున్న": 3374,
      "Bangladesh": 3375,
      "pharmaceutical": 3376,
      "64": 3377,
      "उठ": 3378,
      "कू": 3379,
      "खंड": 3380,
      "गै": 3381,
      "टा": 3382,
      "डिया": 3383,
      "फि": 3384,
      "लू": 3385,
      "वत": 3386,
      "श्रे": 3387,
      "ूह": 3388,
      "समूह": 3389,
      "निर्या": 3390,
      "घोषित": 3391,
      "पठार": 3392,
      "ंति": 3393,
      "अध": 3394,
      "अभी": 3395,
      "ऋतु": 3396,
      "कह": 3397,
      "गए": 3398,
      "जै": 3399,
      "जाना": 3400,
      "टन": 3401,
      "तो": 3402,
      "पब्": 3403,
      "फा": 3404,
      "भि": 3405,
      "भरा": 3406,
      "सरा": 3407,
      "ृत्य": 3408,
      "ेड": 3409,
      "१८": 3410,
      "केट": 3411,
      "प्रभाव": 3412,
      "पर्य": 3413,
      "विभि": 3414,
      "करता": 3415,
      "लाव": 3416,
      "होते": 3417,
      "किन": 3418,
      "जीडी": 3419,
      "पुरी": 3420,
      "रही": 3421,
      "पूर्वी": 3422,
      "इसकी": 3423,
      "मील": 3424,
      "१९५": 3425,
      "१९६": 3426,
      "बनाने": 3427,
      "द्योगिकी": 3428,
      "्रीका": 3429,
      "अमरी": 3430,
      "हिन्दू": 3431,
      "दर्शन": 3432,
      "२०१": 3433,
      "अफ्रीका": 3434,
      "समर्थन": 3435,
      "दृष्ट": 3436,
      "शब्द": 3437,
      "विभिन्न": 3438,
      "जीडीपी": 3439,
      "900": 3440,
      "अग": 3441,
      "गह": 3442,
      "गरी": 3443,
      "ट्र": 3444,
      "ट्ट": 3445,
      "दान": 3446,
      "धे": 3447,
      "नू": 3448,
      "पहु": 3449,
      "फ्रा": 3450,
      "रिक": 3451,
      "लड़ा": 3452,
      "सल्": 3453,
      "ोसी": 3454,
      "कानू": 3455,
      "प्रत्य": 3456,
      "न्ध": 3457,
      "वास": 3458,
      "सीधे": 3459,
      "नीचे": 3460,
      "सरे": 3461,
      "चीज": 3462,
      "स्वरूप": 3463,
      "मिलियन": 3464,
      "संघीय": 3465,
      "टिश": 3466,
      "शुरू": 3467,
      "पेक्ष": 3468,
      "निरपेक्ष": 3469,
      "तनत": 3470,
      "जून": 3471,
      "पड़ोसी": 3472,
      "विकसित": 3473,
      "उपमहाद्वीप": 3474,
      "ब्रिटिश": 3475,
      "सल्तनत": 3476,
      "27": 3477,
      "43": 3478,
      "Fact": 3479,
      "अने": 3480,
      "घर": 3481,
      "जाल": 3482,
      "ट्रा": 3483,
      "पो": 3484,
      "बज": 3485,
      "शाली": 3486,
      "शिक्": 3487,
      "सै": 3488,
      "ीक्षण": 3489,
      "र्ष": 3490,
      "परीक्षण": 3491,
      "संबिधान": 3492,
      "भागी": 3493,
      "देव": 3494,
      "माध्य": 3495,
      "कोर्ट": 3496,
      "समु": 3497,
      "किटेक्": 3498,
      "मिले": 3499,
      "वास्त": 3500,
      "पाँच": 3501,
      "पूरु": 3502,
      "बिबिध": 3503,
      "टेली": 3504,
      "update": 3505,
      "जीवन": 3506,
      "book": 3507,
      "मिलल": 3508,
      "जेह": 3509,
      "मंत्रिम": 3510,
      "कइलस": 3511,
      "कार्यकाल": 3512,
      "देखल": 3513,
      "मौर्य": 3514,
      "पच्छिमी": 3515,
      "इस्ला": 3516,
      "द्रो": 3517,
      "अउर": 3518,
      "आर्किटेक्": 3519,
      "तुलना": 3520,
      "Factbook": 3521,
      "अनेक": 3522,
      "शिक्षा": 3523,
      "माध्यम": 3524,
      "पूरुब": 3525,
      "आर्किटेक्चर": 3526,
      "आंद": 3527,
      "जैन": 3528,
      "डि": 3529,
      "डु": 3530,
      "फु": 3531,
      "मक": 3532,
      "मार्": 3533,
      "काज": 3534,
      "पात": 3535,
      "शामिल": 3536,
      "लोकसभा": 3537,
      "कामकाज": 3538,
      "गुजरात": 3539,
      "स्थिति": 3540,
      "गैर": 3541,
      "आंदोलन": 3542,
      "72": 3543,
      "पद": 3544,
      "फिर": 3545,
      "बाल": 3546,
      "सवी": 3547,
      "तेमाल": 3548,
      "स्वरुप": 3549,
      "प्राय": 3550,
      "स्टर": 3551,
      "एशियाई": 3552,
      "monsoon": 3553,
      "इस्तेमाल": 3554,
      "ायिका": 3555,
      "क्रिकेट": 3556,
      "श्रेणी": 3557,
      "अला": 3558,
      "उसके": 3559,
      "उच्च": 3560,
      "एन": 3561,
      "किये": 3562,
      "डाल": 3563,
      "नै": 3564,
      "नदिया": 3565,
      "नृत्य": 3566,
      "पि": 3567,
      "यक": 3568,
      "लों": 3569,
      "विय": 3570,
      "शक्त": 3571,
      "हू": 3572,
      "हरा": 3573,
      "िरा": 3574,
      "ौह": 3575,
      "ौद्योगिकी": 3576,
      "१५": 3577,
      "२४": 3578,
      "केवल": 3579,
      "ियम": 3580,
      "प्रया": 3581,
      "प्रौद्योगिकी": 3582,
      "190": 3583,
      "विमान": 3584,
      "करते": 3585,
      "त्री": 3586,
      "क्षर": 3587,
      "राजनै": 3588,
      "जाए": 3589,
      "कोई": 3590,
      "भील": 3591,
      "रूस": 3592,
      "शांति": 3593,
      "लीं": 3594,
      "ंत्रिक": 3595,
      "लोगों": 3596,
      "कृष": 3597,
      "भाषाएँ": 3598,
      "सरकारें": 3599,
      "जिसका": 3600,
      "ष्ठ": 3601,
      "बनाई": 3602,
      "पश्चिमी": 3603,
      "अन्तर": 3604,
      "जूद": 3605,
      "विस्तार": 3606,
      "घोषणा": 3607,
      "पर्वत": 3608,
      "छोटे": 3609,
      "अमेरिका": 3610,
      "कश्मीर": 3611,
      "कहते": 3612,
      "दृष्टि": 3613,
      "अलावा": 3614,
      "डालर": 3615,
      "नदियाँ": 3616,
      "वियत": 3617,
      "प्रयास": 3618,
      "राजनैतिक": 3619,
      "32": 3620,
      "60": 3621,
      "63": 3622,
      "82": 3623,
      "Aj": 3624,
      "Ash": 3625,
      "BN": 3626,
      "Bay": 3627,
      "Bio": 3628,
      "Cal": 3629,
      "Cap": 3630,
      "Cav": 3631,
      "DA": 3632,
      "Ei": 3633,
      "Ear": 3634,
      "Econ": 3635,
      "Fron": 3636,
      "Geograph": 3637,
      "IS": 3638,
      "Im": 3639,
      "Jhar": 3640,
      "Jamm": 3641,
      "Jawa": 3642,
      "Langu": 3643,
      "Lank": 3644,
      "Laksh": 3645,
      "Man": 3646,
      "Mid": 3647,
      "Mach": 3648,
      "Myan": 3649,
      "Nar": 3650,
      "Nag": 3651,
      "New": 3652,
      "NDA": 3653,
      "Oly": 3654,
      "Old": 3655,
      "Pu": 3656,
      "Pol": 3657,
      "Pall": 3658,
      "Shi": 3659,
      "She": 3660,
      "To": 3661,
      "Ter": 3662,
      "Treat": 3663,
      "Ur": 3664,
      "UPA": 3665,
      "Vi": 3666,
      "Yaksh": 3667,
      "Zoro": 3668,
      "aic": 3669,
      "bon": 3670,
      "bes": 3671,
      "bly": 3672,
      "bul": 3673,
      "bron": 3674,
      "cu": 3675,
      "cat": 3676,
      "cul": 3677,
      "crit": 3678,
      "coun": 3679,
      "cav": 3680,
      "came": 3681,
      "clim": 3682,
      "could": 3683,
      "cricket": 3684,
      "dri": 3685,
      "dro": 3686,
      "dha": 3687,
      "eat": 3688,
      "ely": 3689,
      "eet": 3690,
      "fo": 3691,
      "fall": 3692,
      "farm": 3693,
      "fash": 3694,
      "gn": 3695,
      "gas": 3696,
      "gri": 3697,
      "god": 3698,
      "gins": 3699,
      "goods": 3700,
      "han": 3701,
      "hal": 3702,
      "hol": 3703,
      "hub": 3704,
      "ii": 3705,
      "ith": 3706,
      "ily": 3707,
      "ifer": 3708,
      "ka": 3709,
      "kil": 3710,
      "kill": 3711,
      "lal": 3712,
      "law": 3713,
      "mor": 3714,
      "mig": 3715,
      "much": 3716,
      "mamm": 3717,
      "nd": 3718,
      "nation": 3719,
      "nei": 3720,
      "ove": 3721,
      "pat": 3722,
      "past": 3723,
      "pts": 3724,
      "ran": 3725,
      "ring": 3726,
      "run": 3727,
      "sil": 3728,
      "sol": 3729,
      "smo": 3730,
      "slow": 3731,
      "somet": 3732,
      "sites": 3733,
      "sovereign": 3734,
      "tand": 3735,
      "tre": 3736,
      "tic": 3737,
      "tak": 3738,
      "tree": 3739,
      "ttom": 3740,
      "texts": 3741,
      "ue": 3742,
      "uent": 3743,
      "va": 3744,
      "vic": 3745,
      "varn": 3746,
      "vara": 3747,
      "wana": 3748,
      "would": 3749,
      "अंतर": 3750,
      "आस": 3751,
      "कों": 3752,
      "खर": 3753,
      "जवना": 3754,
      "ढेर": 3755,
      "णाली": 3756,
      "पान": 3757,
      "ब्यापार": 3758,
      "बनावल": 3759,
      "शहर": 3760,
      "सहा": 3761,
      "हाल": 3762,
      "ोत्": 3763,
      "्ष": 3764,
      "ంకా": 3765,
      "అవి": 3766,
      "ఆక్రమ": 3767,
      "ఇవి": 3768,
      "ఇక్క": 3769,
      "ఇంగ్ల": 3770,
      "ఇస్లా": 3771,
      "ఉండ": 3772,
      "ఒకే": 3773,
      "కథ": 3774,
      "కూ": 3775,
      "కన్న": 3776,
      "కత్వ": 3777,
      "కింద": 3778,
      "కీర్": 3779,
      "గతి": 3780,
      "గ్రా": 3781,
      "చన": 3782,
      "చు": 3783,
      "చాల": 3784,
      "జాలు": 3785,
      "జరు": 3786,
      "జంబ": 3787,
      "జమ్": 3788,
      "టక": 3789,
      "టే": 3790,
      "టై": 3791,
      "టులు": 3792,
      "డిన": 3793,
      "తీ": 3794,
      "తె": 3795,
      "తే": 3796,
      "తము": 3797,
      "తులు": 3798,
      "తెలు": 3799,
      "నృ": 3800,
      "నది": 3801,
      "పీ": 3802,
      "పార్": 3803,
      "పిక్": 3804,
      "బి": 3805,
      "బంధ": 3806,
      "బంగ్ల": 3807,
      "బడ్డ": 3808,
      "భర": 3809,
      "భౌ": 3810,
      "మర": 3811,
      "మౌ": 3812,
      "మార": 3813,
      "మతి": 3814,
      "మంది": 3815,
      "మారు": 3816,
      "యింది": 3817,
      "యాలో": 3818,
      "రీ": 3819,
      "లీ": 3820,
      "లె": 3821,
      "లిం": 3822,
      "ళ్": 3823,
      "ళిక": 3824,
      "వులు": 3825,
      "వల్ల": 3826,
      "శీ": 3827,
      "శో": 3828,
      "శెల": 3829,
      "షన్": 3830,
      "సహ": 3831,
      "సులు": 3832,
      "సైన": 3833,
      "హై": 3834,
      "ాదేశ": 3835,
      "ాంగ": 3836,
      "ీలో": 3837,
      "ుకొ": 3838,
      "ూరు": 3839,
      "ెట్": 3840,
      "thor": 3841,
      "those": 3842,
      "threat": 3843,
      "andi": 3844,
      "anat": 3845,
      "anag": 3846,
      "anism": 3847,
      "anced": 3848,
      "another": 3849,
      "ind": 3850,
      "init": 3851,
      "incom": 3852,
      "institution": 3853,
      "then": 3854,
      "thes": 3855,
      "era": 3856,
      "erry": 3857,
      "onial": 3858,
      "arb": 3859,
      "araj": 3860,
      "alore": 3861,
      "energy": 3862,
      "discri": 3863,
      "ats": 3864,
      "ater": 3865,
      "ature": 3866,
      "edul": 3867,
      "ord": 3868,
      "oral": 3869,
      "oram": 3870,
      "anda": 3871,
      "ands": 3872,
      "asi": 3873,
      "isol": 3874,
      "reco": 3875,
      "recent": 3876,
      "reform": 3877,
      "report": 3878,
      "refer": 3879,
      "reven": 3880,
      "relative": 3881,
      "ita": 3882,
      "itions": 3883,
      "itated": 3884,
      "town": 3885,
      "today": 3886,
      "enter": 3887,
      "oming": 3888,
      "ాలకు": 3889,
      "ాలనే": 3890,
      "ాలెండ": 3891,
      "ured": 3892,
      "urid": 3893,
      "urred": 3894,
      "काफी": 3895,
      "leve": 3896,
      "స్టా": 3897,
      "ilar": 3898,
      "ilway": 3899,
      "ample": 3900,
      "प्रिय": 3901,
      "प्रणाली": 3902,
      "adwe": 3903,
      "adher": 3904,
      "added": 3905,
      "192": 3906,
      "olving": 3907,
      "ప్రారం": 3908,
      "rig": 3909,
      "rial": 3910,
      "rivers": 3911,
      "riya": 3912,
      "chi": 3913,
      "chos": 3914,
      "child": 3915,
      "changed": 3916,
      "cherry": 3917,
      "churid": 3918,
      "verty": 3919,
      "దేశీ": 3920,
      "దేశపు": 3921,
      "ర్త": 3922,
      "ర్ష": 3923,
      "ర్తి": 3924,
      "ర్పు": 3925,
      "ర్మే": 3926,
      "embly": 3927,
      "like": 3928,
      "ికా": 3929,
      "परभाव": 3930,
      "rap": 3931,
      "rather": 3932,
      "racy": 3933,
      "railway": 3934,
      "న్నది": 3935,
      "న్నారు": 3936,
      "नेह": 3937,
      "cean": 3938,
      "cept": 3939,
      "belong": 3940,
      "bell": 3941,
      "belief": 3942,
      "ute": 3943,
      "separ": 3944,
      "seals": 3945,
      "self": 3946,
      "estic": 3947,
      "loss": 3948,
      "loose": 3949,
      "గాంధ": 3950,
      "ush": 3951,
      "uni": 3952,
      "untouch": 3953,
      "irt": 3954,
      "devo": 3955,
      "angra": 3956,
      "imes": 3957,
      "impro": 3958,
      "immediately": 3959,
      "కులు": 3960,
      "నిస్తాన్": 3961,
      "విధ్య": 3962,
      "విభిన్న": 3963,
      "విద్య": 3964,
      "విదేశీ": 3965,
      "राजधान": 3966,
      "క్ట": 3967,
      "క్తి": 3968,
      "క్నాల": 3969,
      "त्न": 3970,
      "export": 3971,
      "exchange": 3972,
      "example": 3973,
      "ాతం": 3974,
      "ాతో": 3975,
      "ాత్": 3976,
      "ables": 3977,
      "above": 3978,
      "ducherry": 3979,
      "poverty": 3980,
      "reser": 3981,
      "దేశంగా": 3982,
      "ద్వార": 3983,
      "నులు": 3984,
      "నుంచి": 3985,
      "moist": 3986,
      "pers": 3987,
      "త్వా": 3988,
      "త్తా": 3989,
      "codi": 3990,
      "share": 3991,
      "ship": 3992,
      "shalwar": 3993,
      "ించే": 3994,
      "comp": 3995,
      "compan": 3996,
      "comprom": 3997,
      "idly": 3998,
      "राज्यसभा": 3999,
      "acter": 4000,
      "across": 4001,
      "spic": 4002,
      "wealth": 4003,
      "సంకీర్": 4004,
      "సంబంధ": 4005,
      "స్థి": 4006,
      "contain": 4007,
      "contains": 4008,
      "పురు": 4009,
      "plains": 4010,
      "Chand": 4011,
      "Chola": 4012,
      "porter": 4013,
      "ending": 4014,
      "formal": 4015,
      "gence": 4016,
      "ivity": 4017,
      "assert": 4018,
      "marked": 4019,
      "margins": 4020,
      "parts": 4021,
      "partic": 4022,
      "వాహ": 4023,
      "వాణి": 4024,
      "ంటు": 4025,
      "పాటు": 4026,
      "పాదన": 4027,
      "becoming": 4028,
      "bottom": 4029,
      "inequality": 4030,
      "latter": 4031,
      "ocracy": 4032,
      "కోల్": 4033,
      "నేపాల": 4034,
      "రాజు": 4035,
      "Indones": 4036,
      "కూడుకు": 4037,
      "జాతి": 4038,
      "decade": 4039,
      "governments": 4040,
      "primary": 4041,
      "ట్టమొదటి": 4042,
      "తరాలు": 4043,
      "నాగర": 4044,
      "populous": 4045,
      "ద్ధం": 4046,
      "portal": 4047,
      "పేర్లు": 4048,
      "పేర్కొ": 4049,
      "మొట్టమొదటి": 4050,
      "harlal": 4051,
      "మాబాద్": 4052,
      "లిచ": 4053,
      "engineering": 4054,
      "सुरुआत": 4055,
      "view": 4056,
      "గుర్త": 4057,
      "చేసింది": 4058,
      "వేల": 4059,
      "oka": 4060,
      "achal": 4061,
      "heredi": 4062,
      "poll": 4063,
      "coral": 4064,
      "పాలించ": 4065,
      "వచ్చు": 4066,
      "classes": 4067,
      "ministers": 4068,
      "castes": 4069,
      "extensive": 4070,
      "Buddha": 4071,
      "maint": 4072,
      "వ్యవస్థలో": 4073,
      "क्रय": 4074,
      "cause": 4075,
      "తుంది": 4076,
      "త్యం": 4077,
      "action": 4078,
      "eff": 4079,
      "khand": 4080,
      "ఎన్నిక": 4081,
      "పెనీ": 4082,
      "urbanisation": 4083,
      "ology": 4084,
      "folk": 4085,
      "milk": 4086,
      "लोकप्रिय": 4087,
      "बनल": 4088,
      "garment": 4089,
      "garlic": 4090,
      "less": 4091,
      "త్రి": 4092,
      "దాపు": 4093,
      "దాదాపు": 4094,
      "వర్ణ": 4095,
      "హిందీ": 4096,
      "setting": 4097,
      "expans": 4098,
      "northwest": 4099,
      "Modi": 4100,
      "Modern": 4101,
      "Mohen": 4102,
      "merch": 4103,
      "నాలుగు": 4104,
      "మతాలు": 4105,
      "ప్రజల": 4106,
      "ప్రజలు": 4107,
      "భాషా": 4108,
      "రాజ్యాంగ": 4109,
      "मोहन": 4110,
      "Sikk": 4111,
      "జనాభ": 4112,
      "వెనుక": 4113,
      "శ్రీ": 4114,
      "Himalayan": 4115,
      "Punjabi": 4116,
      "बड़हन": 4117,
      "president": 4118,
      "rency": 4119,
      "surround": 4120,
      "पैदा": 4121,
      "armies": 4122,
      "హిందూదేశం": 4123,
      "colonial": 4124,
      "eval": 4125,
      "gave": 4126,
      "key": 4127,
      "pura": 4128,
      "promin": 4129,
      "schedul": 4130,
      "బడత": 4131,
      "బడింది": 4132,
      "మహా": 4133,
      "వీటిలో": 4134,
      "office": 4135,
      "స్కృతిక": 4136,
      "forests": 4137,
      "consists": 4138,
      "విస్తర": 4139,
      "విస్తారు": 4140,
      "contributions": 4141,
      "player": 4142,
      "played": 4143,
      "generated": 4144,
      "generally": 4145,
      "సాంస్కృతిక": 4146,
      "ographics": 4147,
      "उनके": 4148,
      "नियर": 4149,
      "Democratic": 4150,
      "Demographics": 4151,
      "manuscri": 4152,
      "ఉంటుంది": 4153,
      "కలిసి": 4154,
      "జనగణ": 4155,
      "ుకుంట": 4156,
      "ankar": 4157,
      "disputes": 4158,
      "signed": 4159,
      "society": 4160,
      "mathematical": 4161,
      "ిత్రక": 4162,
      "క్రీడలు": 4163,
      "Sikhism": 4164,
      "తరువాతి": 4165,
      "Shankar": 4166,
      "Janata": 4167,
      "bread": 4168,
      "breath": 4169,
      "currency": 4170,
      "turn": 4171,
      "tribal": 4172,
      "ఉపఖండ": 4173,
      "లేదా": 4174,
      "ometres": 4175,
      "strong": 4176,
      "strength": 4177,
      "సాధించ": 4178,
      "ఉత్తరాన": 4179,
      "transmit": 4180,
      "original": 4181,
      "originally": 4182,
      "विकासशील": 4183,
      "Bangalore": 4184,
      "cultural": 4185,
      "cultures": 4186,
      "capita": 4187,
      "crucial": 4188,
      "drain": 4189,
      "క్యాలెండ": 4190,
      "టెక్నాల": 4191,
      "ుకోవడ": 4192,
      "animals": 4193,
      "related": 4194,
      "remaining": 4195,
      "ప్రతిపాదన": 4196,
      "marriages": 4197,
      "సినిమాలు": 4198,
      "శాస్త్రీయ": 4199,
      "supported": 4200,
      "historical": 4201,
      "సరిహద్దుగా": 4202,
      "छोट": 4203,
      "अउरी": 4204,
      "आगमन": 4205,
      "Assam": 4206,
      "Assembly": 4207,
      "borders": 4208,
      "guard": 4209,
      "gradually": 4210,
      "natal": 4211,
      "आपन": 4212,
      "కంపెనీ": 4213,
      "తూర్పు": 4214,
      "నగరాలు": 4215,
      "వైవిధ్య": 4216,
      "సమాఖ్య": 4217,
      "dishes": 4218,
      "status": 4219,
      "emperor": 4220,
      "endemic": 4221,
      "కోర్టు": 4222,
      "కోర్టులు": 4223,
      "ఒకటిగా": 4224,
      "మొదలైన": 4225,
      "ప్రజాదర": 4226,
      "ప్రజాస్వామ్య": 4227,
      "Islamic": 4228,
      "సింధు": 4229,
      "పట్టణాలు": 4230,
      "ఏర్పడ్డ": 4231,
      "బహుళ": 4232,
      "Civilisation": 4233,
      "North": 4234,
      "average": 4235,
      "black": 4236,
      "broad": 4237,
      "having": 4238,
      "multi": 4239,
      "oppos": 4240,
      "passing": 4241,
      "trade": 4242,
      "wildlife": 4243,
      "తమిళం": 4244,
      "పతకాలు": 4245,
      "పొందిన": 4246,
      "పద్ధతి": 4247,
      "పండుగలు": 4248,
      "independence": 4249,
      "distinct": 4250,
      "organisation": 4251,
      "ission": 4252,
      "struct": 4253,
      "administration": 4254,
      "liberal": 4255,
      "against": 4256,
      "respon": 4257,
      "residents": 4258,
      "provided": 4259,
      "Hindustani": 4260,
      "వ్యాపార": 4261,
      "subsequent": 4262,
      "policies": 4263,
      "కార్యక్రమ": 4264,
      "increasingly": 4265,
      "legislat": 4266,
      "పరిశ్రమలు": 4267,
      "schools": 4268,
      "Arabian": 4269,
      "సముద్రం": 4270,
      "speakers": 4271,
      "స్వాతంత్ర్య": 4272,
      "నిర్వహణ": 4273,
      "जानल": 4274,
      "सिंह": 4275,
      "Akbar": 4276,
      "Aryan": 4277,
      "Bihar": 4278,
      "Country": 4279,
      "Desert": 4280,
      "Deccan": 4281,
      "Marath": 4282,
      "Malay": 4283,
      "Manipur": 4284,
      "Park": 4285,
      "basin": 4286,
      "daro": 4287,
      "festival": 4288,
      "habit": 4289,
      "nominal": 4290,
      "predomin": 4291,
      "similar": 4292,
      "safe": 4293,
      "written": 4294,
      "చారిత్రక": 4295,
      "జన్మ": 4296,
      "డాలర్లు": 4297,
      "reached": 4298,
      "oulder": 4299,
      "adopt": 4300,
      "character": 4301,
      "vegetari": 4302,
      "weapons": 4303,
      "సంప్రదాయాలు": 4304,
      "protected": 4305,
      "declared": 4306,
      "రైళ్లను": 4307,
      "Maurya": 4308,
      "Constituent": 4309,
      "వారసత్వ": 4310,
      "దక్షిణాసియా": 4311,
      "colleges": 4312,
      "సాంప్రదాయిక": 4313,
      "architecture": 4314,
      "సర్వీసులు": 4315,
      "వెబ్సైటు": 4316,
      "practices": 4317,
      "ఆఫ్ఘ": 4318,
      "ఇన్ఫర్మే": 4319,
      "introduced": 4320,
      "फ्रांस": 4321,
      "ट्राफी": 4322,
      "समुंद्र": 4323,
      "टेलीवि": 4324,
      "Ajanta": 4325,
      "Ashoka": 4326,
      "Caves": 4327,
      "Early": 4328,
      "Front": 4329,
      "ISBN": 4330,
      "Jharkhand": 4331,
      "Jammu": 4332,
      "Jawaharlal": 4333,
      "Languages": 4334,
      "Lakshadwe": 4335,
      "Middle": 4336,
      "Myanmar": 4337,
      "Olymp": 4338,
      "Puducherry": 4339,
      "Pallav": 4340,
      "Shiva": 4341,
      "Treaty": 4342,
      "Urdu": 4343,
      "Zoroastri": 4344,
      "cattle": 4345,
      "eaten": 4346,
      "kilometres": 4347,
      "laws": 4348,
      "mammals": 4349,
      "sometimes": 4350,
      "sovereignty": 4351,
      "tandoor": 4352,
      "vict": 4353,
      "ఇస్లామాబాద్": 4354,
      "కన్నడ": 4355,
      "చాలా": 4356,
      "జరుపు": 4357,
      "జంబూ": 4358,
      "జమ్మూ": 4359,
      "తెలుగు": 4360,
      "పీఠ": 4361,
      "బంగ్లాదేశ": 4362,
      "ళ్ళ": 4363,
      "శెలవు": 4364,
      "income": 4365,
      "araja": 4366,
      "discrimin": 4367,
      "recogn": 4368,
      "revenues": 4369,
      "ప్రారంభ": 4370,
      "chosen": 4371,
      "churidars": 4372,
      "bellion": 4373,
      "గాంధీ": 4374,
      "devotion": 4375,
      "राजधानी": 4376,
      "ద్వారా": 4377,
      "త్వాన్ని": 4378,
      "companies": 4379,
      "compromise": 4380,
      "వాణిజ్య": 4381,
      "Indonesia": 4382,
      "నాగరికత": 4383,
      "Mohenjo": 4384,
      "Sikkim": 4385,
      "వెనుకటి": 4386,
      "scheduled": 4387,
      "transmitted": 4388,
      "క్యాలెండర్": 4389,
      "టెక్నాలజీ": 4390,
      "ప్రజాదరణ": 4391,
      "ఇన్ఫర్మేషన్": 4392,
      "Lakshadweep": 4393,
      "अक्ट": 4394,
      "कन्न": 4395,
      "खन": 4396,
      "गढ़": 4397,
      "जय": 4398,
      "झार": 4399,
      "टल": 4400,
      "ठी": 4401,
      "तार": 4402,
      "नम": 4403,
      "नौ": 4404,
      "रख": 4405,
      "श्र": 4406,
      "हत्या": 4407,
      "ाम": 4408,
      "ुस्तान": 4409,
      "ूबर": 4410,
      "स्ता": 4411,
      "सामान": 4412,
      "परिण": 4413,
      "राजस्थान": 4414,
      "मानव": 4415,
      "सिख": 4416,
      "दाय": 4417,
      "म्ब": 4418,
      "निर्भर": 4419,
      "संघर्ष": 4420,
      "न्यायपालिका": 4421,
      "लंका": 4422,
      "आगे": 4423,
      "घाटी": 4424,
      "प्रचलित": 4425,
      "भागीदारी": 4426,
      "फुट": 4427,
      "अक्टूबर": 4428,
      "परिणाम": 4429,
      "ंश": 4430,
      "आठ": 4431,
      "गू": 4432,
      "थि": 4433,
      "नो": 4434,
      "नया": 4435,
      "भे": 4436,
      "भक्ति": 4437,
      "मरा": 4438,
      "महल": 4439,
      "मजब": 4440,
      "वें": 4441,
      "ोक": 4442,
      "प्रभा": 4443,
      "क्स": 4444,
      "नाडु": 4445,
      "ताज": 4446,
      "हित": 4447,
      "त्मक": 4448,
      "ंग्": 4449,
      "तेज": 4450,
      "गोल": 4451,
      "म्प": 4452,
      "महासागर": 4453,
      "जोर": 4454,
      "िकांश": 4455,
      "सूत्र": 4456,
      "यूरे": 4457,
      "तमिलनाडु": 4458,
      "महारा": 4459,
      "नियु": 4460,
      "ोजना": 4461,
      "महत्वपूर्ण": 4462,
      "संगम": 4463,
      "अधिकांश": 4464,
      "मजबूत": 4465,
      "प्रभावित": 4466,
      "महाराष्ट्र": 4467,
      "04": 4468,
      "74": 4469,
      "75": 4470,
      "83": 4471,
      "93": 4472,
      "Aust": 4473,
      "आजा": 4474,
      "उदा": 4475,
      "कथा": 4476,
      "कहल": 4477,
      "थक": 4478,
      "धार्": 4479,
      "बु": 4480,
      "chived": 4481,
      "ंदर": 4482,
      "ष्ट्रीय": 4483,
      "्राष्ट्रीय": 4484,
      "खेती": 4485,
      "हरण": 4486,
      "ोलियम": 4487,
      "टीवी": 4488,
      "दुसरा": 4489,
      "पेट्र": 4490,
      "Archived": 4491,
      "कपड़ा": 4492,
      "बदलाव": 4493,
      "शास्त्रीय": 4494,
      "मणि": 4495,
      "Austral": 4496,
      "उदाहरण": 4497,
      "धार्मिक": 4498,
      "पेट्रोलियम": 4499,
      "517": 4500,
      "81": 4501,
      "94": 4502,
      "νδ": 4503,
      "आइल": 4504,
      "इंद": 4505,
      "उसे": 4506,
      "उन्हें": 4507,
      "एव": 4508,
      "क्यों": 4509,
      "चान": 4510,
      "चली": 4511,
      "जमा": 4512,
      "जइसे": 4513,
      "टर": 4514,
      "नव": 4515,
      "नियों": 4516,
      "फैली": 4517,
      "बडी": 4518,
      "मस": 4519,
      "मना": 4520,
      "यहाँ": 4521,
      "लियन": 4522,
      "वै": 4523,
      "व्या": 4524,
      "हॉ": 4525,
      "हले": 4526,
      "िस": 4527,
      "िनी": 4528,
      "ेक्षा": 4529,
      "१०": 4530,
      "२२": 4531,
      "कालीन": 4532,
      "ानों": 4533,
      "प्री": 4534,
      "प्रका": 4535,
      "प्रसि": 4536,
      "प्रदान": 4537,
      "नागर": 4538,
      "परब": 4539,
      "विरो": 4540,
      "विशेष": 4541,
      "करती": 4542,
      "ियां": 4543,
      "राजवंश": 4544,
      "माता": 4545,
      "हाकी": 4546,
      "होना": 4547,
      "समझ": 4548,
      "समृद्ध": 4549,
      "किए": 4550,
      "किसी": 4551,
      "पाया": 4552,
      "पापु": 4553,
      "निम्": 4554,
      "निवेश": 4555,
      "एकरा": 4556,
      "राज्यन": 4557,
      "मानल": 4558,
      "जिन्हें": 4559,
      "इसमें": 4560,
      "इसका": 4561,
      "लिस्ट": 4562,
      "मुखिया": 4563,
      "भाषाएं": 4564,
      "184": 4565,
      "188": 4566,
      "उपयोग": 4567,
      "सामरिक": 4568,
      "बढ़कर": 4569,
      "चलन": 4570,
      "बरिस": 4571,
      "सूची": 4572,
      "सूचना": 4573,
      "प्रदेशों": 4574,
      "कारणी": 4575,
      "ष्क": 4576,
      "मैदानी": 4577,
      "मोदी": 4578,
      "बनाया": 4579,
      "दक्खिनी": 4580,
      "कार्यपालिका": 4581,
      "कार्यकारणी": 4582,
      "जिनमें": 4583,
      "इनहन": 4584,
      "शुष्क": 4585,
      "पहिले": 4586,
      "संबंधों": 4587,
      "सदस्यों": 4588,
      "लंबे": 4589,
      "सोवियत": 4590,
      "ण्डल": 4591,
      "उपमहादीप": 4592,
      "भाषी": 4593,
      "ऊँची": 4594,
      "हिंदी": 4595,
      "समाप्त": 4596,
      "जैसे": 4597,
      "पब्लिक": 4598,
      "पर्यटन": 4599,
      "अमरीकी": 4600,
      "जालें": 4601,
      "बजट": 4602,
      "सैनिक": 4603,
      "मंत्रिमण्डल": 4604,
      "कृषि": 4605,
      "सहायक": 4606,
      "इंदिरा": 4607,
      "हॉकी": 4608,
      "नागरिक": 4609,
      "पापुलर": 4610,
      "निम्न": 4611,
      "ंच": 4612,
      "अर्": 4613,
      "आर": 4614,
      "ईद": 4615,
      "कट": 4616,
      "कंप": 4617,
      "गों": 4618,
      "छह": 4619,
      "जं": 4620,
      "टना": 4621,
      "डा": 4622,
      "ढा": 4623,
      "तब": 4624,
      "तरा": 4625,
      "थान": 4626,
      "बल": 4627,
      "भु": 4628,
      "यन": 4629,
      "रखा": 4630,
      "रत्न": 4631,
      "वृद्ध": 4632,
      "सर्": 4633,
      "हार": 4634,
      "हारी": 4635,
      "प्रगति": 4636,
      "प्रभु": 4637,
      "विध": 4638,
      "विद्रो": 4639,
      "कारी": 4640,
      "दीव": 4641,
      "सम्रा": 4642,
      "पुड़ा": 4643,
      "प्ति": 4644,
      "गुट": 4645,
      "केंद्रीय": 4646,
      "न्याया": 4647,
      "स्थानीय": 4648,
      "राजनीति": 4649,
      "मूल्य": 4650,
      "अवशेष": 4651,
      "मालदीव": 4652,
      "वर्णन": 4653,
      "पहाड़": 4654,
      "पहाड़ी": 4655,
      "श्रीलंका": 4656,
      "सतपुड़ा": 4657,
      "पत्ति": 4658,
      "लगातार": 4659,
      "अगस्त": 4660,
      "पहुँच": 4661,
      "इस्लाम": 4662,
      "ोत्तर": 4663,
      "गोंड": 4664,
      "वृद्धि": 4665,
      "विद्रोह": 4666,
      "सम्राट": 4667,
      "अश": 4668,
      "गान": 4669,
      "गाल": 4670,
      "घु": 4671,
      "घरे": 4672,
      "तल": 4673,
      "तन्": 4674,
      "भो": 4675,
      "मशी": 4676,
      "यर": 4677,
      "याल": 4678,
      "वस": 4679,
      "शियन": 4680,
      "ह्": 4681,
      "केरल": 4682,
      "मेंट": 4683,
      "साझ": 4684,
      "बाढ़": 4685,
      "बांग्": 4686,
      "नेट": 4687,
      "लाई": 4688,
      "भाजन": 4689,
      "मात्र": 4690,
      "ंगी": 4691,
      "्टवे": 4692,
      "माने": 4693,
      "मान्यता": 4694,
      "तेलु": 4695,
      "पुन": 4696,
      "वेद": 4697,
      "सरकारी": 4698,
      "स्थाई": 4699,
      "दिवस": 4700,
      "सुधार": 4701,
      "क्रम": 4702,
      "अंग्रेज": 4703,
      "जिनके": 4704,
      "शुरुआत": 4705,
      "कर्ष": 4706,
      "कर्नाटक": 4707,
      "संसदीय": 4708,
      "भरत": 4709,
      "बोध": 4710,
      "ब्रह्": 4711,
      "ग्रह": 4712,
      "पंजाबी": 4713,
      "घाट": 4714,
      "गुजराती": 4715,
      "मलयाल": 4716,
      "प्रचलन": 4717,
      "असमिया": 4718,
      "निर्यात": 4719,
      "झारखंड": 4720,
      "मराठी": 4721,
      "ताजमहल": 4722,
      "यूरेशियन": 4723,
      "अशोक": 4724,
      "घरेलू": 4725,
      "तन्त्र": 4726,
      "मशीन": 4727,
      "बांग्ला": 4728,
      "्टवेयर": 4729,
      "मलयालम": 4730,
      "140": 4731,
      "ंथ": 4732,
      "ंबर": 4733,
      "ईसवी": 4734,
      "ओडि": 4735,
      "कड़ी": 4736,
      "चले": 4737,
      "जगह": 4738,
      "टै": 4739,
      "डे": 4740,
      "पक": 4741,
      "भवन": 4742,
      "भोज": 4743,
      "योजना": 4744,
      "वर": 4745,
      "वान": 4746,
      "सल": 4747,
      "सत्": 4748,
      "िता": 4749,
      "ेंज": 4750,
      "र्त": 4751,
      "क्शन": 4752,
      "बाहर": 4753,
      "संर": 4754,
      "ड़ें": 4755,
      "खाड़ी": 4756,
      "बीसी": 4757,
      "चलते": 4758,
      "टीम": 4759,
      "भूगोल": 4760,
      "लोकतंत्र": 4761,
      "मध्यकाल": 4762,
      "दूर": 4763,
      "मौजूद": 4764,
      "ग्रंथ": 4765,
      "उष्णकटिबंधीय": 4766,
      "नियुक्त": 4767,
      "भोजपुरी": 4768,
      "07": 4769,
      "130": 4770,
      "250": 4771,
      "39": 4772,
      "41": 4773,
      "44": 4774,
      "53": 4775,
      "59": 4776,
      "62": 4777,
      "68": 4778,
      "87": 4779,
      "Ab": 4780,
      "At": 4781,
      "Ach": 4782,
      "Alig": 4783,
      "Ahm": 4784,
      "Agency": 4785,
      "BB": 4786,
      "Ba": 4787,
      "Bal": 4788,
      "Bet": 4789,
      "CI": 4790,
      "Cl": 4791,
      "Can": 4792,
      "Col": 4793,
      "Cup": 4794,
      "Clim": 4795,
      "Culture": 4796,
      "Cricket": 4797,
      "Dis": 4798,
      "Dom": 4799,
      "Ex": 4800,
      "Eas": 4801,
      "Ety": 4802,
      "Emer": 4803,
      "Fol": 4804,
      "Fem": 4805,
      "From": 4806,
      "Fore": 4807,
      "Go": 4808,
      "Gen": 4809,
      "Gang": 4810,
      "Gate": 4811,
      "Gold": 4812,
      "Ha": 4813,
      "He": 4814,
      "Hist": 4815,
      "Him": 4816,
      "Jun": 4817,
      "Jud": 4818,
      "Kon": 4819,
      "Kal": 4820,
      "Kad": 4821,
      "Kol": 4822,
      "Kath": 4823,
      "Kann": 4824,
      "Kaver": 4825,
      "Li": 4826,
      "Lord": 4827,
      "Medi": 4828,
      "Ni": 4829,
      "No": 4830,
      "Nat": 4831,
      "Network": 4832,
      "Nanda": 4833,
      "Oc": 4834,
      "On": 4835,
      "Or": 4836,
      "Over": 4837,
      "Out": 4838,
      "Odish": 4839,
      "Oriya": 4840,
      "Ocean": 4841,
      "PP": 4842,
      "Pe": 4843,
      "Pl": 4844,
      "Pr": 4845,
      "Pal": 4846,
      "Pri": 4847,
      "Part": 4848,
      "Prol": 4849,
      "President": 4850,
      "Ri": 4851,
      "So": 4852,
      "San": 4853,
      "Sal": 4854,
      "Sat": 4855,
      "Sang": 4856,
      "Sim": 4857,
      "Sab": 4858,
      "Sant": 4859,
      "Soc": 4860,
      "Sub": 4861,
      "Some": 4862,
      "Sarn": 4863,
      "Sultanate": 4864,
      "Sund": 4865,
      "Var": 4866,
      "Vis": 4867,
      "Vaj": 4868,
      "Vedi": 4869,
      "Way": 4870,
      "Women": 4871,
      "Yar": 4872,
      "aː": 4873,
      "aem": 4874,
      "aim": 4875,
      "aud": 4876,
      "aism": 4877,
      "bi": 4878,
      "bed": 4879,
      "bra": 4880,
      "best": 4881,
      "blo": 4882,
      "buc": 4883,
      "brough": 4884,
      "bird": 4885,
      "bably": 4886,
      "cin": 4887,
      "cit": 4888,
      "cing": 4889,
      "cil": 4890,
      "cation": 4891,
      "cus": 4892,
      "cover": 4893,
      "city": 4894,
      "clear": 4895,
      "cris": 4896,
      "cere": 4897,
      "cines": 4898,
      "cake": 4899,
      "da": 4900,
      "dy": 4901,
      "dre": 4902,
      "dent": 4903,
      "dest": 4904,
      "dus": 4905,
      "dry": 4906,
      "dates": 4907,
      "data": 4908,
      "ee": 4909,
      "each": 4910,
      "eously": 4911,
      "fr": 4912,
      "fil": 4913,
      "ful": 4914,
      "fac": 4915,
      "fel": 4916,
      "flow": 4917,
      "flect": 4918,
      "fused": 4919,
      "free": 4920,
      "flower": 4921,
      "food": 4922,
      "favour": 4923,
      "gl": 4924,
      "gin": 4925,
      "gro": 4926,
      "gir": 4927,
      "gig": 4928,
      "give": 4929,
      "govern": 4930,
      "gold": 4931,
      "gained": 4932,
      "hā": 4933,
      "hon": 4934,
      "hor": 4935,
      "ham": 4936,
      "hun": 4937,
      "hous": 4938,
      "hoc": 4939,
      "hya": 4940,
      "hind": 4941,
      "if": 4942,
      "ior": 4943,
      "iri": 4944,
      "ira": 4945,
      "idu": 4946,
      "iant": 4947,
      "ified": 4948,
      "jay": 4949,
      "jac": 4950,
      "kn": 4951,
      "ks": 4952,
      "kar": 4953,
      "kur": 4954,
      "kani": 4955,
      "kata": 4956,
      "lin": 4957,
      "len": 4958,
      "list": 4959,
      "lab": 4960,
      "lav": 4961,
      "lines": 4962,
      "lung": 4963,
      "length": 4964,
      "mn": 4965,
      "ms": 4966,
      "my": 4967,
      "mand": 4968,
      "may": 4969,
      "mass": 4970,
      "mount": 4971,
      "males": 4972,
      "mater": 4973,
      "mology": 4974,
      "nin": 4975,
      "ner": 4976,
      "nar": 4977,
      "nic": 4978,
      "next": 4979,
      "nearly": 4980,
      "network": 4981,
      "oth": 4982,
      "och": 4983,
      "otal": 4984,
      "oti": 4985,
      "open": 4986,
      "pet": 4987,
      "piv": 4988,
      "pically": 4989,
      "push": 4990,
      "rast": 4991,
      "rist": 4992,
      "rical": 4993,
      "rine": 4994,
      "ranges": 4995,
      "sa": 4996,
      "sal": 4997,
      "sit": 4998,
      "sli": 4999,
      "sac": 5000,
      "sci": 5001,
      "saw": 5002,
      "savour": 5003,
      "tem": 5004,
      "tun": 5005,
      "ties": 5006,
      "ture": 5007,
      "tary": 5008,
      "tig": 5009,
      "tta": 5010,
      "text": 5011,
      "table": 5012,
      "treat": 5013,
      "temper": 5014,
      "ug": 5015,
      "ugu": 5016,
      "ufact": 5017,
      "ves": 5018,
      "vol": 5019,
      "vul": 5020,
      "vary": 5021,
      "valley": 5022,
      "wal": 5023,
      "wet": 5024,
      "wood": 5025,
      "wanted": 5026,
      "xed": 5027,
      "yam": 5028,
      "zes": 5029,
      "zed": 5030,
      "zone": 5031,
      "अंड": 5032,
      "ईपू": 5033,
      "ओह": 5034,
      "करा": 5035,
      "कइले": 5036,
      "ठे": 5037,
      "डल": 5038,
      "तह": 5039,
      "थार": 5040,
      "थिक": 5041,
      "नल": 5042,
      "फेड": 5043,
      "बता": 5044,
      "बिया": 5045,
      "भयल": 5046,
      "लड़": 5047,
      "सगरी": 5048,
      "ంక": 5049,
      "అణ": 5050,
      "అవ": 5051,
      "అహ": 5052,
      "అంత": 5053,
      "అరు": 5054,
      "అంట": 5055,
      "అన్ని": 5056,
      "అప్": 5057,
      "అమె": 5058,
      "అక్షరాస్యత": 5059,
      "అశో": 5060,
      "ఆహ": 5061,
      "ఆదాయ": 5062,
      "ఇదే": 5063,
      "ఇండ": 5064,
      "ఇటీ": 5065,
      "ఇంకా": 5066,
      "ఈశ": 5067,
      "ఈస్": 5068,
      "ఎడ": 5069,
      "ఎల": 5070,
      "ఎక్": 5071,
      "ఏప్ర": 5072,
      "ఐరో": 5073,
      "ఐక్య": 5074,
      "ఒలం": 5075,
      "కలు": 5076,
      "కర్": 5077,
      "కిక": 5078,
      "కాత": 5079,
      "కను": 5080,
      "కనుక": 5081,
      "కంటే": 5082,
      "కబడ్డ": 5083,
      "ఖో": 5084,
      "ఖని": 5085,
      "గత": 5086,
      "గమ": 5087,
      "గర్": 5088,
      "గంగ": 5089,
      "గమన": 5090,
      "గెలు": 5091,
      "చద": 5092,
      "చయ": 5093,
      "చీ": 5094,
      "చూ": 5095,
      "చవి": 5096,
      "చూడ": 5097,
      "చించిన": 5098,
      "చుకోవడ": 5099,
      "జల": 5100,
      "జో": 5101,
      "జిక": 5102,
      "జ్యం": 5103,
      "ట్ర": 5104,
      "టన్": 5105,
      "టలు": 5106,
      "టర్": 5107,
      "టాన్": 5108,
      "డైన": 5109,
      "ఢా": 5110,
      "ణులు": 5111,
      "తర్": 5112,
      "తను": 5113,
      "తంలో": 5114,
      "తంగా": 5115,
      "తత్వ": 5116,
      "తక్కువ": 5117,
      "థాలు": 5118,
      "థ్యం": 5119,
      "దర్": 5120,
      "దగా": 5121,
      "దరా": 5122,
      "దండ": 5123,
      "దులు": 5124,
      "ధీన": 5125,
      "నం": 5126,
      "నూ": 5127,
      "నిక": 5128,
      "పలు": 5129,
      "పవి": 5130,
      "ప్ల": 5131,
      "పడు": 5132,
      "పల్ల": 5133,
      "పర్వ": 5134,
      "పతా": 5135,
      "పక్క": 5136,
      "పడిన": 5137,
      "ఫల": 5138,
      "బు": 5139,
      "బంగ": 5140,
      "భవ": 5141,
      "భక్తి": 5142,
      "మద": 5143,
      "మో": 5144,
      "మాత": 5145,
      "మిత": 5146,
      "మరో": 5147,
      "యాత్ర": 5148,
      "యమించ": 5149,
      "రకాలు": 5150,
      "రికా": 5151,
      "రచయ": 5152,
      "లౌ": 5153,
      "లిక": 5154,
      "లకొ": 5155,
      "లమె": 5156,
      "లస్య": 5157,
      "ళా": 5158,
      "ళి": 5159,
      "వం": 5160,
      "వత": 5161,
      "విం": 5162,
      "వంత": 5163,
      "వరు": 5164,
      "వైన": 5165,
      "వార్": 5166,
      "వత్ర": 5167,
      "వనాలు": 5168,
      "వాయు": 5169,
      "శక": 5170,
      "శి": 5171,
      "శై": 5172,
      "శకు": 5173,
      "శాతం": 5174,
      "షం": 5175,
      "షయాలు": 5176,
      "సన": 5177,
      "సీ": 5178,
      "సె": 5179,
      "స్ర": 5180,
      "సాల": 5181,
      "సరా": 5182,
      "సిక్": 5183,
      "హో": 5184,
      "హ్ర": 5185,
      "ామ": 5186,
      "ాన్ని": 5187,
      "ాడే": 5188,
      "ిగా": 5189,
      "ీం": 5190,
      "ీక్ష": 5191,
      "ీషు": 5192,
      "ుత్": 5193,
      "ుపూర్వ": 5194,
      "ూపం": 5195,
      "ూనది": 5196,
      "ోత్": 5197,
      "ోంది": 5198,
      "ౌర": 5199,
      "్వ": 5200,
      "Ἰνδ": 5201,
      "thm": 5202,
      "ane": 5203,
      "aning": 5204,
      "ancy": 5205,
      "inform": 5206,
      "inno": 5207,
      "inated": 5208,
      "inces": 5209,
      "indh": 5210,
      "international": 5211,
      "erc": 5212,
      "erly": 5213,
      "onic": 5214,
      "only": 5215,
      "onset": 5216,
      "onomet": 5217,
      "aris": 5218,
      "arter": 5219,
      "ardis": 5220,
      "aled": 5221,
      "alam": 5222,
      "alty": 5223,
      "enn": 5224,
      "ening": 5225,
      "enab": 5226,
      "enhouse": 5227,
      "did": 5228,
      "died": 5229,
      "dise": 5230,
      "diment": 5231,
      "diction": 5232,
      "dients": 5233,
      "atist": 5234,
      "atts": 5235,
      "attra": 5236,
      "atory": 5237,
      "atives": 5238,
      "ativity": 5239,
      "edabad": 5240,
      "oration": 5241,
      "orce": 5242,
      "orial": 5243,
      "orally": 5244,
      "andy": 5245,
      "andardis": 5246,
      "asar": 5247,
      "aster": 5248,
      "asions": 5249,
      "asive": 5250,
      "asures": 5251,
      "Incre": 5252,
      "International": 5253,
      "ofile": 5254,
      "ises": 5255,
      "ising": 5256,
      "isans": 5257,
      "isine": 5258,
      "isdiction": 5259,
      "ream": 5260,
      "rece": 5261,
      "reme": 5262,
      "repe": 5263,
      "rept": 5264,
      "reement": 5265,
      "reign": 5266,
      "reasing": 5267,
      "reforms": 5268,
      "represent": 5269,
      "returned": 5270,
      "rebellion": 5271,
      "reflect": 5272,
      "itte": 5273,
      "itics": 5274,
      "itude": 5275,
      "icken": 5276,
      "ారి": 5277,
      "tober": 5278,
      "ential": 5279,
      "entire": 5280,
      "entually": 5281,
      "oman": 5282,
      "ాలే": 5283,
      "ura": 5284,
      "urish": 5285,
      "sts": 5286,
      "stri": 5287,
      "stud": 5288,
      "stant": 5289,
      "stress": 5290,
      "story": 5291,
      "standardis": 5292,
      "leav": 5293,
      "lying": 5294,
      "ech": 5295,
      "ection": 5296,
      "లోయ": 5297,
      "లోను": 5298,
      "లోమీ": 5299,
      "స్వీ": 5300,
      "స్కరణ": 5301,
      "స్లిం": 5302,
      "ils": 5303,
      "iles": 5304,
      "illi": 5305,
      "ilitated": 5306,
      "ams": 5307,
      "amy": 5308,
      "amed": 5309,
      "amend": 5310,
      "Thail": 5311,
      "adem": 5312,
      "advent": 5313,
      "terra": 5314,
      "terior": 5315,
      "olution": 5316,
      "దిగువ": 5317,
      "ప్రాయ": 5318,
      "ప్రసి": 5319,
      "ప్రత్య": 5320,
      "ప్రయో": 5321,
      "ప్రీం": 5322,
      "riors": 5323,
      "లుగా": 5324,
      "chat": 5325,
      "chap": 5326,
      "chains": 5327,
      "chose": 5328,
      "cheet": 5329,
      "veral": 5330,
      "దేశాలు": 5331,
      "They": 5332,
      "ర్జాతీయ": 5333,
      "ర్చు": 5334,
      "ర్థ్యం": 5335,
      "emer": 5336,
      "emiss": 5337,
      "lie": 5338,
      "live": 5339,
      "liance": 5340,
      "lived": 5341,
      "living": 5342,
      "భారతం": 5343,
      "భారతంలో": 5344,
      "परमान": 5345,
      "परधानमंत्री": 5346,
      "forti": 5347,
      "fortable": 5348,
      "ताबिक": 5349,
      "న్నీ": 5350,
      "న్నై": 5351,
      "ceed": 5352,
      "bel": 5353,
      "beach": 5354,
      "begin": 5355,
      "behind": 5356,
      "uture": 5357,
      "sex": 5358,
      "seats": 5359,
      "sediment": 5360,
      "agana": 5361,
      "agreement": 5362,
      "ested": 5363,
      "conce": 5364,
      "contour": 5365,
      "గాన్ని": 5366,
      "using": 5367,
      "usually": 5368,
      "unres": 5369,
      "united": 5370,
      "unitary": 5371,
      "unities": 5372,
      "uncommon": 5373,
      "iron": 5374,
      "cts": 5375,
      "def": 5376,
      "dev": 5377,
      "defe": 5378,
      "deleg": 5379,
      "devast": 5380,
      "ghat": 5381,
      "ghbo": 5382,
      "isting": 5383,
      "angana": 5384,
      "देसी": 5385,
      "देखे": 5386,
      "ime": 5387,
      "imper": 5388,
      "imple": 5389,
      "what": 5390,
      "కుడి": 5391,
      "నిపు": 5392,
      "నిడి": 5393,
      "నియమించ": 5394,
      "విభ": 5395,
      "విలు": 5396,
      "విశ్": 5397,
      "విమాన": 5398,
      "విషయాలు": 5399,
      "suc": 5400,
      "super": 5401,
      "supre": 5402,
      "excav": 5403,
      "exporter": 5404,
      "exerc": 5405,
      "existing": 5406,
      "ాతి": 5407,
      "abs": 5408,
      "sia": 5409,
      "size": 5410,
      "ానీ": 5411,
      "ాను": 5412,
      "ాన్య": 5413,
      "pop": 5414,
      "pot": 5415,
      "pots": 5416,
      "resour": 5417,
      "होलें": 5418,
      "derived": 5419,
      "mental": 5420,
      "mented": 5421,
      "artic": 5422,
      "artists": 5423,
      "artistic": 5424,
      "artisans": 5425,
      "overran": 5426,
      "akhi": 5427,
      "model": 5428,
      "ములు": 5429,
      "ముడి": 5430,
      "ముస్లిం": 5431,
      "ండ్": 5432,
      "ల్లు": 5433,
      "ినీ": 5434,
      "ials": 5435,
      "percent": 5436,
      "cost": 5437,
      "cosine": 5438,
      "cotta": 5439,
      "స్తులు": 5440,
      "స్తాయి": 5441,
      "sha": 5442,
      "shy": 5443,
      "shaw": 5444,
      "shoulder": 5445,
      "తిరు": 5446,
      "sour": 5447,
      "sole": 5448,
      "company": 5449,
      "comfortable": 5450,
      "tspots": 5451,
      "ందింది": 5452,
      "idence": 5453,
      "ritory": 5454,
      "ritsar": 5455,
      "aps": 5456,
      "appoin": 5457,
      "claim": 5458,
      "aced": 5459,
      "according": 5460,
      "access": 5461,
      "sphere": 5462,
      "web": 5463,
      "welf": 5464,
      "पूर": 5465,
      "meet": 5466,
      "mega": 5467,
      "meaning": 5468,
      "worship": 5469,
      "సంస్థ": 5470,
      "సంస్కరణ": 5471,
      "therers": 5472,
      "స్థావర": 5473,
      "बिस्त": 5474,
      "बिसाल": 5475,
      "పుకో": 5476,
      "పుతూ": 5477,
      "hib": 5478,
      "plant": 5479,
      "planted": 5480,
      "probably": 5481,
      "Chha": 5482,
      "Chess": 5483,
      "Champ": 5484,
      "Chandi": 5485,
      "Christ": 5486,
      "ends": 5487,
      "ended": 5488,
      "endra": 5489,
      "larger": 5490,
      "formally": 5491,
      "formerly": 5492,
      "gender": 5493,
      "atedly": 5494,
      "iving": 5495,
      "భాగ": 5496,
      "భావిస్తారు": 5497,
      "భాగాన్ని": 5498,
      "assical": 5499,
      "assass": 5500,
      "Hindus": 5501,
      "affir": 5502,
      "CEE": 5503,
      "aved": 5504,
      "bercul": 5505,
      "mini": 5506,
      "minor": 5507,
      "mark": 5508,
      "marry": 5509,
      "marshy": 5510,
      "parties": 5511,
      "partially": 5512,
      "सिल": 5513,
      "सिस्ट": 5514,
      "ితే": 5515,
      "alls": 5516,
      "amework": 5517,
      "lowed": 5518,
      "peak": 5519,
      "peace": 5520,
      "వాటి": 5521,
      "వాదం": 5522,
      "సాహ": 5523,
      "సామా": 5524,
      "ought": 5525,
      "creating": 5526,
      "creativity": 5527,
      "ogamy": 5528,
      "పావ": 5529,
      "పాంత": 5530,
      "పాడు": 5531,
      "regul": 5532,
      "register": 5533,
      "becau": 5534,
      "लिहले": 5535,
      "stitutes": 5536,
      "ocal": 5537,
      "దుగా": 5538,
      "నేరే": 5539,
      "ectively": 5540,
      "ectancy": 5541,
      "substant": 5542,
      "Asians": 5543,
      "ptember": 5544,
      "ంచిన": 5545,
      "కాగా": 5546,
      "కాహార": 5547,
      "కాపాడు": 5548,
      "క్రి": 5549,
      "కూడి": 5550,
      "కూడుకొ": 5551,
      "జాతులు": 5552,
      "erals": 5553,
      "ligion": 5554,
      "रेगि": 5555,
      "decis": 5556,
      "decidu": 5557,
      "decreasing": 5558,
      "que": 5559,
      "నాథ": 5560,
      "నాటి": 5561,
      "నాడు": 5562,
      "సియాలో": 5563,
      "సిల్లు": 5564,
      "syn": 5565,
      "చ్చే": 5566,
      "మొగలు": 5567,
      "dhoti": 5568,
      "మాట్ల": 5569,
      "सुप्री": 5570,
      "ganiz": 5571,
      "tail": 5572,
      "vide": 5573,
      "viet": 5574,
      "గుబా": 5575,
      "చేసు": 5576,
      "చేసే": 5577,
      "ద్రా": 5578,
      "వేద": 5579,
      "mption": 5580,
      "pared": 5581,
      "parents": 5582,
      "polio": 5583,
      "తోంది": 5584,
      "commission": 5585,
      "committe": 5586,
      "communities": 5587,
      "systems": 5588,
      "170": 5589,
      "178": 5590,
      "scen": 5591,
      "scale": 5592,
      "series": 5593,
      "serving": 5594,
      "wars": 5595,
      "warriors": 5596,
      "కేతిక": 5597,
      "యాళం": 5598,
      "వచ్చని": 5599,
      "numerals": 5600,
      "డిస్": 5601,
      "limited": 5602,
      "extinct": 5603,
      "extreme": 5604,
      "extends": 5605,
      "रहलें": 5606,
      "mainly": 5607,
      "కాలే": 5608,
      "output": 5609,
      "వ్యవస్థకు": 5610,
      "Major": 5611,
      "Mahat": 5612,
      "greenhouse": 5613,
      "pread": 5614,
      "prevent": 5615,
      "पीपी": 5616,
      "చెప్": 5617,
      "చెంద": 5618,
      "చెన్నై": 5619,
      "తులతో": 5620,
      "పారి": 5621,
      "శాసన": 5622,
      "దేశాలను": 5623,
      "largely": 5624,
      "notable": 5625,
      "notably": 5626,
      "epic": 5627,
      "aith": 5628,
      "efly": 5629,
      "kho": 5630,
      "ంబే": 5631,
      "ఎన్నుకో": 5632,
      "ఎన్నుకుంట": 5633,
      "కిలోమీ": 5634,
      "legal": 5635,
      "ological": 5636,
      "ologically": 5637,
      "includes": 5638,
      "included": 5639,
      "awatts": 5640,
      "followed": 5641,
      "teach": 5642,
      "పర్యాయ": 5643,
      "పర్యా": 5644,
      "పరీక్ష": 5645,
      "ప్రపంచములో": 5646,
      "emphas": 5647,
      "supplanted": 5648,
      "ద్దులు": 5649,
      "స్థానాలను": 5650,
      "Common": 5651,
      "countries": 5652,
      "garden": 5653,
      "kets": 5654,
      "పరిపాలన": 5655,
      "మీదగా": 5656,
      "వరీ": 5657,
      "వర్గ": 5658,
      "వర్తి": 5659,
      "వర్గం": 5660,
      "సుప్రీం": 5661,
      "sett": 5662,
      "settle": 5663,
      "expanding": 5664,
      "expectancy": 5665,
      "works": 5666,
      "workforce": 5667,
      "ప్రాంతీయ": 5668,
      "ప్రాంతాల్లో": 5669,
      "అధికారం": 5670,
      "दुन्न": 5671,
      "Movement": 5672,
      "దాయంలో": 5673,
      "లంక": 5674,
      "highly": 5675,
      "Chinese": 5676,
      "భాషలను": 5677,
      "రాజ్యంగా": 5678,
      "literary": 5679,
      "literature": 5680,
      "Bengali": 5681,
      "मोताबिक": 5682,
      "ianity": 5683,
      "कइलें": 5684,
      "ground": 5685,
      "hood": 5686,
      "hotspots": 5687,
      "humans": 5688,
      "nonviol": 5689,
      "osis": 5690,
      "tality": 5691,
      "tection": 5692,
      "అయితే": 5693,
      "పూర్తి": 5694,
      "బాం": 5695,
      "బాంబే": 5696,
      "వెల్ల": 5697,
      "సభను": 5698,
      "thereafter": 5699,
      "therefore": 5700,
      "course": 5701,
      "ultaneously": 5702,
      "Himalaya": 5703,
      "101": 5704,
      "Still": 5705,
      "calend": 5706,
      "presence": 5707,
      "ronic": 5708,
      "తాజ్": 5709,
      "మిస్తు": 5710,
      "రెండవ": 5711,
      "రెండో": 5712,
      "లాహో": 5713,
      "arms": 5714,
      "ప్రభుత్వాన్ని": 5715,
      "ముఖ్యంగా": 5716,
      "applied": 5717,
      "produce": 5718,
      "produced": 5719,
      "occurred": 5720,
      "occasions": 5721,
      "165": 5722,
      "either": 5723,
      "eventually": 5724,
      "edicts": 5725,
      "gatherers": 5726,
      "pants": 5727,
      "panoram": 5728,
      "promo": 5729,
      "అత్యంత": 5730,
      "పోయింది": 5731,
      "మనదేశం": 5732,
      "మహి": 5733,
      "మహల్": 5734,
      "మహాత్": 5735,
      "వుతుంది": 5736,
      "సింగ్": 5737,
      "espite": 5738,
      "విస్తీర్": 5739,
      "స్త్రీలు": 5740,
      "medieval": 5741,
      "contributes": 5742,
      "contributed": 5743,
      "playing": 5744,
      "సాంకేతిక": 5745,
      "techni": 5746,
      "Muslims": 5747,
      "Amritsar": 5748,
      "Alliance": 5749,
      "founded": 5750,
      "lasted": 5751,
      "manufact": 5752,
      "rative": 5753,
      "ratio": 5754,
      "पहिला": 5755,
      "पहिचान": 5756,
      "అతిపెద్ద": 5757,
      "కలిగిన": 5758,
      "గోదా": 5759,
      "గోళిక": 5760,
      "గినది": 5761,
      "జనతా": 5762,
      "జనవరి": 5763,
      "జరిగే": 5764,
      "పటం": 5765,
      "annually": 5766,
      "annual": 5767,
      "display": 5768,
      "disputed": 5769,
      "territorial": 5770,
      "భారత్లో": 5771,
      "క్కను": 5772,
      "ాబ్ది": 5773,
      "క్రీడా": 5774,
      "క్రీడలలో": 5775,
      "Sikhs": 5776,
      "అయినా": 5777,
      "Artic": 5778,
      "Shastri": 5779,
      "422": 5780,
      "Several": 5781,
      "September": 5782,
      "airs": 5783,
      "break": 5784,
      "carved": 5785,
      "curr": 5786,
      "domestic": 5787,
      "members": 5788,
      "nationalist": 5789,
      "ఉపయో": 5790,
      "రంగం": 5791,
      "రంగంలో": 5792,
      "లేదు": 5793,
      "వలన": 5794,
      "వలస": 5795,
      "industrial": 5796,
      "archaic": 5797,
      "essential": 5798,
      "ప్రస్తుతము": 5799,
      "rocky": 5800,
      "coasts": 5801,
      "coastal": 5802,
      "coastline": 5803,
      "సాధించిన": 5804,
      "feature": 5805,
      "కాంగ్రెస్": 5806,
      "transformed": 5807,
      "paintings": 5808,
      "intervention": 5809,
      "लंबा": 5810,
      "परिवार": 5811,
      "Arav": 5812,
      "Bhangra": 5813,
      "Rajiv": 5814,
      "Rajput": 5815,
      "dense": 5816,
      "ethical": 5817,
      "ethnic": 5818,
      "figure": 5819,
      "geograph": 5820,
      "ruled": 5821,
      "ruling": 5822,
      "rulers": 5823,
      "vene": 5824,
      "visit": 5825,
      "villages": 5826,
      "భూభాగం": 5827,
      "భూటాన్": 5828,
      "మూల": 5829,
      "involved": 5830,
      "involving": 5831,
      "diffused": 5832,
      "remained": 5833,
      "stead": 5834,
      "steamed": 5835,
      "amphib": 5836,
      "ప్రతిపక్ష": 5837,
      "dependent": 5838,
      "married": 5839,
      "markets": 5840,
      "historically": 5841,
      "historians": 5842,
      "occupy": 5843,
      "occupation": 5844,
      "Gujarati": 5845,
      "Kashmiri": 5846,
      "बिधायिका": 5847,
      "borne": 5848,
      "descri": 5849,
      "democratic": 5850,
      "democracy": 5851,
      "fastest": 5852,
      "izens": 5853,
      "layer": 5854,
      "make": 5855,
      "nings": 5856,
      "princes": 5857,
      "గణతంత్ర": 5858,
      "నెలకొ": 5859,
      "బ్రిటీ": 5860,
      "మాత్రమే": 5861,
      "సమాజ": 5862,
      "divorce": 5863,
      "స్వతం": 5864,
      "several": 5865,
      "severely": 5866,
      "defined": 5867,
      "eticide": 5868,
      "endemism": 5869,
      "సామర్థ్యం": 5870,
      "commerce": 5871,
      "service": 5872,
      "headed": 5873,
      "ప్రపంచంలోని": 5874,
      "ప్రపంచంలోనే": 5875,
      "సింధూనది": 5876,
      "mathematicians": 5877,
      "building": 5878,
      "జాబితాలో": 5879,
      "సౌకర్యాలు": 5880,
      "సౌకర్యాలలో": 5881,
      "ప్పటికినీ": 5882,
      "361": 5883,
      "Devi": 5884,
      "Dalit": 5885,
      "Northeast": 5886,
      "Religion": 5887,
      "biodiversity": 5888,
      "biotech": 5889,
      "crop": 5890,
      "crocodi": 5891,
      "cutta": 5892,
      "cloth": 5893,
      "close": 5894,
      "civilian": 5895,
      "dominion": 5896,
      "dominance": 5897,
      "everyday": 5898,
      "factor": 5899,
      "mitt": 5900,
      "obstruct": 5901,
      "payee": 5902,
      "voted": 5903,
      "various": 5904,
      "winds": 5905,
      "winning": 5906,
      "కళలు": 5907,
      "చైనా": 5908,
      "చైనాను": 5909,
      "తమిళ": 5910,
      "పదవి": 5911,
      "మానం": 5912,
      "రూపాంత": 5913,
      "సమరం": 5914,
      "సారస్వతం": 5915,
      "హాక": 5916,
      "independent": 5917,
      "organised": 5918,
      "whereas": 5919,
      "కులాలు": 5920,
      "నిర్మించ": 5921,
      "points": 5922,
      "short": 5923,
      "shores": 5924,
      "complex": 5925,
      "spreading": 5926,
      "సంఖ్యా": 5927,
      "సంవత్సర": 5928,
      "పుట్టుపూర్వ": 5929,
      "Hindustan": 5930,
      "subsequently": 5931,
      "రైల్వేశాఖ": 5932,
      "policy": 5933,
      "పాలనలో": 5934,
      "పరిశ్రమ": 5935,
      "groups": 5936,
      "survives": 5937,
      "births": 5938,
      "సముద్రతీ": 5939,
      "speaking": 5940,
      "స్వాతంత్ర్యం": 5941,
      "నిర్వహించింది": 5942,
      "Gondwana": 5943,
      "Kosi": 5944,
      "Minister": 5945,
      "Madhya": 5946,
      "Nepal": 5947,
      "Nepali": 5948,
      "Telugu": 5949,
      "Telangana": 5950,
      "bride": 5951,
      "briefly": 5952,
      "family": 5953,
      "female": 5954,
      "females": 5955,
      "flood": 5956,
      "flourish": 5957,
      "hymn": 5958,
      "jurisdiction": 5959,
      "paper": 5960,
      "pilgri": 5961,
      "tubercul": 5962,
      "telling": 5963,
      "बिकसित": 5964,
      "చిరు": 5965,
      "నాయకత్వ": 5966,
      "మలయాళం": 5967,
      "సూచించిన": 5968,
      "సార్వత్ర": 5969,
      "ోరల్": 5970,
      "alliance": 5971,
      "associate": 5972,
      "associated": 5973,
      "reliefs": 5974,
      "లోక్సభ": 5975,
      "advanced": 5976,
      "additional": 5977,
      "consumption": 5978,
      "కుంటూ": 5979,
      "కుంటారు": 5980,
      "ాయుత": 5981,
      "ettes": 5982,
      "ద్వీప": 5983,
      "akhand": 5984,
      "shared": 5985,
      "sports": 5986,
      "affairs": 5987,
      "bodies": 5988,
      "taxes": 5989,
      "మేనని": 5990,
      "Eurasian": 5991,
      "Eurasia": 5992,
      "expression": 5993,
      "రాజ్యాలుగా": 5994,
      "సభ్యు": 5995,
      "సభ్యులు": 5996,
      "renewable": 5997,
      "ఆధారపడిన": 5998,
      "బ్రిటిష్": 5999,
      "బ్రిటిషు": 6000,
      "సామ్రాజ్య": 6001,
      "సామ్రాజ్యం": 6002,
      "Tibetan": 6003,
      "Uttarakhand": 6004,
      "పశ్చిమాన": 6005,
      "బౌద్ధులు": 6006,
      "హిమాలయ": 6007,
      "హిమాలయాలు": 6008,
      "కాశ్మీరు": 6009,
      "कानूनी": 6010,
      "Biodiversity": 6011,
      "Calcutta": 6012,
      "Capital": 6013,
      "Eight": 6014,
      "Economy": 6015,
      "Geography": 6016,
      "Lankan": 6017,
      "Machine": 6018,
      "Narendra": 6019,
      "Politics": 6020,
      "Territory": 6021,
      "Vijay": 6022,
      "Yakshagana": 6023,
      "bonds": 6024,
      "bulk": 6025,
      "bronze": 6026,
      "climatic": 6027,
      "drop": 6028,
      "foeticide": 6029,
      "farmers": 6030,
      "fashion": 6031,
      "gods": 6032,
      "half": 6033,
      "hubs": 6034,
      "iferation": 6035,
      "killed": 6036,
      "mortality": 6037,
      "migration": 6038,
      "neighbo": 6039,
      "patron": 6040,
      "pastoral": 6041,
      "varna": 6042,
      "अंतर्राष्ट्रीय": 6043,
      "ఇంగ్లీషు": 6044,
      "ఉండటం": 6045,
      "కిందకు": 6046,
      "టైటి": 6047,
      "పార్లమె": 6048,
      "భరత": 6049,
      "భౌగోళిక": 6050,
      "మౌర్య": 6051,
      "సహస్ర": 6052,
      "సైనిక": 6053,
      "హైదరా": 6054,
      "thorn": 6055,
      "threatened": 6056,
      "anagara": 6057,
      "initi": 6058,
      "arbans": 6059,
      "isolation": 6060,
      "towns": 6061,
      "levels": 6062,
      "స్టాక్": 6063,
      "ర్షణ": 6064,
      "rapidly": 6065,
      "railways": 6066,
      "untouchability": 6067,
      "విద్యుత్": 6068,
      "క్టోరల్": 6069,
      "exported": 6070,
      "persist": 6071,
      "comprising": 6072,
      "సంకీర్ణ": 6073,
      "స్థితి": 6074,
      "పురుషు": 6075,
      "particular": 6076,
      "కోల్కాత": 6077,
      "నేపాల్": 6078,
      "కూడుకుని": 6079,
      "hereditary": 6080,
      "pollution": 6081,
      "పాలించారు": 6082,
      "extensively": 6083,
      "ఎన్నికల్లో": 6084,
      "expansion": 6085,
      "merchants": 6086,
      "రాజ్యాంగం": 6087,
      "జనాభాతో": 6088,
      "బడతారు": 6089,
      "మహాసముద్రం": 6090,
      "manuscript": 6091,
      "జనగణన": 6092,
      "breathing": 6093,
      "strongly": 6094,
      "ప్రతిపాదనకు": 6095,
      "Assamese": 6096,
      "తూర్పున": 6097,
      "మొదలైనవి": 6098,
      "ఏర్పడ్డాయి": 6099,
      "blackbuc": 6100,
      "liberalisation": 6101,
      "response": 6102,
      "కార్యక్రమాలు": 6103,
      "legislature": 6104,
      "Marathi": 6105,
      "Malayalam": 6106,
      "habitat": 6107,
      "safeguard": 6108,
      "adopted": 6109,
      "characteristic": 6110,
      "vegetarian": 6111,
      "ఆఫ్ఘనిస్తాన్": 6112,
      "Olympics": 6113,
      "Pallavas": 6114,
      "Zoroastrianism": 6115,
      "victories": 6116,
      "జరుపుకుంటారు": 6117,
      "పీఠభూ": 6118,
      "బంగ్లాదేశ్ల": 6119,
      "శెలవుదినాలు": 6120,
      "discriminatory": 6121,
      "ప్రారంభించ": 6122,
      "मसाला": 6123,
      "Achaem": 6124,
      "Aligned": 6125,
      "Ahmedabad": 6126,
      "BBC": 6127,
      "Between": 6128,
      "CIA": 6129,
      "Classical": 6130,
      "Cups": 6131,
      "Climate": 6132,
      "Eastern": 6133,
      "Etymology": 6134,
      "Emergency": 6135,
      "Following": 6136,
      "Female": 6137,
      "Foreign": 6138,
      "General": 6139,
      "Gangetic": 6140,
      "Golden": 6141,
      "Health": 6142,
      "History": 6143,
      "Himachal": 6144,
      "June": 6145,
      "Konkani": 6146,
      "Kolkata": 6147,
      "Kathak": 6148,
      "Kannada": 6149,
      "Kaveri": 6150,
      "Nataraja": 6151,
      "October": 6152,
      "Organiz": 6153,
      "Odisha": 6154,
      "Plain": 6155,
      "Profile": 6156,
      "Party": 6157,
      "Proliferation": 6158,
      "River": 6159,
      "Soviet": 6160,
      "Satpura": 6161,
      "Simultaneously": 6162,
      "Sabha": 6163,
      "Sundarbans": 6164,
      "Vajpayee": 6165,
      "Vedic": 6166,
      "Wayback": 6167,
      "Yarlung": 6168,
      "brought": 6169,
      "citizens": 6170,
      "custom": 6171,
      "cleared": 6172,
      "cereal": 6173,
      "drew": 6174,
      "framework": 6175,
      "flowering": 6176,
      "groom": 6177,
      "gigawatts": 6178,
      "honour": 6179,
      "hunter": 6180,
      "houses": 6181,
      "hockey": 6182,
      "jackets": 6183,
      "knit": 6184,
      "kurta": 6185,
      "materials": 6186,
      "ninth": 6187,
      "nerable": 6188,
      "narrow": 6189,
      "pivotal": 6190,
      "sitar": 6191,
      "science": 6192,
      "savoury": 6193,
      "temples": 6194,
      "volcan": 6195,
      "vulnerable": 6196,
      "बियाह": 6197,
      "అంతర్జాతీయ": 6198,
      "అమెరికా": 6199,
      "ఆహారం": 6200,
      "ఆదాయం": 6201,
      "ఇండో": 6202,
      "ఈశాన్య": 6203,
      "ఈస్ట్": 6204,
      "ఎలక్టోరల్": 6205,
      "ఎక్స్": 6206,
      "ఏప్రిల్": 6207,
      "ఐరోపా": 6208,
      "ఒలంపిక్": 6209,
      "కనుమలు": 6210,
      "ఖనిజాలు": 6211,
      "గెలుచుకోవడ": 6212,
      "చూడండి": 6213,
      "ట్రో": 6214,
      "టర్లకు": 6215,
      "ఢాకా": 6216,
      "తర్వాత": 6217,
      "పవిత్ర": 6218,
      "పక్కన": 6219,
      "బంగారు": 6220,
      "రచయిత": 6221,
      "లౌకిక": 6222,
      "ోత్తరాలు": 6223,
      "information": 6224,
      "innov": 6225,
      "arisen": 6226,
      "disease": 6227,
      "attract": 6228,
      "Increasing": 6229,
      "repeatedly": 6230,
      "study": 6231,
      "standardised": 6232,
      "leavened": 6233,
      "amendments": 6234,
      "Thailand": 6235,
      "ademi": 6236,
      "terracotta": 6237,
      "ప్రసిద్ధి": 6238,
      "cheetah": 6239,
      "emissions": 6240,
      "fortified": 6241,
      "beginnings": 6242,
      "unresolved": 6243,
      "defeated": 6244,
      "delegates": 6245,
      "imperial": 6246,
      "నిపుణులు": 6247,
      "నిడివి": 6248,
      "supercontinent": 6249,
      "supreme": 6250,
      "excavated": 6251,
      "resources": 6252,
      "percentage": 6253,
      "shawl": 6254,
      "తిరుగుబా": 6255,
      "claiming": 6256,
      "welfare": 6257,
      "megadiverse": 6258,
      "స్థావరాలు": 6259,
      "बिस्तार": 6260,
      "Chhau": 6261,
      "Chandigarh": 6262,
      "Christianity": 6263,
      "assassinated": 6264,
      "affirm": 6265,
      "सिस्टम": 6266,
      "సామాజిక": 6267,
      "because": 6268,
      "నేరేడు": 6269,
      "substantially": 6270,
      "కాపాడుకుంటూ": 6271,
      "కూడుకొని": 6272,
      "रेगिस्तान": 6273,
      "deciduous": 6274,
      "మాట్లాడే": 6275,
      "सुप्रीम": 6276,
      "extremely": 6277,
      "Mahatma": 6278,
      "చెప్పుకో": 6279,
      "చెందాయి": 6280,
      "ఎన్నుకోబడతారు": 6281,
      "కిలోమీటర్లకు": 6282,
      "పర్యాయాలు": 6283,
      "పర్యాటక": 6284,
      "Commonwealth": 6285,
      "settlement": 6286,
      "दुन्नों": 6287,
      "nonviolent": 6288,
      "పూర్తిగా": 6289,
      "తాజ్మహల్": 6290,
      "మహాత్మా": 6291,
      "ఉపయోగి": 6292,
      "Rajputs": 6293,
      "పుట్టుపూర్వోత్తరాలు": 6294,
      "hymns": 6295,
      "pilgrim": 6296,
      "tuberculosis": 6297,
      "సూచించినట్లు": 6298,
      "సార్వత్రిక": 6299,
      "Vijayanagara": 6300,
      "neighbour": 6301,
      "సహస్రాబ్ది": 6302,
      "కోల్కాతా": 6303,
      "blackbuck": 6304,
      "Achaemen": 6305,
      "Organization": 6306,
      "గెలుచుకోవడం": 6307,
      "తిరుగుబాటు": 6308,
      "ंजन": 6309,
      "अति": 6310,
      "अनि": 6311,
      "अच्छ": 6312,
      "अधि": 6313,
      "आते": 6314,
      "आंतर": 6315,
      "आकर्म": 6316,
      "उड़ी": 6317,
      "उभरा": 6318,
      "एशन": 6319,
      "ग्री": 6320,
      "चौ": 6321,
      "चित": 6322,
      "जन्": 6323,
      "जाने": 6324,
      "ठक": 6325,
      "थल": 6326,
      "दियों": 6327,
      "नई": 6328,
      "नर": 6329,
      "नदियों": 6330,
      "पक्ष": 6331,
      "पड़ा": 6332,
      "बह": 6333,
      "बन्ध": 6334,
      "भरी": 6335,
      "मले": 6336,
      "मही": 6337,
      "यें": 6338,
      "यद्य": 6339,
      "लौ": 6340,
      "लाल": 6341,
      "शाल": 6342,
      "शस्त्र": 6343,
      "सों": 6344,
      "सभी": 6345,
      "सन्द": 6346,
      "सक्र": 6347,
      "सौह": 6348,
      "ेक": 6349,
      "१३": 6350,
      "१७": 6351,
      "२५": 6352,
      "२६": 6353,
      "२८": 6354,
      "२९": 6355,
      "४०": 6356,
      "ान्": 6357,
      "ियस": 6358,
      "प्रधान": 6359,
      "ोंने": 6360,
      "नागा": 6361,
      "साक्षर": 6362,
      "परे": 6363,
      "तांत्रिक": 6364,
      "विज्ञान": 6365,
      "विशाल": 6366,
      "करो": 6367,
      "राजभाषा": 6368,
      "होने": 6369,
      "समान": 6370,
      "भारतीयों": 6371,
      "लेकर": 6372,
      "मिश्र": 6373,
      "वाज": 6374,
      "वाम": 6375,
      "पाई": 6376,
      "निवास": 6377,
      "पूरे": 6378,
      "वर्षा": 6379,
      "जिन्ह": 6380,
      "बहुमूल्य": 6381,
      "मीणा": 6382,
      "वार्ष": 6383,
      "क्षेत्रों": 6384,
      "स्थल": 6385,
      "सरकारों": 6386,
      "१९४": 6387,
      "धर्मों": 6388,
      "सारी": 6389,
      "ब्ब": 6390,
      "चुकी": 6391,
      "अपेक्षा": 6392,
      "जिसकी": 6393,
      "जिसने": 6394,
      "बढ़ने": 6395,
      "लोकतांत्रिक": 6396,
      "मध्यम": 6397,
      "ज़्यादा": 6398,
      "चाई": 6399,
      "प्राचीनतम": 6400,
      "मोर्": 6401,
      "मनमोहन": 6402,
      "साम्राज्यों": 6403,
      "ार्द": 6404,
      "स्थापित": 6405,
      "उनका": 6406,
      "उनकी": 6407,
      "हिन्दुस्तान": 6408,
      "सम्पूर्ण": 6409,
      "पार्टियों": 6410,
      "पंथी": 6411,
      "पहली": 6412,
      "अवधि": 6413,
      "बैठक": 6414,
      "शिखर": 6415,
      "अभिय": 6416,
      "छोड़कर": 6417,
      "अन्तर्": 6418,
      "अन्ततः": 6419,
      "केन्द्रशासित": 6420,
      "प्रारम्भिक": 6421,
      "सकता": 6422,
      "सकते": 6423,
      "ऊँचाई": 6424,
      "सेवाओं": 6425,
      "पुरुषों": 6426,
      "प्रभावशाली": 6427,
      "लड़ाकू": 6428,
      "प्रत्येक": 6429,
      "वास्तविक": 6430,
      "नेहरू": 6431,
      "क्रयशक्ति": 6432,
      "परिणामस्वरूप": 6433,
      "प्रकाश": 6434,
      "प्रसिद्ध": 6435,
      "विरोध": 6436,
      "समझौ": 6437,
      "आंतरिक": 6438,
      "आकर्मण": 6439,
      "उड़ीसा": 6440,
      "यद्यपि": 6441,
      "सक्रिय": 6442,
      "सौहार्द": 6443,
      "साक्षरता": 6444,
      "वार्षिक": 6445,
      "ँची": 6446,
      "ंत": 6447,
      "ंजी": 6448,
      "असं": 6449,
      "अल्प": 6450,
      "अहिं": 6451,
      "आम": 6452,
      "आक्र": 6453,
      "आदर्": 6454,
      "आर्य": 6455,
      "इन्": 6456,
      "ईस्ट": 6457,
      "उल": 6458,
      "एफ": 6459,
      "एल": 6460,
      "औसत": 6461,
      "क्रा": 6462,
      "कम्प": 6463,
      "खु": 6464,
      "खान": 6465,
      "गध": 6466,
      "ग़": 6467,
      "गार": 6468,
      "चो": 6469,
      "चोल": 6470,
      "जह": 6471,
      "जारी": 6472,
      "थम": 6473,
      "दरा": 6474,
      "द्रा": 6475,
      "दौर": 6476,
      "नवी": 6477,
      "नर्म": 6478,
      "पन्न": 6479,
      "पटल": 6480,
      "फै": 6481,
      "फाय": 6482,
      "बोल": 6483,
      "मपु": 6484,
      "मगध": 6485,
      "वजह": 6486,
      "श्य": 6487,
      "शिक": 6488,
      "सॉ": 6489,
      "सकल": 6490,
      "सहित": 6491,
      "हस्त": 6492,
      "िप्त": 6493,
      "ूट": 6494,
      "ैंड": 6495,
      "ॉक": 6496,
      "ारे": 6497,
      "्रो": 6498,
      "भारतवर्ष": 6499,
      "ियो": 6500,
      "प्रथम": 6501,
      "सावादी": 6502,
      "संक्ष": 6503,
      "संचाल": 6504,
      "संबोध": 6505,
      "नेता": 6506,
      "नेशिया": 6507,
      "नेपाल": 6508,
      "विजय": 6509,
      "त्मा": 6510,
      "होली": 6511,
      "्याचल": 6512,
      "पांड": 6513,
      "मुद्रा": 6514,
      "तेज़ी": 6515,
      "नीति": 6516,
      "जीविका": 6517,
      "सिन्ध": 6518,
      "ंध्याचल": 6519,
      "्राम": 6520,
      "क्षेप": 6521,
      "लिख": 6522,
      "स्वतन्त्र": 6523,
      "प्राप्ति": 6524,
      "महाद्वीप": 6525,
      "महात्मा": 6526,
      "सामना": 6527,
      "चाह": 6528,
      "दूसरे": 6529,
      "मनो": 6530,
      "ोषण": 6531,
      "नियंत्र": 6532,
      "गठन": 6533,
      "उत्पादन": 6534,
      "वाले": 6535,
      "केन्द्रीय": 6536,
      "जातीय": 6537,
      "संग्राम": 6538,
      "आयात": 6539,
      "आयातक": 6540,
      "प्रशासनिक": 6541,
      "इंडोनेशिया": 6542,
      "प्रसारण": 6543,
      "उठा": 6544,
      "किनारे": 6545,
      "प्रत्यक्ष": 6546,
      "पोर्ट": 6547,
      "आसपास": 6548,
      "टेलीविजन": 6549,
      "तेलुगू": 6550,
      "ब्रह्मपु": 6551,
      "अहिंसावादी": 6552,
      "आक्रमण": 6553,
      "आदर्श": 6554,
      "नर्मदा": 6555,
      "फायदा": 6556,
      "शिकार": 6557,
      "हस्तक्षेप": 6558,
      "संक्षिप्त": 6559,
      "संबोधित": 6560,
      "विजयनगर": 6561,
      "सिन्धु": 6562,
      "स्वतन्त्रता": 6563,
      "ब्रह्मपुत्र": 6564,
      "121": 6565,
      "23": 6566,
      "49": 6567,
      "Mon": 6568,
      "PI": 6569,
      "Po": 6570,
      "SI": 6571,
      "Sum": 6572,
      "ot": 6573,
      "ँधी": 6574,
      "अंदर": 6575,
      "आकार": 6576,
      "उर्": 6577,
      "एका": 6578,
      "ओडिया": 6579,
      "कै": 6580,
      "कथक": 6581,
      "चैन": 6582,
      "चट्ट": 6583,
      "चेंज": 6584,
      "छि": 6585,
      "जम्": 6586,
      "टका": 6587,
      "ठा": 6588,
      "ढाल": 6589,
      "णि": 6590,
      "तौर": 6591,
      "दस": 6592,
      "दाल": 6593,
      "धरो": 6594,
      "नक्": 6595,
      "बँ": 6596,
      "मर": 6597,
      "लक्ष": 6598,
      "वली": 6599,
      "सता": 6600,
      "सवीं": 6601,
      "ील": 6602,
      "स्वी": 6603,
      "काव्य": 6604,
      "राथ": 6605,
      "ियंस": 6606,
      "प्रो": 6607,
      "प्रयोग": 6608,
      "प्रबंधन": 6609,
      "प्रवेश": 6610,
      "नाथ": 6611,
      "कीय": 6612,
      "203": 6613,
      "बाँ": 6614,
      "करी": 6615,
      "लाड़ी": 6616,
      "न्स्टर": 6617,
      "तरी": 6618,
      "समस": 6619,
      "मिन्स्टर": 6620,
      "निरूप": 6621,
      "वेस्ट": 6622,
      "धानिक": 6623,
      "राष्ट्रभाषा": 6624,
      "बीसवीं": 6625,
      "लगे": 6626,
      "महाकाव्य": 6627,
      "च्चा": 6628,
      "अनुमान": 6629,
      "गुफा": 6630,
      "बढ़ा": 6631,
      "निर्धार": 6632,
      "न्नई": 6633,
      "यून": 6634,
      "गणतंत्र": 6635,
      "गाँधी": 6636,
      "बंगाली": 6637,
      "शिल्प": 6638,
      "त्याग": 6639,
      "ऊपरी": 6640,
      "अभि": 6641,
      "इतिहासकार": 6642,
      "ज्ञानिक": 6643,
      "निर्यातक": 6644,
      "क्सचेंज": 6645,
      "बुद्ध": 6646,
      "मणिपुरी": 6647,
      "Australian": 6648,
      "मशीनरी": 6649,
      "सत्ता": 6650,
      "Monsoon": 6651,
      "Post": 6652,
      "जम्मू": 6653,
      "णिज्य": 6654,
      "धरोहर": 6655,
      "निरूपण": 6656,
      "वेस्टमिन्स्टर": 6657,
      "094": 6658,
      "45": 6659,
      "540": 6660,
      "600": 6661,
      "97": 6662,
      "आर्ट": 6663,
      "इका": 6664,
      "उमि": 6665,
      "ऊँच": 6666,
      "ओल": 6667,
      "कौ": 6668,
      "कड़ा": 6669,
      "खोज": 6670,
      "चै": 6671,
      "जमी": 6672,
      "टो": 6673,
      "दसक": 6674,
      "धँ": 6675,
      "नंबर": 6676,
      "बला": 6677,
      "ब्या": 6678,
      "भइले": 6679,
      "मॉ": 6680,
      "रंग": 6681,
      "लल": 6682,
      "सऽ": 6683,
      "हऽ": 6684,
      "हवा": 6685,
      "हवें": 6686,
      "केमिक": 6687,
      "entry": 6688,
      "स्कार": 6689,
      "र्द": 6690,
      "काबला": 6691,
      "सेक्ट": 6692,
      "िकल": 6693,
      "औरतन": 6694,
      "साइ": 6695,
      "बाड़ें": 6696,
      "मामिला": 6697,
      "हासिल": 6698,
      "कारन": 6699,
      "होख": 6700,
      "होत": 6701,
      "होले": 6702,
      "दीपी": 6703,
      "लेख": 6704,
      "किलो": 6705,
      "निचला": 6706,
      "राज्यक्षेत्र": 6707,
      "मुगल": 6708,
      "मुकाबला": 6709,
      "बिदेसी": 6710,
      "इसन": 6711,
      "लोगन": 6712,
      "लिहल": 6713,
      "लिथिक": 6714,
      "मीटर": 6715,
      "ंडल": 6716,
      "दास": 6717,
      "जेकर": 6718,
      "जेवन": 6719,
      "जेकरा": 6720,
      "सुरू": 6721,
      "चुनल": 6722,
      "ंपिक": 6723,
      "धीन": 6724,
      "भइलें": 6725,
      "पुरस्कार": 6726,
      "इंडियन": 6727,
      "प्रतिनि": 6728,
      "खेलकू": 6729,
      "पैमाना": 6730,
      "बेक": 6731,
      "जिनहन": 6732,
      "रिपब्लिक": 6733,
      "उनहन": 6734,
      "423": 6735,
      "ोजित": 6736,
      "परिभाष": 6737,
      "अभिन": 6738,
      "आयोजित": 6739,
      "देखावत": 6740,
      "किनारा": 6741,
      "गहना": 6742,
      "समुंद्री": 6743,
      "आजादी": 6744,
      "परबत": 6745,
      "संरक्षण": 6746,
      "अंडमान": 6747,
      "तहत": 6748,
      "बतावल": 6749,
      "इकाई": 6750,
      "उमिर": 6751,
      "ओलंपिक": 6752,
      "कौनों": 6753,
      "मॉडल": 6754,
      "केमिकल": 6755,
      "सेक्टर": 6756,
      "किलोमीटर": 6757,
      "खेलकूद": 6758,
      "परिभाषित": 6759,
      "33": 6760,
      "76": 6761,
      "ँचा": 6762,
      "ंपर": 6763,
      "ंतु": 6764,
      "ंतीस": 6765,
      "अथ": 6766,
      "अक्ष": 6767,
      "अरु": 6768,
      "अल्": 6769,
      "अत्य": 6770,
      "अग्र": 6771,
      "अशांति": 6772,
      "असैनिक": 6773,
      "आए": 6774,
      "आव": 6775,
      "आने": 6776,
      "आपूर्": 6777,
      "आकृ": 6778,
      "आवं": 6779,
      "आकर्ष": 6780,
      "इजरा": 6781,
      "इत्या": 6782,
      "इण्ड": 6783,
      "उद": 6784,
      "उस": 6785,
      "उन्ह": 6786,
      "उभरी": 6787,
      "ऊर्": 6788,
      "एस": 6789,
      "एसो": 6790,
      "ऐसे": 6791,
      "ऐसी": 6792,
      "ऐतिहास": 6793,
      "कहीं": 6794,
      "कंक": 6795,
      "खण्ड": 6796,
      "ग्": 6797,
      "गये": 6798,
      "घनि": 6799,
      "छूट": 6800,
      "जंग": 6801,
      "जवा": 6802,
      "तत्": 6803,
      "तनाव": 6804,
      "दों": 6805,
      "दमन": 6806,
      "न्य": 6807,
      "नये": 6808,
      "पमान": 6809,
      "पत्य": 6810,
      "पसन्द": 6811,
      "बॉ": 6812,
      "बहा": 6813,
      "म्र": 6814,
      "म्य": 6815,
      "मन्": 6816,
      "महि": 6817,
      "मंच": 6818,
      "यहा": 6819,
      "रसा": 6820,
      "रंजन": 6821,
      "ल्ट": 6822,
      "व्र": 6823,
      "वस्त": 6824,
      "वधान": 6825,
      "वाने": 6826,
      "व्यव": 6827,
      "वक्त": 6828,
      "शै": 6829,
      "षण": 6830,
      "सकर": 6831,
      "सक्ष": 6832,
      "सतर": 6833,
      "सशस्त्र": 6834,
      "सियस": 6835,
      "स्रो": 6836,
      "हद": 6837,
      "हम": 6838,
      "हस्ता": 6839,
      "ुण्": 6840,
      "ुक्यों": 6841,
      "ूदी": 6842,
      "ेदारी": 6843,
      "१४": 6844,
      "१६": 6845,
      "१००": 6846,
      "१२०": 6847,
      "२३": 6848,
      "३२": 6849,
      "३७": 6850,
      "३८": 6851,
      "४३": 6852,
      "५२": 6853,
      "६६": 6854,
      "७९": 6855,
      "ेंद्र": 6856,
      "स्ति": 6857,
      "स्वर्ण": 6858,
      "र्ता": 6859,
      "सेमी": 6860,
      "सेल्": 6861,
      "राशि": 6862,
      "ियर": 6863,
      "प्रमाण": 6864,
      "कीर्": 6865,
      "साफ़": 6866,
      "परन्तु": 6867,
      "परंतु": 6868,
      "संसार": 6869,
      "संबर": 6870,
      "संगठन": 6871,
      "तापमान": 6872,
      "तिब्ब": 6873,
      "वित्": 6874,
      "विभाग": 6875,
      "विधि": 6876,
      "विभाज": 6877,
      "विभाजन": 6878,
      "विंध्याचल": 6879,
      "करवाने": 6880,
      "लाइ": 6881,
      "ड़िया": 6882,
      "त्रि": 6883,
      "थाई": 6884,
      "भाबर": 6885,
      "देता": 6886,
      "देते": 6887,
      "मामले": 6888,
      "जापान": 6889,
      "कोपे": 6890,
      "समे": 6891,
      "लेखन": 6892,
      "याब": 6893,
      "वाह": 6894,
      "वाधिक": 6895,
      "तीसरे": 6896,
      "तीव्र": 6897,
      "पाइन": 6898,
      "रूपरे": 6899,
      "मुक्त": 6900,
      "मुम्ब": 6901,
      "रीबी": 6902,
      "मानी": 6903,
      "मानों": 6904,
      "नीत": 6905,
      "वर्गी": 6906,
      "जिसे": 6907,
      "जिमेंट": 6908,
      "रूपए": 6909,
      "उत्थान": 6910,
      "पुलि": 6911,
      "षाण": 6912,
      "सिएशन": 6913,
      "इसने": 6914,
      "बहुपक्ष": 6915,
      "वार्य": 6916,
      "मिलित": 6917,
      "राष्ट्रों": 6918,
      "खासकर": 6919,
      "दिवाली": 6920,
      "दिसंबर": 6921,
      "रेजिमेंट": 6922,
      "प्रावधान": 6923,
      "कुलीन": 6924,
      "ल्म": 6925,
      "दादरा": 6926,
      "उत्तरदाय": 6927,
      "धर्मनिरपेक्ष": 6928,
      "यहूदी": 6929,
      "म्बे": 6930,
      "कालिक": 6931,
      "पारसी": 6932,
      "पारंपर": 6933,
      "उपग्रह": 6934,
      "हरलाल": 6935,
      "सामने": 6936,
      "करेगी": 6937,
      "अनुसूची": 6938,
      "क्री": 6939,
      "चलने": 6940,
      "पीए": 6941,
      "निर्माता": 6942,
      "तिकर्ता": 6943,
      "मंत्रण": 6944,
      "अधिकतर": 6945,
      "केंद्रशासित": 6946,
      "हनन": 6947,
      "नामों": 6948,
      "मध्यप्रदेश": 6949,
      "मध्यकालीन": 6950,
      "ज़न": 6951,
      "हवेली": 6952,
      "ेरल": 6953,
      "न्नति": 6954,
      "मैदानों": 6955,
      "पुराने": 6956,
      "पुराना": 6957,
      "यूपीए": 6958,
      "हिस्सों": 6959,
      "बनाए": 6960,
      "बनाता": 6961,
      "मनु": 6962,
      "योग्य": 6963,
      "इलावा": 6964,
      "मुख्यरूप": 6965,
      "०००": 6966,
      "पैमाने": 6967,
      "पैंतीस": 6968,
      "ईसाई": 6969,
      "दलों": 6970,
      "ार्कट": 6971,
      "स्थानों": 6972,
      "बेटे": 6973,
      "दशहरा": 6974,
      "इनका": 6975,
      "देखो": 6976,
      "देखने": 6977,
      "देखते": 6978,
      "कामयाब": 6979,
      "फ़ि": 6980,
      "फ़ेड": 6981,
      "गठित": 6982,
      "सम्प्रभु": 6983,
      "सम्मिलित": 6984,
      "पार्टियां": 6985,
      "दर्ज़": 6986,
      "मौसम": 6987,
      "बोला": 6988,
      "बोली": 6989,
      "मूल्यों": 6990,
      "अवसा": 6991,
      "गतिशील": 6992,
      "बैंक": 6993,
      "पर्वतम": 6994,
      "युद्धों": 6995,
      "आपके": 6996,
      "चरम": 6997,
      "वालों": 6998,
      "तटों": 6999,
      "न्यायालयों": 7000,
      "चलाया": 7001,
      "वर्णित": 7002,
      "बनीं": 7003,
      "अमेरिकी": 7004,
      "जनतांत्रिक": 7005,
      "व्यक्ति": 7006,
      "आईटी": 7007,
      "चित्र": 7008,
      "शहरीकरण": 7009,
      "कर्मियों": 7010,
      "चालुक्यों": 7011,
      "राजाओं": 7012,
      "फिल्म": 7013,
      "जैसी": 7014,
      "१८५": 7015,
      "पर्यटक": 7016,
      "अमरीका": 7017,
      "पोत": 7018,
      "डिग्री": 7019,
      "मार्च": 7020,
      "प्रायद्वीप": 7021,
      "एनएस": 7022,
      "शक्तियों": 7023,
      "पर्वतश्रेणी": 7024,
      "शहरों": 7025,
      "टेलीविज़न": 7026,
      "नौसेना": 7027,
      "रखने": 7028,
      "सामान्य": 7029,
      "आठवीं": 7030,
      "एवम": 7031,
      "क्योंकि": 7032,
      "नवगठित": 7033,
      "मनाए": 7034,
      "नागरिकों": 7035,
      "निम्नवत": 7036,
      "अर्ध": 7037,
      "कंपनियों": 7038,
      "ढाँचा": 7039,
      "तराई": 7040,
      "विधायिका": 7041,
      "न्यायाधिकार": 7042,
      "पहाड़ियाँ": 7043,
      "साझेदारी": 7044,
      "ंगीण": 7045,
      "अंग्रेजों": 7046,
      "अनिवार्य": 7047,
      "अधिराज्य": 7048,
      "जन्म": 7049,
      "नरेंद्र": 7050,
      "बहती": 7051,
      "महीने": 7052,
      "लौटना": 7053,
      "करोड": 7054,
      "मिश्रित": 7055,
      "वामपंथी": 7056,
      "जिन्हे": 7057,
      "मध्यमवर्ग": 7058,
      "मोर्चा": 7059,
      "अभियानों": 7060,
      "अन्तर्गत": 7061,
      "समझौते": 7062,
      "सौहार्दपूर्ण": 7063,
      "खानपान": 7064,
      "ग़रीबी": 7065,
      "नवीन": 7066,
      "श्यक": 7067,
      "संचालित": 7068,
      "महाद्वीपों": 7069,
      "मनोरंजन": 7070,
      "उठाया": 7071,
      "अथवा": 7072,
      "अक्षुण्": 7073,
      "अरुणा": 7074,
      "अल्पाइन": 7075,
      "अग्रणी": 7076,
      "आवश्यक": 7077,
      "आपूर्तिकर्ता": 7078,
      "आकर्षित": 7079,
      "इजरायल": 7080,
      "इत्यादि": 7081,
      "इण्डिया": 7082,
      "उदय": 7083,
      "उन्होंने": 7084,
      "ऊर्जा": 7085,
      "एसोसिएशन": 7086,
      "ऐतिहासिक": 7087,
      "कंकड": 7088,
      "घनिष्ठ": 7089,
      "जंगलों": 7090,
      "जवाहरलाल": 7091,
      "तत्कालीन": 7092,
      "महिला": 7093,
      "मंचों": 7094,
      "यहां": 7095,
      "रसायन": 7096,
      "वस्तु": 7097,
      "सक्षम": 7098,
      "स्रोत": 7099,
      "हस्ताक्षर": 7100,
      "सेल्सियस": 7101,
      "वित्त": 7102,
      "विभाजित": 7103,
      "कोपेन": 7104,
      "रूपरेखा": 7105,
      "मुम्बई": 7106,
      "वर्गीकरण": 7107,
      "पुलिस": 7108,
      "बहुपक्षीय": 7109,
      "पारंपरिक": 7110,
      "ार्कटिका": 7111,
      "फ़ेडेरल": 7112,
      "पर्वतमाला": 7113,
      "एनएसजी": 7114,
      "अक्षुण्ण": 7115,
      "37": 7116,
      "350": 7117,
      "ंज": 7118,
      "ंब": 7119,
      "ंती": 7120,
      "ंतिक": 7121,
      "ंचे": 7122,
      "ंरिक": 7123,
      "अस": 7124,
      "अराज": 7125,
      "असफल": 7126,
      "अजं": 7127,
      "अप्रत्यक्ष": 7128,
      "आती": 7129,
      "आयु": 7130,
      "आवास": 7131,
      "आजीविका": 7132,
      "इर": 7133,
      "इंट": 7134,
      "इंजी": 7135,
      "उद्": 7136,
      "उल्": 7137,
      "एक्सचेंज": 7138,
      "ओरि": 7139,
      "कता": 7140,
      "कने": 7141,
      "कमा": 7142,
      "कबी": 7143,
      "कमो": 7144,
      "कणी": 7145,
      "कच्चा": 7146,
      "खि": 7147,
      "खोल": 7148,
      "खदेव": 7149,
      "गौ": 7150,
      "गिर": 7151,
      "घू": 7152,
      "चम": 7153,
      "चंद्र": 7154,
      "चेर": 7155,
      "चन्द्र": 7156,
      "छे": 7157,
      "जर": 7158,
      "जार": 7159,
      "जित": 7160,
      "टें": 7161,
      "ट्य": 7162,
      "टान": 7163,
      "डच": 7164,
      "डोग": 7165,
      "डिक्": 7166,
      "डियो": 7167,
      "तवाँ": 7168,
      "दड़": 7169,
      "धन": 7170,
      "धो": 7171,
      "धम्": 7172,
      "धारी": 7173,
      "पन": 7174,
      "पों": 7175,
      "पाली": 7176,
      "पहल": 7177,
      "पोषण": 7178,
      "फू": 7179,
      "फेर": 7180,
      "बंगा": 7181,
      "बूत": 7182,
      "भगत": 7183,
      "म्या": 7184,
      "मबे": 7185,
      "यी": 7186,
      "यक्ष": 7187,
      "यमु": 7188,
      "रनेट": 7189,
      "लझ": 7190,
      "लत": 7191,
      "लब": 7192,
      "शः": 7193,
      "शतर": 7194,
      "सौ": 7195,
      "सन्": 7196,
      "सिक्": 7197,
      "हड़": 7198,
      "िवार": 7199,
      "िस्तान": 7200,
      "ीव": 7201,
      "ुनि": 7202,
      "ूप": 7203,
      "ूद्वीप": 7204,
      "ृह": 7205,
      "ेप": 7206,
      "ेस": 7207,
      "ौलत": 7208,
      "केबि": 7209,
      "स्मार": 7210,
      "र्भ": 7211,
      "र्स": 7212,
      "काली": 7213,
      "कांग्रेस": 7214,
      "राण": 7215,
      "रात": 7216,
      "प्रग": 7217,
      "प्रश": 7218,
      "प्रदर्शन": 7219,
      "प्रदाय": 7220,
      "प्रेस": 7221,
      "क्के": 7222,
      "क्ता": 7223,
      "क्लिक": 7224,
      "नाट्य": 7225,
      "साँची": 7226,
      "सातवाँ": 7227,
      "संस्थाप": 7228,
      "ताकि": 7229,
      "नेपाली": 7230,
      "तिथि": 7231,
      "विरु": 7232,
      "करवा": 7233,
      "लाय": 7234,
      "लावी": 7235,
      "ड़े": 7236,
      "न्धी": 7237,
      "भांग": 7238,
      "हिनी": 7239,
      "राजगु": 7240,
      "राजीव": 7241,
      "त्थान": 7242,
      "कोर": 7243,
      "द्धिक": 7244,
      "्यावर्त": 7245,
      "समर": 7246,
      "समी": 7247,
      "भीमबे": 7248,
      "निस": 7249,
      "निभा": 7250,
      "शाखा": 7251,
      "बिहू": 7252,
      "बिहारी": 7253,
      "तेल": 7254,
      "नीव": 7255,
      "वीर": 7256,
      "वर्तन": 7257,
      "जनगण": 7258,
      "जनपद": 7259,
      "टेन": 7260,
      "टेनिस": 7261,
      "स्तूप": 7262,
      "उत्तरा": 7263,
      "उत्पत्ति": 7264,
      "पुर्त": 7265,
      "सरदार": 7266,
      "सिन्धी": 7267,
      "अनसु": 7268,
      "शासक": 7269,
      "शासकीय": 7270,
      "लिंग": 7271,
      "स्वशासित": 7272,
      "प्पा": 7273,
      "कृष्": 7274,
      "मीडिया": 7275,
      "ंडिया": 7276,
      "रुआती": 7277,
      "रुत्थान": 7278,
      "गोवा": 7279,
      "गोदा": 7280,
      "गोलिक": 7281,
      "बीसवी": 7282,
      "बीबीसी": 7283,
      "दिन": 7284,
      "रेखा": 7285,
      "रेडियो": 7286,
      "कुपोषण": 7287,
      "सुभाष": 7288,
      "सुदूर": 7289,
      "सुखदेव": 7290,
      "सुधारी": 7291,
      "सारा": 7292,
      "पारिवार": 7293,
      "महाभारत": 7294,
      "महावीर": 7295,
      "महाजनपद": 7296,
      "जोदड़": 7297,
      "अपील": 7298,
      "उपभो": 7299,
      "हरगढ़": 7300,
      "पूर्वोत्तर": 7301,
      "स्ट्रे": 7302,
      "अनुया": 7303,
      "अनुपात": 7304,
      "विश्वपटल": 7305,
      "पीढ़": 7306,
      "भूटान": 7307,
      "केंद्रित": 7308,
      "गरबा": 7309,
      "धीश": 7310,
      "156": 7311,
      "निक्ष": 7312,
      "चाय": 7313,
      "दूसरा": 7314,
      "ानांतर": 7315,
      "इंडस": 7316,
      "श्चित": 7317,
      "गणित": 7318,
      "गाँव": 7319,
      "मतलब": 7320,
      "जिनका": 7321,
      "महान": 7322,
      "हिमालयी": 7323,
      "चेरी": 7324,
      "चेन्नई": 7325,
      "तीसरा": 7326,
      "पूर्णतः": 7327,
      "दर्जा": 7328,
      "बोस": 7329,
      "फलस्वरुप": 7330,
      "245": 7331,
      "बौद्धिक": 7332,
      "परिस्थित": 7333,
      "कमजोर": 7334,
      "गतिमान": 7335,
      "शेखर": 7336,
      "आतंरिक": 7337,
      "सहज": 7338,
      "राष्ट्रपिता": 7339,
      "बदौलत": 7340,
      "ब्रिटेन": 7341,
      "मेहरगढ़": 7342,
      "अफगान": 7343,
      "मैथि": 7344,
      "क्रिसमस": 7345,
      "कश्मीरी": 7346,
      "बदलती": 7347,
      "लावनी": 7348,
      "लड़ाई": 7349,
      "इस्लामी": 7350,
      "कोंकणी": 7351,
      "मोहनजोदड़": 7352,
      "कन्नड": 7353,
      "कन्नड़": 7354,
      "खनन": 7355,
      "जयंती": 7356,
      "भेद": 7357,
      "सूत्रपात": 7358,
      "आजाद": 7359,
      "आर्यावर्त": 7360,
      "कंपनी": 7361,
      "डांडिया": 7362,
      "विधता": 7363,
      "गुटनिरपेक्ष": 7364,
      "न्यायाधीश": 7365,
      "पुनरुत्थान": 7366,
      "क्रमशः": 7367,
      "भरतनाट्य": 7368,
      "बांग्लादेश": 7369,
      "ओडिसी": 7370,
      "अल्पमत": 7371,
      "आर्यन": 7372,
      "क्रांतिक": 7373,
      "कम्पनी": 7374,
      "नेताजी": 7375,
      "पांड्य": 7376,
      "नियंत्रण": 7377,
      "पोर्टल": 7378,
      "उर्दू": 7379,
      "एकाधिकार": 7380,
      "नक्शा": 7381,
      "यूनानी": 7382,
      "अराजकता": 7383,
      "अजंता": 7384,
      "इंटरनेट": 7385,
      "इंजीनिय": 7386,
      "उद्देश": 7387,
      "कनेक्शन": 7388,
      "गौतम": 7389,
      "घूमर": 7390,
      "चमड़ा": 7391,
      "चंद्रशेखर": 7392,
      "डोगरी": 7393,
      "डिक्शन": 7394,
      "धम्म": 7395,
      "पोंगल": 7396,
      "यक्षगान": 7397,
      "यमुना": 7398,
      "शतरंज": 7399,
      "हड़प्पा": 7400,
      "कालीबंगा": 7401,
      "संस्थापक": 7402,
      "विरुद्ध": 7403,
      "लावीरा": 7404,
      "भांगड़ा": 7405,
      "राजगुरू": 7406,
      "भीमबेटका": 7407,
      "जनगणना": 7408,
      "पुर्तगाल": 7409,
      "अनसुलझ": 7410,
      "कृष्णा": 7411,
      "गोदावरी": 7412,
      "सुधारीकरण": 7413,
      "पारिवारिक": 7414,
      "उपभोक्ता": 7415,
      "निक्षेप": 7416,
      "अफगानिस्तान": 7417,
      "मैथिली": 7418,
      "मोहनजोदड़ो": 7419,
      "भरतनाट्यम": 7420,
      "क्रांतिकारी": 7421,
      "01": 7422,
      "05": 7423,
      "119": 7424,
      "113": 7425,
      "230": 7426,
      "235": 7427,
      "232": 7428,
      "34": 7429,
      "380": 7430,
      "343": 7431,
      "421": 7432,
      "431": 7433,
      "54": 7434,
      "546": 7435,
      "580": 7436,
      "522": 7437,
      "562": 7438,
      "65": 7439,
      "627": 7440,
      "663": 7441,
      "79": 7442,
      "740": 7443,
      "731": 7444,
      "800": 7445,
      "91": 7446,
      "940": 7447,
      "AI": 7448,
      "Ad": 7449,
      "Ap": 7450,
      "Az": 7451,
      "Aṣ": 7452,
      "Aver": 7453,
      "Amar": 7454,
      "Aph": 7455,
      "Atal": 7456,
      "Apr": 7457,
      "Att": 7458,
      "Adiv": 7459,
      "Atom": 7460,
      "Aug": 7461,
      "BS": 7462,
      "Be": 7463,
      "Ban": 7464,
      "Bed": 7465,
      "Bas": 7466,
      "Bol": 7467,
      "Bri": 7468,
      "Bro": 7469,
      "But": 7470,
      "Bhas": 7471,
      "Bod": 7472,
      "Bel": 7473,
      "Bound": 7474,
      "Based": 7475,
      "Bah": 7476,
      "Bakh": 7477,
      "Brun": 7478,
      "Boulder": 7479,
      "Both": 7480,
      "CN": 7481,
      "Ca": 7482,
      "Co": 7483,
      "Cu": 7484,
      "Cor": 7485,
      "Cre": 7486,
      "Cam": 7487,
      "Clo": 7488,
      "Crit": 7489,
      "Coun": 7490,
      "Chi": 7491,
      "Crow": 7492,
      "Cold": 7493,
      "Census": 7494,
      "Crest": 7495,
      "DN": 7496,
      "Dh": 7497,
      "Di": 7498,
      "Don": 7499,
      "Dand": 7500,
      "Dic": 7501,
      "Dad": 7502,
      "Dav": 7503,
      "Dog": 7504,
      "Dire": 7505,
      "Domin": 7506,
      "Dev": 7507,
      "Daman": 7508,
      "Dhol": 7509,
      "Despite": 7510,
      "Eg": 7511,
      "Em": 7512,
      "Ep": 7513,
      "Ev": 7514,
      "Eth": 7515,
      "Ele": 7516,
      "Edu": 7517,
      "Elect": 7518,
      "Each": 7519,
      "Ell": 7520,
      "Esch": 7521,
      "Fl": 7522,
      "Fr": 7523,
      "Fed": 7524,
      "Fic": 7525,
      "Ful": 7526,
      "Fut": 7527,
      "Fish": 7528,
      "Four": 7529,
      "Further": 7530,
      "Falls": 7531,
      "Faith": 7532,
      "Gr": 7533,
      "Gan": 7534,
      "Gar": 7535,
      "Gre": 7536,
      "Gam": 7537,
      "God": 7538,
      "Govern": 7539,
      "Grad": 7540,
      "Great": 7541,
      "Gow": 7542,
      "Garb": 7543,
      "HZ": 7544,
      "Hy": 7545,
      "Har": 7546,
      "Hor": 7547,
      "Hom": 7548,
      "Hary": 7549,
      "Hass": 7550,
      "Hel": 7551,
      "IT": 7552,
      "IU": 7553,
      "Iy": 7554,
      "Ire": 7555,
      "Iran": 7556,
      "Ident": 7557,
      "Jo": 7558,
      "Jim": 7559,
      "Jap": 7560,
      "Jai": 7561,
      "Just": 7562,
      "Jains": 7563,
      "Jail": 7564,
      "Ke": 7565,
      "Kar": 7566,
      "Kes": 7567,
      "King": 7568,
      "Kut": 7569,
      "Kill": 7570,
      "Ksh": 7571,
      "Kum": 7572,
      "Kali": 7573,
      "Kail": 7574,
      "Khan": 7575,
      "Kangra": 7576,
      "La": 7577,
      "Lal": 7578,
      "Lat": 7579,
      "Lad": 7580,
      "Long": 7581,
      "Lok": 7582,
      "Lef": 7583,
      "Lati": 7584,
      "Lake": 7585,
      "Local": 7586,
      "Me": 7587,
      "Mor": 7588,
      "Mas": 7589,
      "Mit": 7590,
      "Mil": 7591,
      "Mag": 7592,
      "Mang": 7593,
      "Mong": 7594,
      "May": 7595,
      "Mult": 7596,
      "Map": 7597,
      "Mig": 7598,
      "Mall": 7599,
      "Mount": 7600,
      "Meas": 7601,
      "Meh": 7602,
      "Miz": 7603,
      "Na": 7604,
      "Nil": 7605,
      "Nain": 7606,
      "Nass": 7607,
      "Nav": 7608,
      "Nations": 7609,
      "Narm": 7610,
      "Natak": 7611,
      "Of": 7612,
      "Ox": 7613,
      "Open": 7614,
      "Ph": 7615,
      "Py": 7616,
      "Pā": 7617,
      "Pan": 7618,
      "Pain": 7619,
      "Pres": 7620,
      "Pub": 7621,
      "Pach": 7622,
      "Parch": 7623,
      "Pali": 7624,
      "Pash": 7625,
      "Pars": 7626,
      "Pandy": 7627,
      "Pream": 7628,
      "Qut": 7629,
      "Ra": 7630,
      "Ru": 7631,
      "Rā": 7632,
      "Res": 7633,
      "Ras": 7634,
      "Rus": 7635,
      "Ret": 7636,
      "Ray": 7637,
      "Rid": 7638,
      "Rig": 7639,
      "Rav": 7640,
      "Rai": 7641,
      "Rev": 7642,
      "Raman": 7643,
      "Rann": 7644,
      "Rice": 7645,
      "Roor": 7646,
      "Roman": 7647,
      "Rakhi": 7648,
      "Sr": 7649,
      "Su": 7650,
      "Sy": 7651,
      "Sū": 7652,
      "Son": 7653,
      "Sent": 7654,
      "Sec": 7655,
      "Sam": 7656,
      "Sch": 7657,
      "Sig": 7658,
      "Sup": 7659,
      "Sha": 7660,
      "Sach": 7661,
      "Since": 7662,
      "Sho": 7663,
      "Sultan": 7664,
      "Sange": 7665,
      "Sports": 7666,
      "Sched": 7667,
      "Sett": 7668,
      "Sovereign": 7669,
      "Sind": 7670,
      "Sindh": 7671,
      "Tr": 7672,
      "Ts": 7673,
      "Ty": 7674,
      "Tit": 7675,
      "Tur": 7676,
      "Tri": 7677,
      "Tro": 7678,
      "Test": 7679,
      "Tap": 7680,
      "Tig": 7681,
      "Tend": 7682,
      "Tod": 7683,
      "Trad": 7684,
      "Tai": 7685,
      "Tris": 7686,
      "Taj": 7687,
      "Teth": 7688,
      "Tip": 7689,
      "Tash": 7690,
      "Temper": 7691,
      "Tung": 7692,
      "Trig": 7693,
      "Tech": 7694,
      "Uni": 7695,
      "Uday": 7696,
      "Ved": 7697,
      "Virt": 7698,
      "Vindh": 7699,
      "We": 7700,
      "Wi": 7701,
      "Wid": 7702,
      "Whe": 7703,
      "Wild": 7704,
      "When": 7705,
      "Woods": 7706,
      "With": 7707,
      "Willi": 7708,
      "Yam": 7709,
      "Yug": 7710,
      "az": 7711,
      "aon": 7712,
      "aut": 7713,
      "ahead": 7714,
      "ba": 7715,
      "br": 7716,
      "bɦ": 7717,
      "bin": 7718,
      "bit": 7719,
      "bur": 7720,
      "bol": 7721,
      "bli": 7722,
      "bate": 7723,
      "bak": 7724,
      "big": 7725,
      "bally": 7726,
      "bled": 7727,
      "bade": 7728,
      "blowing": 7729,
      "bust": 7730,
      "bility": 7731,
      "bitions": 7732,
      "bhā": 7733,
      "cas": 7734,
      "cle": 7735,
      "cli": 7736,
      "cra": 7737,
      "cab": 7738,
      "cies": 7739,
      "cres": 7740,
      "care": 7741,
      "cum": 7742,
      "cig": 7743,
      "cine": 7744,
      "core": 7745,
      "cence": 7746,
      "crow": 7747,
      "cations": 7748,
      "cited": 7749,
      "cold": 7750,
      "capp": 7751,
      "camp": 7752,
      "cise": 7753,
      "case": 7754,
      "cended": 7755,
      "calls": 7756,
      "dd": 7757,
      "dan": 7758,
      "din": 7759,
      "dur": 7760,
      "dou": 7761,
      "dam": 7762,
      "dol": 7763,
      "dang": 7764,
      "drom": 7765,
      "dated": 7766,
      "doc": 7767,
      "dress": 7768,
      "dome": 7769,
      "dai": 7770,
      "drough": 7771,
      "done": 7772,
      "dens": 7773,
      "dos": 7774,
      "dden": 7775,
      "dining": 7776,
      "danda": 7777,
      "dasi": 7778,
      "despite": 7779,
      "een": 7780,
      "ees": 7781,
      "eing": 7782,
      "eur": 7783,
      "ele": 7784,
      "eag": 7785,
      "eper": 7786,
      "eld": 7787,
      "eap": 7788,
      "eans": 7789,
      "epul": 7790,
      "eved": 7791,
      "evement": 7792,
      "eking": 7793,
      "fre": 7794,
      "fle": 7795,
      "fra": 7796,
      "fun": 7797,
      "fill": 7798,
      "fts": 7799,
      "foun": 7800,
      "fend": 7801,
      "fru": 7802,
      "fine": 7803,
      "flat": 7804,
      "foc": 7805,
      "fire": 7806,
      "flowing": 7807,
      "ffed": 7808,
      "flows": 7809,
      "fables": 7810,
      "faster": 7811,
      "future": 7812,
      "fought": 7813,
      "faith": 7814,
      "go": 7815,
      "ger": 7816,
      "gal": 7817,
      "gic": 7818,
      "ging": 7819,
      "gol": 7820,
      "gation": 7821,
      "gain": 7822,
      "gres": 7823,
      "gment": 7824,
      "gap": 7825,
      "greg": 7826,
      "graph": 7827,
      "gives": 7828,
      "gative": 7829,
      "gross": 7830,
      "giant": 7831,
      "gonomet": 7832,
      "gilli": 7833,
      "gentry": 7834,
      "hl": 7835,
      "hâ": 7836,
      "hand": 7837,
      "hic": 7838,
      "hom": 7839,
      "hur": 7840,
      "hary": 7841,
      "hel": 7842,
      "hmin": 7843,
      "home": 7844,
      "hour": 7845,
      "hana": 7846,
      "hund": 7847,
      "hwal": 7848,
      "haps": 7849,
      "hgal": 7850,
      "idi": 7851,
      "ied": 7852,
      "iand": 7853,
      "iec": 7854,
      "iation": 7855,
      "ider": 7856,
      "ihi": 7857,
      "iary": 7858,
      "iqu": 7859,
      "iers": 7860,
      "ific": 7861,
      "iens": 7862,
      "iety": 7863,
      "iders": 7864,
      "ible": 7865,
      "ights": 7866,
      "iff": 7867,
      "iwal": 7868,
      "ievement": 7869,
      "ji": 7870,
      "ju": 7871,
      "jan": 7872,
      "jat": 7873,
      "jid": 7874,
      "jav": 7875,
      "jour": 7876,
      "jected": 7877,
      "jamas": 7878,
      "jhol": 7879,
      "jaz": 7880,
      "jeans": 7881,
      "kat": 7882,
      "kent": 7883,
      "kim": 7884,
      "kies": 7885,
      "kma": 7886,
      "khar": 7887,
      "kers": 7888,
      "kable": 7889,
      "kesh": 7890,
      "kman": 7891,
      "kank": 7892,
      "kne": 7893,
      "kara": 7894,
      "kabad": 7895,
      "kirt": 7896,
      "ksha": 7897,
      "kmini": 7898,
      "ler": 7899,
      "lon": 7900,
      "las": 7901,
      "lis": 7902,
      "lent": 7903,
      "lil": 7904,
      "lation": 7905,
      "lun": 7906,
      "lack": 7907,
      "lining": 7908,
      "lake": 7909,
      "laps": 7910,
      "laced": 7911,
      "mā": 7912,
      "mal": 7913,
      "med": 7914,
      "mis": 7915,
      "ming": 7916,
      "mri": 7917,
      "mun": 7918,
      "mist": 7919,
      "mang": 7920,
      "mart": 7921,
      "map": 7922,
      "mud": 7923,
      "mant": 7924,
      "mone": 7925,
      "must": 7926,
      "mission": 7927,
      "master": 7928,
      "mbol": 7929,
      "nas": 7930,
      "nom": 7931,
      "nut": 7932,
      "nag": 7933,
      "nast": 7934,
      "net": 7935,
      "noun": 7936,
      "nav": 7937,
      "nine": 7938,
      "ners": 7939,
      "nath": 7940,
      "napp": 7941,
      "ov": 7942,
      "ox": 7943,
      "oist": 7944,
      "oog": 7945,
      "ota": 7946,
      "ook": 7947,
      "oice": 7948,
      "oven": 7949,
      "ocean": 7950,
      "py": 7951,
      "ping": 7952,
      "pli": 7953,
      "pill": 7954,
      "pac": 7955,
      "pure": 7956,
      "ption": 7957,
      "pect": 7958,
      "pron": 7959,
      "pren": 7960,
      "pines": 7961,
      "prise": 7962,
      "ppay": 7963,
      "panding": 7964,
      "poul": 7965,
      "pett": 7966,
      "paved": 7967,
      "piec": 7968,
      "ras": 7969,
      "rion": 7970,
      "ril": 7971,
      "ram": 7972,
      "rang": 7973,
      "rare": 7974,
      "rum": 7975,
      "rence": 7976,
      "rank": 7977,
      "rhy": 7978,
      "ranged": 7979,
      "rgarh": 7980,
      "rush": 7981,
      "san": 7982,
      "ses": 7983,
      "sof": 7984,
      "sto": 7985,
      "sent": 7986,
      "sem": 7987,
      "sus": 7988,
      "swi": 7989,
      "sun": 7990,
      "spo": 7991,
      "sions": 7992,
      "sap": 7993,
      "same": 7994,
      "slowing": 7995,
      "site": 7996,
      "smen": 7997,
      "snow": 7998,
      "sung": 7999,
      "swa": 8000,
      "sales": 8001,
      "stop": 8002,
      "sandy": 8003,
      "suture": 8004,
      "saved": 8005,
      "sought": 8006,
      "sque": 8007,
      "skilled": 8008,
      "skirt": 8009,
      "tat": 8010,
      "tas": 8011,
      "tis": 8012,
      "tch": 8013,
      "tation": 8014,
      "tang": 8015,
      "tab": 8016,
      "tain": 8017,
      "tment": 8018,
      "tap": 8019,
      "tive": 8020,
      "try": 8021,
      "tally": 8022,
      "tuc": 8023,
      "tect": 8024,
      "trough": 8025,
      "tribut": 8026,
      "tons": 8027,
      "temple": 8028,
      "tained": 8029,
      "tane": 8030,
      "uv": 8031,
      "ule": 8032,
      "ument": 8033,
      "uous": 8034,
      "uates": 8035,
      "ught": 8036,
      "uistic": 8037,
      "ukk": 8038,
      "uaries": 8039,
      "uettes": 8040,
      "ujan": 8041,
      "val": 8042,
      "vate": 8043,
      "vac": 8044,
      "vulture": 8045,
      "vals": 8046,
      "vana": 8047,
      "vati": 8048,
      "vice": 8049,
      "vail": 8050,
      "vasive": 8051,
      "vested": 8052,
      "viron": 8053,
      "vocal": 8054,
      "vPub": 8055,
      "wk": 8056,
      "wan": 8057,
      "wes": 8058,
      "wat": 8059,
      "wed": 8060,
      "wing": 8061,
      "wil": 8062,
      "will": 8063,
      "wage": 8064,
      "wai": 8065,
      "wani": 8066,
      "wati": 8067,
      "wstr": 8068,
      "winter": 8069,
      "wool": 8070,
      "walled": 8071,
      "wrap": 8072,
      "woman": 8073,
      "xal": 8074,
      "xic": 8075,
      "xur": 8076,
      "xture": 8077,
      "yi": 8078,
      "yā": 8079,
      "yī": 8080,
      "yar": 8081,
      "yed": 8082,
      "youn": 8083,
      "yog": 8084,
      "ypt": 8085,
      "yana": 8086,
      "yani": 8087,
      "yond": 8088,
      "ypically": 8089,
      "yalty": 8090,
      "zer": 8091,
      "zard": 8092,
      "zones": 8093,
      "zoog": 8094,
      "Ön": 8095,
      "ādh": 8096,
      "ārat": 8097,
      "āham": 8098,
      "Śul": 8099,
      "ət": 8100,
      "ɦɪ": 8101,
      "ɾət": 8102,
      "ʊˈ": 8103,
      "ˈbɦ": 8104,
      "ία": 8105,
      "ός": 8106,
      "ँकड़ा": 8107,
      "अक्": 8108,
      "अगर": 8109,
      "अक्षा": 8110,
      "अधीन": 8111,
      "आइ": 8112,
      "आंध": 8113,
      "आसाम": 8114,
      "आँकड़ा": 8115,
      "इतिहा": 8116,
      "ईहे": 8117,
      "कत": 8118,
      "कन": 8119,
      "कवि": 8120,
      "कबो": 8121,
      "कहे": 8122,
      "कपास": 8123,
      "कल्प": 8124,
      "ख़": 8125,
      "खो": 8126,
      "खड़ा": 8127,
      "खतम": 8128,
      "ग्रे": 8129,
      "गिन": 8130,
      "जोग": 8131,
      "जइसन": 8132,
      "टॉ": 8133,
      "टवारा": 8134,
      "तिय": 8135,
      "तला": 8136,
      "दली": 8137,
      "दहे": 8138,
      "पका": 8139,
      "फार्": 8140,
      "फ्टवेयर": 8141,
      "बर्": 8142,
      "बेर": 8143,
      "बहे": 8144,
      "बर्त": 8145,
      "मसु": 8146,
      "यान": 8147,
      "रतन": 8148,
      "लस": 8149,
      "लहीं": 8150,
      "वजूद": 8151,
      "शल": 8152,
      "शू": 8153,
      "शर्ट": 8154,
      "शलिस्ट": 8155,
      "सिकल": 8156,
      "हना": 8157,
      "िके": 8158,
      "िलियन": 8159,
      "ोबार": 8160,
      "ంజ": 8161,
      "ంతి": 8162,
      "ంపా": 8163,
      "ంజీ": 8164,
      "ంజి": 8165,
      "ంథాలు": 8166,
      "అర": 8167,
      "అల": 8168,
      "అస్": 8169,
      "అది": 8170,
      "అన్న": 8171,
      "అల్": 8172,
      "అంది": 8173,
      "అక్ష": 8174,
      "అద్ద": 8175,
      "అవర": 8176,
      "అలం": 8177,
      "అధి": 8178,
      "అరే": 8179,
      "అంద": 8180,
      "అఖండ": 8181,
      "అగ్ర": 8182,
      "అమల": 8183,
      "అహ్": 8184,
      "అంటే": 8185,
      "అంక": 8186,
      "అధీన": 8187,
      "ఆగ": 8188,
      "ఆలో": 8189,
      "ఆవి": 8190,
      "ఆతి": 8191,
      "ఆక్ర": 8192,
      "ఆనా": 8193,
      "ఆడు": 8194,
      "ఆయా": 8195,
      "ఆధ్య": 8196,
      "ఆగ్": 8197,
      "ఆవల": 8198,
      "ఆంధ": 8199,
      "ఆణి": 8200,
      "ఆంగ్ల": 8201,
      "ఆసియా": 8202,
      "ఆచార": 8203,
      "ఆర్య": 8204,
      "ఆహార": 8205,
      "ఆక్షరాస్యత": 8206,
      "ఆగ్రా": 8207,
      "ఆటలు": 8208,
      "ఆనం": 8209,
      "ఆలస్య": 8210,
      "ఆదేశాలు": 8211,
      "ఆసియాలో": 8212,
      "ఇయ": 8213,
      "ఇను": 8214,
      "ఇము": 8215,
      "ఇస్త": 8216,
      "ఇతి": 8217,
      "ఇంది": 8218,
      "ఇతరు": 8219,
      "ఇంటి": 8220,
      "ఇందు": 8221,
      "ఇప్పటికీ": 8222,
      "ఇతను": 8223,
      "ఇచ్చే": 8224,
      "ఉర్": 8225,
      "ఉద్": 8226,
      "ఉపా": 8227,
      "ఉండి": 8228,
      "ఉదా": 8229,
      "ఉండు": 8230,
      "ఉష్ణ": 8231,
      "ఉనిక": 8232,
      "ఋతు": 8233,
      "ఎమ": 8234,
      "ఎదు": 8235,
      "ఎగు": 8236,
      "ఎల్ల": 8237,
      "ఎంతో": 8238,
      "ఎగువ": 8239,
      "ఏక": 8240,
      "ఏడ": 8241,
      "ఏడు": 8242,
      "ఏటా": 8243,
      "ఏకత్వ": 8244,
      "ఏళ్ళ": 8245,
      "ఐదు": 8246,
      "ఒక్": 8247,
      "ఒరి": 8248,
      "ఒలిం": 8249,
      "ఒడిస్": 8250,
      "ఓట": 8251,
      "ఓడ": 8252,
      "ఔట్": 8253,
      "కిం": 8254,
      "కని": 8255,
      "కాయ": 8256,
      "కరా": 8257,
      "కము": 8258,
      "కిత": 8259,
      "కంట": 8260,
      "కార్": 8261,
      "కష్ట": 8262,
      "కట్ట": 8263,
      "కమైన": 8264,
      "కమీ": 8265,
      "క్యం": 8266,
      "కమల": 8267,
      "కమేన": 8268,
      "కెట్": 8269,
      "కత్తా": 8270,
      "కానీ": 8271,
      "కవరీ": 8272,
      "ఖిక": 8273,
      "ఖకు": 8274,
      "ఖగో": 8275,
      "ఖాతం": 8276,
      "ఖర్చు": 8277,
      "గృ": 8278,
      "గె": 8279,
      "గల్": 8280,
      "గించ": 8281,
      "గపు": 8282,
      "గులు": 8283,
      "గింది": 8284,
      "గలి": 8285,
      "గిన్న": 8286,
      "గనులు": 8287,
      "గౌర": 8288,
      "ఘన": 8289,
      "ఘు": 8290,
      "ఘిక": 8291,
      "ఘట్ట": 8292,
      "ఘోర": 8293,
      "ఘర్షణ": 8294,
      "చా": 8295,
      "చో": 8296,
      "చ్": 8297,
      "చర్": 8298,
      "చము": 8299,
      "చల్": 8300,
      "చిన": 8301,
      "చులు": 8302,
      "చింది": 8303,
      "చిత": 8304,
      "చక్ర": 8305,
      "చట్ట": 8306,
      "చారం": 8307,
      "ఛే": 8308,
      "ఛాయుత": 8309,
      "జా": 8310,
      "జె": 8311,
      "జై": 8312,
      "జౌ": 8313,
      "జ్ర": 8314,
      "జాన": 8315,
      "జిన": 8316,
      "జంత": 8317,
      "జైన": 8318,
      "జిత": 8319,
      "జపా": 8320,
      "జర్వ": 8321,
      "జెండ": 8322,
      "జనాలు": 8323,
      "జిల్ల": 8324,
      "జవహ": 8325,
      "జెట్": 8326,
      "ఞాన": 8327,
      "టన": 8328,
      "టో": 8329,
      "టస్": 8330,
      "టిక": 8331,
      "టండ": 8332,
      "టిన": 8333,
      "టాయి": 8334,
      "టచే": 8335,
      "ట్యం": 8336,
      "ట్రా": 8337,
      "టమూ": 8338,
      "టంతో": 8339,
      "ఠీ": 8340,
      "డ్ర": 8341,
      "డ్య": 8342,
      "డాలు": 8343,
      "డింది": 8344,
      "డ్చ": 8345,
      "డ్ల": 8346,
      "డానికి": 8347,
      "డించింది": 8348,
      "డమ్": 8349,
      "డబు": 8350,
      "ఢవి": 8351,
      "ణే": 8352,
      "ణిక": 8353,
      "ణాలు": 8354,
      "ణించ": 8355,
      "ణంతో": 8356,
      "ణదారులు": 8357,
      "ణుల": 8358,
      "తార": 8359,
      "తాయ": 8360,
      "తాన": 8361,
      "తరా": 8362,
      "తాయి": 8363,
      "తదు": 8364,
      "తలం": 8365,
      "తక్కు": 8366,
      "తగ్": 8367,
      "తమై": 8368,
      "తమ్య": 8369,
      "తాలతో": 8370,
      "తదేశపు": 8371,
      "థన": 8372,
      "థమ": 8373,
      "థి": 8374,
      "థాత": 8375,
      "థాన": 8376,
      "థార్": 8377,
      "థిక్": 8378,
      "దశ": 8379,
      "దూ": 8380,
      "దృ": 8381,
      "దాన": 8382,
      "దంలో": 8383,
      "దైన": 8384,
      "దారు": 8385,
      "దీన": 8386,
      "దగ్": 8387,
      "దీర్": 8388,
      "దసరా": 8389,
      "దగినది": 8390,
      "దక్కను": 8391,
      "ధం": 8392,
      "ధర": 8393,
      "ధా": 8394,
      "ధు": 8395,
      "ధాల": 8396,
      "ధిన": 8397,
      "ధరి": 8398,
      "ధనా": 8399,
      "ధిల్ల": 8400,
      "నై": 8401,
      "నో": 8402,
      "న్య": 8403,
      "నలు": 8404,
      "నర్": 8405,
      "నవి": 8406,
      "నల్": 8407,
      "నంలో": 8408,
      "నసా": 8409,
      "నికి": 8410,
      "నడు": 8411,
      "ననీ": 8412,
      "నబడిన": 8413,
      "నవచ్చు": 8414,
      "నదులు": 8415,
      "నమో": 8416,
      "నప్పటికినీ": 8417,
      "పక": 8418,
      "పబ": 8419,
      "పస": 8420,
      "పస్": 8421,
      "పది": 8422,
      "పర్": 8423,
      "పిన": 8424,
      "పటి": 8425,
      "పంలో": 8426,
      "పింది": 8427,
      "పూడ": 8428,
      "పిత": 8429,
      "పరాజ": 8430,
      "పచ్చ": 8431,
      "పలి": 8432,
      "పట్": 8433,
      "పవర్": 8434,
      "పించింది": 8435,
      "పించి": 8436,
      "పకళ": 8437,
      "పర్ష": 8438,
      "పత్యం": 8439,
      "పబడింది": 8440,
      "పవనాలు": 8441,
      "పౌర": 8442,
      "పండ్": 8443,
      "ఫు": 8444,
      "ఫ్ర": 8445,
      "ఫరా": 8446,
      "ఫ్ట": 8447,
      "ఫలం": 8448,
      "ఫిక్": 8449,
      "బల": 8450,
      "బై": 8451,
      "బొ": 8452,
      "బ్ర": 8453,
      "బండ": 8454,
      "బంగా": 8455,
      "బడ్": 8456,
      "బిన్న": 8457,
      "బాల్": 8458,
      "బ్రా": 8459,
      "బ్రె": 8460,
      "బాబ్": 8461,
      "బ్యా": 8462,
      "బద్ధం": 8463,
      "భ్య": 8464,
      "భిం": 8465,
      "భంగ": 8466,
      "భదాయ": 8467,
      "మయ": 8468,
      "మాల": 8469,
      "మస్": 8470,
      "మిం": 8471,
      "మాయ": 8472,
      "మరా": 8473,
      "మిన": 8474,
      "మంత": 8475,
      "మపు": 8476,
      "మంలో": 8477,
      "మలి": 8478,
      "మికి": 8479,
      "మతం": 8480,
      "మాల్": 8481,
      "మించిన": 8482,
      "మిత్ర": 8483,
      "మణి": 8484,
      "మికత": 8485,
      "మంచి": 8486,
      "మసాల": 8487,
      "మద్రా": 8488,
      "మంజ": 8489,
      "యి": 8490,
      "యూ": 8491,
      "యస్": 8492,
      "యము": 8493,
      "యిన": 8494,
      "యులు": 8495,
      "యంలో": 8496,
      "యంతో": 8497,
      "యనులు": 8498,
      "యథాత": 8499,
      "రొ": 8500,
      "రలో": 8501,
      "రాలు": 8502,
      "రకు": 8503,
      "రాయ": 8504,
      "రద్": 8505,
      "రము": 8506,
      "రత్": 8507,
      "రంగా": 8508,
      "రక్ష": 8509,
      "రవే": 8510,
      "రమైన": 8511,
      "రమే": 8512,
      "రవీ": 8513,
      "రక్షరాస్యత": 8514,
      "రారి": 8515,
      "రాతి": 8516,
      "రతాయ": 8517,
      "రబద్ధం": 8518,
      "లిన": 8519,
      "లైన": 8520,
      "లకాల": 8521,
      "లబె": 8522,
      "లహా": 8523,
      "లసిల్లు": 8524,
      "లమానం": 8525,
      "లఘు": 8526,
      "లబై": 8527,
      "లభ్య": 8528,
      "ళల": 8529,
      "ళు": 8530,
      "ళులు": 8531,
      "ళూరు": 8532,
      "ళవిం": 8533,
      "వూ": 8534,
      "వలు": 8535,
      "వలి": 8536,
      "వద్ద": 8537,
      "వస్తు": 8538,
      "వమి": 8539,
      "వాల్": 8540,
      "వస్థానంలో": 8541,
      "వనాథ": 8542,
      "వజ్ర": 8543,
      "వన్య": 8544,
      "శే": 8545,
      "శాల": 8546,
      "శక్": 8547,
      "శంలో": 8548,
      "శారు": 8549,
      "శిల్": 8550,
      "శక్తి": 8551,
      "శించే": 8552,
      "శరద్": 8553,
      "షే": 8554,
      "షాలు": 8555,
      "షులు": 8556,
      "షకాహార": 8557,
      "షనల్": 8558,
      "సొ": 8559,
      "సాలు": 8560,
      "సగా": 8561,
      "సాయ": 8562,
      "సల్": 8563,
      "సిన": 8564,
      "సభా": 8565,
      "సవా": 8566,
      "సత్య": 8567,
      "సమి": 8568,
      "సరం": 8569,
      "సీలు": 8570,
      "సత్తా": 8571,
      "సాయుత": 8572,
      "సలహా": 8573,
      "హె": 8574,
      "హొ": 8575,
      "హర్": 8576,
      "హిం": 8577,
      "హాలు": 8578,
      "హాయ": 8579,
      "హస్త": 8580,
      "హపు": 8581,
      "హక్కు": 8582,
      "హద్దులు": 8583,
      "ాము": 8584,
      "ాదు": 8585,
      "ాంబ": 8586,
      "ాశ్ర": 8587,
      "ానిస్తాన్": 8588,
      "ాదాయంలో": 8589,
      "ాంతి": 8590,
      "ాధిన": 8591,
      "ాపక": 8592,
      "ిని": 8593,
      "ిద్ర": 8594,
      "ిరంగ": 8595,
      "ిస్తారు": 8596,
      "ిళ్ళ": 8597,
      "ిటన్": 8598,
      "ిస్తాయి": 8599,
      "ియనులు": 8600,
      "ీకృ": 8601,
      "ీకరణ": 8602,
      "ీకులు": 8603,
      "ీశారు": 8604,
      "ుని": 8605,
      "ును": 8606,
      "ుల్": 8607,
      "ువు": 8608,
      "ుమూ": 8609,
      "ుర్య": 8610,
      "ుడైన": 8611,
      "ునిక": 8612,
      "ుళూరు": 8613,
      "ూలా": 8614,
      "ృతంగా": 8615,
      "ెస్": 8616,
      "ెర్": 8617,
      "ెన్న": 8618,
      "ెల్": 8619,
      "ెనే": 8620,
      "ెక్కను": 8621,
      "ేత": 8622,
      "ేది": 8623,
      "ేష్": 8624,
      "ేణి": 8625,
      "ేకమైన": 8626,
      "ేననీ": 8627,
      "ేయులు": 8628,
      "ైక": 8629,
      "ైస్త": 8630,
      "ైపో": 8631,
      "ైవరు": 8632,
      "ోక్ష": 8633,
      "ోసి": 8634,
      "ోద్య": 8635,
      "ోత్రి": 8636,
      "ోధాల": 8637,
      "్లో": 8638,
      "్వే": 8639,
      "్తదేశపు": 8640,
      "ṅga": 8641,
      "ṇa": 8642,
      "ṇin": 8643,
      "ṭādh": 8644,
      "ths": 8645,
      "thin": 8646,
      "thing": 8647,
      "thag": 8648,
      "thus": 8649,
      "thous": 8650,
      "thali": 8651,
      "thology": 8652,
      "thicken": 8653,
      "thura": 8654,
      "anar": 8655,
      "anim": 8656,
      "anistan": 8657,
      "anking": 8658,
      "anasi": 8659,
      "anjav": 8660,
      "int": 8661,
      "inst": 8662,
      "inate": 8663,
      "inet": 8664,
      "insp": 8665,
      "iniv": 8666,
      "inel": 8667,
      "inational": 8668,
      "incial": 8669,
      "inations": 8670,
      "inade": 8671,
      "inction": 8672,
      "inists": 8673,
      "indefin": 8674,
      "instru": 8675,
      "internal": 8676,
      "inaries": 8677,
      "invention": 8678,
      "inscript": 8679,
      "instead": 8680,
      "inkers": 8681,
      "theor": 8682,
      "theory": 8683,
      "eri": 8684,
      "eras": 8685,
      "erous": 8686,
      "erations": 8687,
      "eria": 8688,
      "erves": 8689,
      "erwan": 8690,
      "onisation": 8691,
      "onists": 8692,
      "onomy": 8693,
      "onwards": 8694,
      "ontally": 8695,
      "arc": 8696,
      "aran": 8697,
      "aren": 8698,
      "arri": 8699,
      "arra": 8700,
      "arial": 8701,
      "arded": 8702,
      "arose": 8703,
      "arcation": 8704,
      "arsha": 8705,
      "arettes": 8706,
      "arji": 8707,
      "arranged": 8708,
      "केस": 8709,
      "केदार": 8710,
      "alo": 8711,
      "aland": 8712,
      "alid": 8713,
      "altern": 8714,
      "alry": 8715,
      "alism": 8716,
      "although": 8717,
      "allowing": 8718,
      "alised": 8719,
      "almon": 8720,
      "alge": 8721,
      "allows": 8722,
      "alms": 8723,
      "enth": 8724,
      "endi": 8725,
      "enli": 8726,
      "ende": 8727,
      "enment": 8728,
      "encom": 8729,
      "enac": 8730,
      "ences": 8731,
      "ency": 8732,
      "encro": 8733,
      "environ": 8734,
      "esans": 8735,
      "espread": 8736,
      "escence": 8737,
      "dic": 8738,
      "dial": 8739,
      "dient": 8740,
      "dicl": 8741,
      "dici": 8742,
      "diers": 8743,
      "divis": 8744,
      "dible": 8745,
      "divide": 8746,
      "diox": 8747,
      "ator": 8748,
      "atter": 8749,
      "atol": 8750,
      "atism": 8751,
      "atures": 8752,
      "atite": 8753,
      "atna": 8754,
      "atop": 8755,
      "attu": 8756,
      "atriya": 8757,
      "attain": 8758,
      "atypically": 8759,
      "ारसी": 8760,
      "edom": 8761,
      "edary": 8762,
      "ora": 8763,
      "order": 8764,
      "orism": 8765,
      "ords": 8766,
      "orities": 8767,
      "orders": 8768,
      "orado": 8769,
      "orship": 8770,
      "orbed": 8771,
      "anded": 8772,
      "andmaster": 8773,
      "asa": 8774,
      "ason": 8775,
      "asis": 8776,
      "asim": 8777,
      "asthan": 8778,
      "asants": 8779,
      "asured": 8780,
      "aspect": 8781,
      "aswati": 8782,
      "Indust": 8783,
      "Intel": 8784,
      "Interior": 8785,
      "Instead": 8786,
      "offer": 8787,
      "ofess": 8788,
      "ofenac": 8789,
      "isi": 8790,
      "issu": 8791,
      "island": 8792,
      "isines": 8793,
      "isakhi": 8794,
      "ional": 8795,
      "ioned": 8796,
      "ionals": 8797,
      "reve": 8798,
      "reet": 8799,
      "repl": 8800,
      "repul": 8801,
      "recomm": 8802,
      "repres": 8803,
      "refin": 8804,
      "recording": 8805,
      "reverse": 8806,
      "reports": 8807,
      "rehab": 8808,
      "reject": 8809,
      "relied": 8810,
      "return": 8811,
      "retreat": 8812,
      "redients": 8813,
      "recourse": 8814,
      "remitt": 8815,
      "reorganised": 8816,
      "repren": 8817,
      "retch": 8818,
      "realms": 8819,
      "itol": 8820,
      "itud": 8821,
      "itage": 8822,
      "itous": 8823,
      "itants": 8824,
      "itself": 8825,
      "itime": 8826,
      "icated": 8827,
      "icide": 8828,
      "iconic": 8829,
      "ickable": 8830,
      "్రప్రదేశ్": 8831,
      "inga": 8832,
      "ingual": 8833,
      "ingested": 8834,
      "ingredients": 8835,
      "ారమ్": 8836,
      "ారణంగా": 8837,
      "too": 8838,
      "toad": 8839,
      "tomo": 8840,
      "tock": 8841,
      "towards": 8842,
      "toler": 8843,
      "ented": 8844,
      "entral": 8845,
      "entren": 8846,
      "entered": 8847,
      "entments": 8848,
      "entrepren": 8849,
      "omic": 8850,
      "omically": 8851,
      "omerations": 8852,
      "omason": 8853,
      "ాలని": 8854,
      "ాలనుండి": 8855,
      "ాలయం": 8856,
      "ాలన్నీ": 8857,
      "ాలెక్కను": 8858,
      "urt": 8859,
      "uru": 8860,
      "urch": 8861,
      "urgen": 8862,
      "urally": 8863,
      "urai": 8864,
      "urgence": 8865,
      "ster": 8866,
      "stra": 8867,
      "stro": 8868,
      "start": 8869,
      "still": 8870,
      "stage": 8871,
      "stup": 8872,
      "stone": 8873,
      "stics": 8874,
      "stable": 8875,
      "strate": 8876,
      "stamp": 8877,
      "stained": 8878,
      "standing": 8879,
      "stands": 8880,
      "staː": 8881,
      "stif": 8882,
      "stream": 8883,
      "stiff": 8884,
      "stretch": 8885,
      "कास": 8886,
      "काश्मी": 8887,
      "सेदारी": 8888,
      "सेसता": 8889,
      "ley": 8890,
      "leaf": 8891,
      "lexic": 8892,
      "ouse": 8893,
      "lywood": 8894,
      "ecast": 8895,
      "ects": 8896,
      "ecog": 8897,
      "ecked": 8898,
      "ecologically": 8899,
      "లోన్": 8900,
      "లోకాల": 8901,
      "లోపం": 8902,
      "లోసార్": 8903,
      "స్లో": 8904,
      "స్వే": 8905,
      "స్వర": 8906,
      "స్లే": 8907,
      "స్టే": 8908,
      "స్వర్ణ": 8909,
      "స్టలు": 8910,
      "ili": 8911,
      "ilip": 8912,
      "illegal": 8913,
      "ilingual": 8914,
      "amma": 8915,
      "amble": 8916,
      "amah": 8917,
      "amples": 8918,
      "amtre": 8919,
      "ambitions": 8920,
      "ameri": 8921,
      "్యులు": 8922,
      "్యంలో": 8923,
      "Thous": 8924,
      "Through": 8925,
      "Three": 8926,
      "Thanjav": 8927,
      "Thomason": 8928,
      "प्रतिय": 8929,
      "adult": 8930,
      "adru": 8931,
      "administer": 8932,
      "adversity": 8933,
      "adverse": 8934,
      "adjo": 8935,
      "adasis": 8936,
      "191": 8937,
      "ters": 8938,
      "tery": 8939,
      "tered": 8940,
      "terly": 8941,
      "termin": 8942,
      "terti": 8943,
      "terculture": 8944,
      "terrence": 8945,
      "న్మార్": 8946,
      "న్సీ": 8947,
      "న్లుగా": 8948,
      "क्ला": 8949,
      "oli": 8950,
      "olas": 8951,
      "olish": 8952,
      "olars": 8953,
      "olith": 8954,
      "olonisation": 8955,
      "దిన": 8956,
      "దిర్": 8957,
      "దిరి": 8958,
      "దికి": 8959,
      "దిగ్": 8960,
      "దిభాగం": 8961,
      "దినాల": 8962,
      "नावा": 8963,
      "దేమాత": 8964,
      "ప్రార్": 8965,
      "ప్రమా": 8966,
      "ప్రఖ్య": 8967,
      "ప్రయా": 8968,
      "ప్రణా": 8969,
      "ప్రదేశాల": 8970,
      "ప్రగతి": 8971,
      "ప్రథమ": 8972,
      "ried": 8973,
      "riage": 8974,
      "rific": 8975,
      "riff": 8976,
      "rieved": 8977,
      "లుపలి": 8978,
      "chem": 8979,
      "chain": 8980,
      "chay": 8981,
      "chall": 8982,
      "chta": 8983,
      "chef": 8984,
      "chasing": 8985,
      "chess": 8986,
      "champ": 8987,
      "charts": 8988,
      "chicken": 8989,
      "chronic": 8990,
      "cheap": 8991,
      "choice": 8992,
      "checked": 8993,
      "choli": 8994,
      "verbal": 8995,
      "దేశిక": 8996,
      "దేశము": 8997,
      "దేశరాజకీయ": 8998,
      "దేశాన్ని": 8999,
      "దేశమంత": 9000,
      "దేశాధిన": 9001,
      "कीमत": 9002,
      "ర్టి": 9003,
      "ర్తా": 9004,
      "ర్జాలు": 9005,
      "ర్భవ": 9006,
      "ర్సింగ్": 9007,
      "ర్జె": 9008,
      "ింపు": 9009,
      "ింసాయుత": 9010,
      "204": 9011,
      "सामिल": 9012,
      "ema": 9013,
      "ems": 9014,
      "emits": 9015,
      "empor": 9016,
      "embro": 9017,
      "embodi": 9018,
      "lian": 9019,
      "lier": 9020,
      "lide": 9021,
      "liqu": 9022,
      "ligence": 9023,
      "lihood": 9024,
      "lizard": 9025,
      "ula": 9026,
      "ulating": 9027,
      "ulaic": 9028,
      "ulkar": 9029,
      "ulgation": 9030,
      "ికం": 9031,
      "ికలు": 9032,
      "ికులు": 9033,
      "ికూడ": 9034,
      "ికాలో": 9035,
      "భార్తదేశపు": 9036,
      "बाजी": 9037,
      "बाणिज्य": 9038,
      "बावजूद": 9039,
      "पर्या": 9040,
      "raw": 9041,
      "raid": 9042,
      "raits": 9043,
      "rainf": 9044,
      "raised": 9045,
      "raga": 9046,
      "radish": 9047,
      "raising": 9048,
      "ravene": 9049,
      "raiders": 9050,
      "raksha": 9051,
      "ravana": 9052,
      "rachta": 9053,
      "ford": 9054,
      "foray": 9055,
      "forces": 9056,
      "forced": 9057,
      "forbade": 9058,
      "rove": 9059,
      "roban": 9060,
      "roti": 9061,
      "roportion": 9062,
      "root": 9063,
      "royalty": 9064,
      "rochem": 9065,
      "ताकत": 9066,
      "న్నత": 9067,
      "న్నా": 9068,
      "नेशन": 9069,
      "ాలున్నాయి": 9070,
      "bears": 9071,
      "beyond": 9072,
      "utan": 9073,
      "uting": 9074,
      "utation": 9075,
      "uttu": 9076,
      "veli": 9077,
      "veill": 9078,
      "vehic": 9079,
      "seal": 9080,
      "seen": 9081,
      "seas": 9082,
      "seaf": 9083,
      "select": 9084,
      "seven": 9085,
      "sewhere": 9086,
      "sealed": 9087,
      "seams": 9088,
      "seeking": 9089,
      "segreg": 9090,
      "aged": 9091,
      "aging": 9092,
      "agro": 9093,
      "agup": 9094,
      "agement": 9095,
      "agos": 9096,
      "agola": 9097,
      "aggl": 9098,
      "agiary": 9099,
      "agonists": 9100,
      "bylon": 9101,
      "ests": 9102,
      "estment": 9103,
      "lop": 9104,
      "loor": 9105,
      "lost": 9106,
      "losing": 9107,
      "locations": 9108,
      "lodic": 9109,
      "विस": 9110,
      "करत": 9111,
      "conqu": 9112,
      "condition": 9113,
      "consequ": 9114,
      "conserv": 9115,
      "constru": 9116,
      "conifer": 9117,
      "concept": 9118,
      "conspic": 9119,
      "constitutes": 9120,
      "लागल": 9121,
      "लागू": 9122,
      "గాంచిన": 9123,
      "గాయి": 9124,
      "uses": 9125,
      "usive": 9126,
      "usage": 9127,
      "usher": 9128,
      "usively": 9129,
      "wides": 9130,
      "una": 9131,
      "units": 9132,
      "unpre": 9133,
      "uneas": 9134,
      "unrest": 9135,
      "unconstitutional": 9136,
      "unachal": 9137,
      "unlin": 9138,
      "unwanted": 9139,
      "undisputed": 9140,
      "unleavened": 9141,
      "unanim": 9142,
      "ires": 9143,
      "ired": 9144,
      "irreg": 9145,
      "irrig": 9146,
      "न्हा": 9147,
      "ctions": 9148,
      "cture": 9149,
      "ctory": 9150,
      "ctivity": 9151,
      "ctrine": 9152,
      "ctuaries": 9153,
      "deal": 9154,
      "deity": 9155,
      "deep": 9156,
      "depos": 9157,
      "death": 9158,
      "deforest": 9159,
      "defeat": 9160,
      "detail": 9161,
      "debate": 9162,
      "determin": 9163,
      "deems": 9164,
      "ghth": 9165,
      "ghals": 9166,
      "ghanistan": 9167,
      "gharial": 9168,
      "astal": 9169,
      "astring": 9170,
      "isti": 9171,
      "istance": 9172,
      "istics": 9173,
      "istently": 9174,
      "angpo": 9175,
      "देशा": 9176,
      "ims": 9177,
      "imum": 9178,
      "image": 9179,
      "immen": 9180,
      "imitated": 9181,
      "importer": 9182,
      "white": 9183,
      "while": 9184,
      "whims": 9185,
      "కుండ": 9186,
      "కుంది": 9187,
      "కునే": 9188,
      "కుడు": 9189,
      "కుమార్": 9190,
      "కులం": 9191,
      "కుమారు": 9192,
      "కుడ్య": 9193,
      "కుదిర్": 9194,
      "కుర్తా": 9195,
      "నిగా": 9196,
      "నివి": 9197,
      "నిల్": 9198,
      "నివా": 9199,
      "నిచ్చ": 9200,
      "నియా": 9201,
      "నియో": 9202,
      "నిధి": 9203,
      "నివారి": 9204,
      "నివల్ల": 9205,
      "నిలిచ": 9206,
      "నిరక్షరాస్యత": 9207,
      "నిలబె": 9208,
      "నిషే": 9209,
      "విడ": 9210,
      "విడి": 9211,
      "విధాన": 9212,
      "వివర": 9213,
      "విస్తు": 9214,
      "విశాఖ": 9215,
      "విజ్": 9216,
      "విజన్": 9217,
      "వినాయ": 9218,
      "విష్ణ": 9219,
      "వితంలో": 9220,
      "విఫల": 9221,
      "విశి": 9222,
      "వివాదం": 9223,
      "విలసిల్లు": 9224,
      "విశే": 9225,
      "విసభా": 9226,
      "క్త": 9227,
      "sue": 9228,
      "sukh": 9229,
      "superi": 9230,
      "sustained": 9231,
      "romos": 9232,
      "ాయతి": 9233,
      "ాయకార": 9234,
      "ాయీలు": 9235,
      "मास्टर": 9236,
      "जाय": 9237,
      "जाये": 9238,
      "हाइ": 9239,
      "हाथ": 9240,
      "exe": 9241,
      "excl": 9242,
      "experi": 9243,
      "excur": 9244,
      "exchanged": 9245,
      "except": 9246,
      "exterior": 9247,
      "exceed": 9248,
      "exogamy": 9249,
      "abhad": 9250,
      "abatic": 9251,
      "abhat": 9252,
      "abjur": 9253,
      "absol": 9254,
      "abolish": 9255,
      "aining": 9256,
      "dual": 9257,
      "duction": 9258,
      "sie": 9259,
      "sip": 9260,
      "sided": 9261,
      "sible": 9262,
      "sizes": 9263,
      "ానెట్": 9264,
      "eties": 9265,
      "etak": 9266,
      "etry": 9267,
      "etnam": 9268,
      "post": 9269,
      "pool": 9270,
      "poss": 9271,
      "posts": 9272,
      "poetry": 9273,
      "resolution": 9274,
      "resentments": 9275,
      "resurgence": 9276,
      "resistance": 9277,
      "होलीं": 9278,
      "dering": 9279,
      "derately": 9280,
      "derives": 9281,
      "derabad": 9282,
      "deriving": 9283,
      "derecog": 9284,
      "mentioned": 9285,
      "aya": 9286,
      "ayana": 9287,
      "कोसी": 9288,
      "రామన": 9289,
      "రాటం": 9290,
      "రాణించ": 9291,
      "రామాయ": 9292,
      "రాసిన": 9293,
      "द्वान": 9294,
      "ద్వై": 9295,
      "ద్దిభాగం": 9296,
      "ద్విసభా": 9297,
      "నున్న": 9298,
      "weriwal": 9299,
      "overall": 9300,
      "overlaps": 9301,
      "aks": 9302,
      "akti": 9303,
      "akening": 9304,
      "moth": 9305,
      "moved": 9306,
      "moving": 9307,
      "mohan": 9308,
      "mobility": 9309,
      "modated": 9310,
      "mohur": 9311,
      "mosque": 9312,
      "ముద్ర": 9313,
      "ములకు": 9314,
      "ముందు": 9315,
      "ముత్యం": 9316,
      "समता": 9317,
      "ండర్": 9318,
      "ండమస్": 9319,
      "ండ్యులు": 9320,
      "ల్స్": 9321,
      "ల్తాన": 9322,
      "arel": 9323,
      "illust": 9324,
      "ీయులు": 9325,
      "ोग्रा": 9326,
      "ोगिता": 9327,
      "ialist": 9328,
      "perform": 9329,
      "perman": 9330,
      "perched": 9331,
      "percept": 9332,
      "perhaps": 9333,
      "pervasive": 9334,
      "త్త": 9335,
      "త్తల": 9336,
      "coher": 9337,
      "coins": 9338,
      "cott": 9339,
      "cooperation": 9340,
      "cosmo": 9341,
      "earth": 9342,
      "eared": 9343,
      "స్తూ": 9344,
      "స్తామ": 9345,
      "స్తోంది": 9346,
      "స్తానీ": 9347,
      "मिड": 9348,
      "मिथक": 9349,
      "shap": 9350,
      "shali": 9351,
      "sheet": 9352,
      "shirt": 9353,
      "shrine": 9354,
      "shook": 9355,
      "sherwan": 9356,
      "sheared": 9357,
      "తిరి": 9358,
      "ించుకు": 9359,
      "ించవచ్చు": 9360,
      "ించబడింది": 9361,
      "sojour": 9362,
      "lded": 9363,
      "पावल": 9364,
      "compl": 9365,
      "compared": 9366,
      "combin": 9367,
      "commodated": 9368,
      "centres": 9369,
      "ids": 9370,
      "idli": 9371,
      "idyana": 9372,
      "idency": 9373,
      "రిట్ల": 9374,
      "రిట్లు": 9375,
      "రిజర్వ": 9376,
      "రిస్తోంది": 9377,
      "रूचि": 9378,
      "शाह": 9379,
      "rite": 9380,
      "rition": 9381,
      "ritual": 9382,
      "apatna": 9383,
      "clans": 9384,
      "clickable": 9385,
      "ంతల": 9386,
      "ంతై": 9387,
      "ounced": 9388,
      "देशन": 9389,
      "aces": 9390,
      "acus": 9391,
      "acity": 9392,
      "account": 9393,
      "accoun": 9394,
      "acute": 9395,
      "accomp": 9396,
      "aciers": 9397,
      "accommodated": 9398,
      "split": 9399,
      "spite": 9400,
      "spons": 9401,
      "spices": 9402,
      "spring": 9403,
      "spending": 9404,
      "weights": 9405,
      "weakening": 9406,
      "welded": 9407,
      "meal": 9408,
      "meter": 9409,
      "measures": 9410,
      "measured": 9411,
      "melodic": 9412,
      "సంక్ర": 9413,
      "సంధి": 9414,
      "సంగమ": 9415,
      "సందర్": 9416,
      "స్థాయి": 9417,
      "స్థలం": 9418,
      "స్థూపం": 9419,
      "స్థాపక": 9420,
      "స్థూలా": 9421,
      "content": 9422,
      "contexts": 9423,
      "contrast": 9424,
      "contempor": 9425,
      "contravene": 9426,
      "laration": 9427,
      "larless": 9428,
      "बिधी": 9429,
      "बिचा": 9430,
      "बिचला": 9431,
      "बिज्ञान": 9432,
      "बिलियन": 9433,
      "बिभाजन": 9434,
      "बिकास": 9435,
      "बिसेसता": 9436,
      "बिद्वान": 9437,
      "పురి": 9438,
      "పులి": 9439,
      "పుతో": 9440,
      "పులా": 9441,
      "పుష్": 9442,
      "పునర్": 9443,
      "రుగా": 9444,
      "రుష్": 9445,
      "రుచులు": 9446,
      "pled": 9447,
      "plus": 9448,
      "plural": 9449,
      "plann": 9450,
      "plants": 9451,
      "platter": 9452,
      "places": 9453,
      "proper": 9454,
      "propos": 9455,
      "provis": 9456,
      "project": 9457,
      "proportion": 9458,
      "prostitutes": 9459,
      "provide": 9460,
      "protection": 9461,
      "proclaiming": 9462,
      "projected": 9463,
      "udal": 9464,
      "udra": 9465,
      "तेजी": 9466,
      "तेदारी": 9467,
      "igai": 9468,
      "టిబె": 9469,
      "Child": 9470,
      "Chhat": 9471,
      "Chaud": 9472,
      "Chenn": 9473,
      "Chronic": 9474,
      "Chota": 9475,
      "Cheras": 9476,
      "Charan": 9477,
      "Chords": 9478,
      "Church": 9479,
      "Cholas": 9480,
      "Chisti": 9481,
      "Chromos": 9482,
      "porations": 9483,
      "नीच": 9484,
      "endogamy": 9485,
      "ishya": 9486,
      "ishvara": 9487,
      "rupe": 9488,
      "rupt": 9489,
      "ruction": 9490,
      "ructure": 9491,
      "formations": 9492,
      "formulaic": 9493,
      "geny": 9494,
      "genres": 9495,
      "genders": 9496,
      "genetic": 9497,
      "ivite": 9498,
      "जनम": 9499,
      "जनमल": 9500,
      "टेलाई": 9501,
      "భాగే": 9502,
      "భాసిల్లు": 9503,
      "భాజపా": 9504,
      "భావిస్తు": 9505,
      "asslands": 9506,
      "ంగల": 9507,
      "ైనెర్": 9508,
      "anti": 9509,
      "antly": 9510,
      "antra": 9511,
      "anticide": 9512,
      "antaged": 9513,
      "उत्कर्ष": 9514,
      "avor": 9515,
      "aveng": 9516,
      "avari": 9517,
      "avati": 9518,
      "avoor": 9519,
      "avily": 9520,
      "avira": 9521,
      "avarsha": 9522,
      "ageable": 9523,
      "upon": 9524,
      "upsur": 9525,
      "upati": 9526,
      "beration": 9527,
      "ellate": 9528,
      "elite": 9529,
      "elders": 9530,
      "elsewhere": 9531,
      "elagos": 9532,
      "minster": 9533,
      "marma": 9534,
      "maraj": 9535,
      "marble": 9536,
      "marital": 9537,
      "marinade": 9538,
      "maritime": 9539,
      "partners": 9540,
      "ఉన్నది": 9541,
      "ఉన్నట్లు": 9542,
      "ఉన్నతంగా": 9543,
      "सरहा": 9544,
      "सिंग": 9545,
      "ితం": 9546,
      "ితంగా": 9547,
      "ిత్యం": 9548,
      "ితీశారు": 9549,
      "allis": 9550,
      "alling": 9551,
      "alluv": 9552,
      "lowest": 9553,
      "peepul": 9554,
      "pehl": 9555,
      "peasants": 9556,
      "tionary": 9557,
      "వాద": 9558,
      "వాదన": 9559,
      "వాటిలో": 9560,
      "వామిత్ర": 9561,
      "సాంచ": 9562,
      "సామీ": 9563,
      "సాకర్": 9564,
      "సాఫ్ట": 9565,
      "సానియా": 9566,
      "वेल्": 9567,
      "create": 9568,
      "cretic": 9569,
      "ogue": 9570,
      "plex": 9571,
      "pleated": 9572,
      "pleasures": 9573,
      "चीन्हा": 9574,
      "ంటో": 9575,
      "ంటుంది": 9576,
      "ంటరీ": 9577,
      "పాద": 9578,
      "పాక్ష": 9579,
      "పాండి": 9580,
      "పాండ్యులు": 9581,
      "regarded": 9582,
      "ousers": 9583,
      "క్షం": 9584,
      "క్షంగా": 9585,
      "साथे": 9586,
      "ార్క్ట": 9587,
      "ార్థాలు": 9588,
      "norm": 9589,
      "northeast": 9590,
      "board": 9591,
      "स्विक": 9592,
      "fires": 9593,
      "hadis": 9594,
      "hawk": 9595,
      "ineal": 9596,
      "economies": 9597,
      "economics": 9598,
      "economically": 9599,
      "pulmon": 9600,
      "pulses": 9601,
      "stitched": 9602,
      "few": 9603,
      "feudal": 9604,
      "lating": 9605,
      "latitude": 9606,
      "latitud": 9607,
      "ష్టి": 9608,
      "ష్టు": 9609,
      "ష్టమైన": 9610,
      "ష్ట్యా": 9611,
      "worldwide": 9612,
      "కోసం": 9613,
      "కోటి": 9614,
      "కోడు": 9615,
      "కోవార": 9616,
      "కోవడ": 9617,
      "దువు": 9618,
      "దుస్తులు": 9619,
      "నేయ": 9620,
      "నేసియా": 9621,
      "నేషనల్": 9622,
      "నేరుగా": 9623,
      "వ్యయంతో": 9624,
      "orean": 9625,
      "ections": 9626,
      "ective": 9627,
      "राष्ट्रन": 9628,
      "ప్రాముఖ్య": 9629,
      "ప్రాసె": 9630,
      "ప్రాజా": 9631,
      "ప్రాణుల": 9632,
      "ప్రాబల": 9633,
      "ప్రాదేశిక": 9634,
      "subcaste": 9635,
      "subduct": 9636,
      "subject": 9637,
      "subdue": 9638,
      "subtropical": 9639,
      "subord": 9640,
      "subduction": 9641,
      "ressed": 9642,
      "రాజధాన": 9643,
      "రాజధా": 9644,
      "गोहू": 9645,
      "खेलाड़ी": 9646,
      "Indos": 9647,
      "Asiatic": 9648,
      "ంచే": 9649,
      "కావడ": 9650,
      "కాకుండ": 9651,
      "క్రైస్త": 9652,
      "్లను": 9653,
      "ligated": 9654,
      "ligraph": 9655,
      "रेशन": 9656,
      "decimal": 9657,
      "decline": 9658,
      "declin": 9659,
      "decenn": 9660,
      "decoration": 9661,
      "declining": 9662,
      "decentral": 9663,
      "decolonisation": 9664,
      "landed": 9665,
      "landown": 9666,
      "landmass": 9667,
      "landmark": 9668,
      "pride": 9669,
      "private": 9670,
      "priorities": 9671,
      "priests": 9672,
      "ques": 9673,
      "quate": 9674,
      "quite": 9675,
      "quely": 9676,
      "quarter": 9677,
      "quadru": 9678,
      "ట్టు": 9679,
      "ట్టూ": 9680,
      "ట్టారు": 9681,
      "ట్టుకు": 9682,
      "ట్టెల": 9683,
      "తరించింది": 9684,
      "తరగతి": 9685,
      "తరతరాలు": 9686,
      "నామాలు": 9687,
      "నాట్యం": 9688,
      "సిద్ధ": 9689,
      "సిగ్": 9690,
      "సిద్ధం": 9691,
      "inclusive": 9692,
      "ద్ధాలు": 9693,
      "ద్ధలతో": 9694,
      "portant": 9695,
      "portfol": 9696,
      "portraits": 9697,
      "afterwards": 9698,
      "ल्ड": 9699,
      "ciously": 9700,
      "rice": 9701,
      "rict": 9702,
      "ricity": 9703,
      "rictions": 9704,
      "symbol": 9705,
      "పేస్": 9706,
      "పేదర": 9707,
      "భారతీయులు": 9708,
      "భారతీయుల": 9709,
      "భారతీయుడైన": 9710,
      "dhra": 9711,
      "dhanar": 9712,
      "dhamma": 9713,
      "ewing": 9714,
      "harsh": 9715,
      "harash": 9716,
      "harvested": 9717,
      "train": 9718,
      "training": 9719,
      "మామి": 9720,
      "మాదిరి": 9721,
      "మాండమస్": 9722,
      "లియా": 9723,
      "లిసింది": 9724,
      "లియం": 9725,
      "లిథిక్": 9726,
      "లివిజన్": 9727,
      "enges": 9728,
      "భారతదేశము": 9729,
      "భారతదేశమే": 9730,
      "सुबिध": 9731,
      "सुघर": 9732,
      "सुंदर": 9733,
      "hadur": 9734,
      "taught": 9735,
      "vious": 9736,
      "vidual": 9737,
      "గుప్": 9738,
      "గుత్తా": 9739,
      "గుతోంది": 9740,
      "గుంపా": 9741,
      "గుతాయి": 9742,
      "గునవి": 9743,
      "చేత": 9744,
      "చేర": 9745,
      "చేసింగ్": 9746,
      "చేంజి": 9747,
[...]
