{
  "version": "1.0",
  "truncation": null,
  "padding": null,
  "added_tokens": [
    {
      "id": 0,
      "content": "[UNK]",
      "single_word": false,
      "lstrip": false,
      "rstrip": false,
      "normalized": false,
      "special": true
    }
  ],
  "normalizer": {
    "type": "NFKC"
  },
  "pre_tokenizer": {
    "type": "Sequence",
    "pretokenizers": [
      {
        "type": "Metaspace",
        "replacement": "▁",
        "prepend_scheme": "always",
        "split": true
      },
      {
        "type": "Split",
        "pattern": {
          "Regex": "https?://|Link:|Reference:|#?cite_note-?|#?cite_ref-?|FOOTNOTE|www\\.|[.,!?;:।॥،()\\[\\]{}/\\-&=\\\"'_]+[\\p{L}\\p{N}]+|[.,!?;:।॥،()\\[\\]{}/\\-&=\\\"'_]"
        },
        "behavior": "Isolated",
        "invert": false
      },
      {
        "type": "Split",
        "pattern": {
          "Regex": "\\d{1,3}"
        },
        "behavior": "Isolated",
        "invert": false
      }
    ]
  },
  "post_processor": null,
  "decoder": {
    "type": "Metaspace",
    "replacement": "▁",
    "prepend_scheme": "always",
    "split": true
  },
  "model": {
    "type": "BPE",
    "dropout": null,
    "unk_token": "[UNK]",
    "continuing_subword_prefix": null,
    "end_of_word_suffix": null,
    "fuse_unk": false,
    "byte_fallback": false,
    "ignore_merges": false,
    "vocab": {
      "[UNK]": 0,
      "\n": 1,
      "!": 2,
      "\"": 3,
      "#": 4,
      "$": 5,
      "%": 6,
      "&": 7,
      "'": 8,
      "(": 9,
      ")": 10,
      "+": 11,
      ",": 12,
      "-": 13,
      ".": 14,
      "/": 15,
      "0": 16,
      "1": 17,
      "2": 18,
      "3": 19,
      "4": 20,
      "5": 21,
      "6": 22,
      "7": 23,
      "8": 24,
      "9": 25,
      ":": 26,
      ";": 27,
      "<": 28,
      "=": 29,
      "?": 30,
      "A": 31,
      "B": 32,
      "C": 33,
      "D": 34,
      "E": 35,
      "F": 36,
      "G": 37,
      "H": 38,
      "I": 39,
      "J": 40,
      "K": 41,
      "L": 42,
      "M": 43,
      "N": 44,
      "O": 45,
      "P": 46,
      "Q": 47,
      "R": 48,
      "S": 49,
      "T": 50,
      "U": 51,
      "V": 52,
      "W": 53,
      "X": 54,
      "Y": 55,
      "Z": 56,
      "[": 57,
      "\\": 58,
      "]": 59,
      "^": 60,
      "_": 61,
      "a": 62,
      "b": 63,
      "c": 64,
      "d": 65,
      "e": 66,
      "f": 67,
      "g": 68,
      "h": 69,
      "i": 70,
      "j": 71,
      "k": 72,
      "l": 73,
      "m": 74,
      "n": 75,
      "o": 76,
      "p": 77,
      "q": 78,
      "r": 79,
      "s": 80,
      "t": 81,
      "u": 82,
      "v": 83,
      "w": 84,
      "x": 85,
      "y": 86,
      "z": 87,
      "{": 88,
      "|": 89,
      "}": 90,
      "~": 91,
      "°": 92,
      "Ö": 93,
      "á": 94,
      "â": 95,
      "æ": 96,
      "ç": 97,
      "é": 98,
      "í": 99,
      "ö": 100,
      "ü": 101,
      "ā": 102,
      "ī": 103,
      "Ś": 104,
      "ś": 105,
      "ū": 106,
      "ș": 107,
      "ə": 108,
      "ɦ": 109,
      "ɪ": 110,
      "ɾ": 111,
      "ʊ": 112,
      "ˈ": 113,
      "ː": 114,
      "Ι": 115,
      "ί": 116,
      "α": 117,
      "δ": 118,
      "θ": 119,
      "ν": 120,
      "ο": 121,
      "π": 122,
      "ς": 123,
      "ό": 124,
      "ँ": 125,
      "ं": 126,
      "ः": 127,
      "अ": 128,
      "आ": 129,
      "इ": 130,
      "ई": 131,
      "उ": 132,
      "ऊ": 133,
      "ऋ": 134,
      "ऍ": 135,
      "ए": 136,
      "ऐ": 137,
      "ऑ": 138,
      "ओ": 139,
      "औ": 140,
      "क": 141,
      "ख": 142,
      "ग": 143,
      "घ": 144,
      "च": 145,
      "छ": 146,
      "ज": 147,
      "झ": 148,
      "ञ": 149,
      "ट": 150,
      "ठ": 151,
      "ड": 152,
      "ढ": 153,
      "ण": 154,
      "त": 155,
      "थ": 156,
      "द": 157,
      "ध": 158,
      "न": 159,
      "प": 160,
      "फ": 161,
      "ब": 162,
      "भ": 163,
      "म": 164,
      "य": 165,
      "र": 166,
      "ल": 167,
      "व": 168,
      "श": 169,
      "ष": 170,
      "स": 171,
      "ह": 172,
      "़": 173,
      "ऽ": 174,
      "ा": 175,
      "ि": 176,
      "ी": 177,
      "ु": 178,
      "ू": 179,
      "ृ": 180,
      "े": 181,
      "ै": 182,
      "ॉ": 183,
      "ो": 184,
      "ौ": 185,
      "्": 186,
      "।": 187,
      "०": 188,
      "१": 189,
      "२": 190,
      "३": 191,
      "४": 192,
      "५": 193,
      "६": 194,
      "७": 195,
      "८": 196,
      "९": 197,
      "॰": 198,
      "ం": 199,
      "ః": 200,
      "అ": 201,
      "ఆ": 202,
      "ఇ": 203,
      "ఈ": 204,
      "ఉ": 205,
      "ఋ": 206,
      "ఎ": 207,
      "ఏ": 208,
      "ఐ": 209,
      "ఒ": 210,
      "ఓ": 211,
      "ఔ": 212,
      "క": 213,
      "ఖ": 214,
      "గ": 215,
      "ఘ": 216,
      "చ": 217,
      "ఛ": 218,
      "జ": 219,
      "ఞ": 220,
      "ట": 221,
      "ఠ": 222,
      "డ": 223,
      "ఢ": 224,
      "ణ": 225,
      "త": 226,
      "థ": 227,
      "ద": 228,
      "ధ": 229,
      "న": 230,
      "ప": 231,
      "ఫ": 232,
      "బ": 233,
      "భ": 234,
      "మ": 235,
      "య": 236,
      "ర": 237,
      "ల": 238,
      "ళ": 239,
      "వ": 240,
      "శ": 241,
      "ష": 242,
      "స": 243,
      "హ": 244,
      "ా": 245,
      "ి": 246,
      "ీ": 247,
      "ు": 248,
      "ూ": 249,
      "ృ": 250,
      "ె": 251,
      "ే": 252,
      "ై": 253,
      "ొ": 254,
      "ో": 255,
      "ౌ": 256,
      "్": 257,
      "ṅ": 258,
      "ṇ": 259,
      "Ṛ": 260,
      "ṣ": 261,
      "ṭ": 262,
      "Ἰ": 263,
      "–": 264,
      "—": 265,
      "‘": 266,
      "’": 267,
      "†": 268,
      "′": 269,
      "⁡": 270,
      "₹": 271,
      "↑": 272,
      "−": 273,
      "▁": 274,
      "▁क": 275,
      "▁t": 276,
      "in": 277,
      "an": 278,
      "he": 279,
      "▁स": 280,
      "er": 281,
      "on": 282,
      "▁the": 283,
      "▁म": 284,
      "▁के": 285,
      "re": 286,
      "al": 287,
      "ार": 288,
      "en": 289,
      "▁o": 290,
      "at": 291,
      "st": 292,
      "▁प": 293,
      "di": 294,
      "ar": 295,
      "ें": 296,
      "्र": 297,
      "▁I": 298,
      "▁ह": 299,
      "ed": 300,
      "▁भ": 301,
      "▁में": 302,
      "it": 303,
      "and": 304,
      "▁ब": 305,
      "▁of": 306,
      "▁In": 307,
      "▁c": 308,
      "or": 309,
      "▁a": 310,
      "▁in": 311,
      "▁w": 312,
      "▁s": 313,
      "▁and": 314,
      "▁p": 315,
      "ion": 316,
      "es": 317,
      "▁ప": 318,
      "్ర": 319,
      "ic": 320,
      "▁Indi": 321,
      "▁b": 322,
      "्य": 323,
      "▁f": 324,
      "▁ज": 325,
      "▁m": 326,
      "ార": 327,
      "is": 328,
      "om": 329,
      "▁आ": 330,
      "ारत": 331,
      "▁भारत": 332,
      "ing": 333,
      "▁अ": 334,
      "as": 335,
      "ాల": 336,
      "▁द": 337,
      "▁र": 338,
      "20": 339,
      "▁न": 340,
      "ent": 341,
      "▁India": 342,
      "र्": 343,
      "ान": 344,
      "िक": 345,
      "▁l": 346,
      "ou": 347,
      "▁है": 348,
      "▁స": 349,
      "▁व": 350,
      "▁T": 351,
      "▁A": 352,
      "ाल": 353,
      "▁క": 354,
      "▁e": 355,
      "ri": 356,
      "▁to": 357,
      "▁ल": 358,
      "le": 359,
      "िय": 360,
      "▁వ": 361,
      "्त": 362,
      "లో": 363,
      "▁C": 364,
      "19": 365,
      "్య": 366,
      "ly": 367,
      "▁d": 368,
      "▁से": 369,
      "▁భ": 370,
      "▁प्र": 371,
      "▁S": 372,
      "▁మ": 373,
      "▁ग": 374,
      "▁त": 375,
      "▁h": 376,
      "ों": 377,
      "ur": 378,
      "న్": 379,
      "il": 380,
      "ाज": 381,
      "ది": 382,
      "▁re": 383,
      "am": 384,
      "లు": 385,
      "దే": 386,
      "ec": 387,
      "▁n": 388,
      "▁B": 389,
      "▁बा": 390,
      "et": 391,
      "▁औ": 392,
      "దేశ": 393,
      "▁ए": 394,
      "ol": 395,
      "ర్": 396,
      "ిం": 397,
      "▁और": 398,
      "ra": 399,
      "ीय": 400,
      "th": 401,
      "ce": 402,
      "▁The": 403,
      "▁M": 404,
      "ver": 405,
      "స్": 406,
      "▁ర": 407,
      "ిక": 408,
      "ation": 409,
      "▁पर": 410,
      "▁ప్ర": 411,
      "ారత": 412,
      "▁g": 413,
      "▁భారత": 414,
      "▁उ": 415,
      "▁P": 416,
      "▁అ": 417,
      "ro": 418,
      "ul": 419,
      "న్న": 420,
      "▁सं": 421,
      "ना": 422,
      "्व": 423,
      "▁इ": 424,
      "▁का": 425,
      "▁की": 426,
      "ాలు": 427,
      "ve": 428,
      "201": 429,
      "▁श": 430,
      "िस": 431,
      "ut": 432,
      "ता": 433,
      "ist": 434,
      "क्": 435,
      "ित": 436,
      "ड़": 437,
      "िया": 438,
      "im": 439,
      "oo": 440,
      "ch": 441,
      "us": 442,
      "ht": 443,
      "గా": 444,
      "ge": 445,
      "ct": 446,
      "ad": 447,
      "ास": 448,
      "▁सा": 449,
      "था": 450,
      "▁ఉ": 451,
      "▁is": 452,
      "▁च": 453,
      "िन": 454,
      "▁Indian": 455,
      "ात": 456,
      "un": 457,
      "ig": 458,
      "ast": 459,
      "ir": 460,
      "▁by": 461,
      "ని": 462,
      "्ट": 463,
      "▁th": 464,
      "00": 465,
      "ला": 466,
      "▁D": 467,
      "rom": 468,
      "'s": 469,
      "క్": 470,
      "▁R": 471,
      "em": 472,
      "ow": 473,
      "ాయ": 474,
      "▁జ": 475,
      "▁राज": 476,
      "▁य": 477,
      "▁E": 478,
      "▁H": 479,
      "▁G": 480,
      "▁हो": 481,
      "id": 482,
      "त्र": 483,
      "▁N": 484,
      "▁చ": 485,
      "res": 486,
      "ate": 487,
      "ాత": 488,
      "ith": 489,
      "ment": 490,
      "op": 491,
      "▁for": 492,
      "▁on": 493,
      "ाष": 494,
      "ాన": 495,
      "▁be": 496,
      "ang": 497,
      "కు": 498,
      "▁कर": 499,
      "ेश": 500,
      "దేశం": 501,
      "du": 502,
      "200": 503,
      "▁r": 504,
      "▁from": 505,
      "ot": 506,
      "ंग": 507,
      "్ట": 508,
      "इल": 509,
      "▁सम": 510,
      "▁एक": 511,
      "ोग": 512,
      "दी": 513,
      "री": 514,
      "▁con": 515,
      "▁भारतीय": 516,
      "ter": 517,
      "ps": 518,
      "▁with": 519,
      "▁ఇ": 520,
      "▁को": 521,
      "her": 522,
      "ink": 523,
      "ay": 524,
      "िल": 525,
      "ద్": 526,
      "ను": 527,
      "क्ष": 528,
      "▁was": 529,
      "▁wh": 530,
      "ld": 531,
      "art": 532,
      "▁हैं": 533,
      "से": 534,
      "▁as": 535,
      "htt": 536,
      "//": 537,
      "://": 538,
      "(L": 539,
      "(Link": 540,
      "▁mo": 541,
      "▁वि": 542,
      "▁st": 543,
      "ved": 544,
      "हा": 545,
      "ండ": 546,
      "ిన": 547,
      "ain": 548,
      "ks": 549,
      "▁su": 550,
      "स्": 551,
      "ల్": 552,
      "्या": 553,
      "ति": 554,
      "▁ख": 555,
      "https": 556,
      "https://": 557,
      "ీయ": 558,
      "ies": 559,
      "ef": 560,
      "se": 561,
      "est": 562,
      "త్": 563,
      "ong": 564,
      "ab": 565,
      "रा": 566,
      "ort": 567,
      "ity": 568,
      "▁ने": 569,
      "um": 570,
      "ical": 571,
      "తి": 572,
      "ించ": 573,
      "ence": 574,
      "ంది": 575,
      "▁it": 576,
      "▁ex": 577,
      "స్త": 578,
      "▁भी": 579,
      "▁ఆ": 580,
      "▁J": 581,
      "▁an": 582,
      "▁di": 583,
      "कार": 584,
      "▁अन": 585,
      "ill": 586,
      "ial": 587,
      "ाला": 588,
      "▁↑": 589,
      "ంత": 590,
      "ak": 591,
      "ich": 592,
      "िम": 593,
      "▁న": 594,
      "el": 595,
      "ers": 596,
      "हल": 597,
      "▁K": 598,
      "▁सभ": 599,
      "▁or": 600,
      "రి": 601,
      "boo": 602,
      "ंद": 603,
      "ులు": 604,
      "▁రా": 605,
      "▁W": 606,
      "ूप": 607,
      "oun": 608,
      "ud": 609,
      "▁has": 610,
      "▁U": 611,
      "▁త": 612,
      "▁సం": 613,
      "rit": 614,
      "का": 615,
      "202": 616,
      "ions": 617,
      "▁బ": 618,
      "▁వి": 619,
      "ary": 620,
      "टे": 621,
      "ने": 622,
      "ern": 623,
      "oc": 624,
      "రు": 625,
      "▁राज्य": 626,
      "ult": 627,
      "▁which": 628,
      "ive": 629,
      "▁ई": 630,
      "li": 631,
      "▁are": 632,
      "मा": 633,
      "वा": 634,
      "ीन": 635,
      "▁ध": 636,
      "con": 637,
      "ww": 638,
      "టి": 639,
      "ure": 640,
      "▁F": 641,
      "com": 642,
      "▁उत": 643,
      "books": 644,
      "ంలో": 645,
      "ింది": 646,
      "ాయి": 647,
      "orld": 648,
      "▁un": 649,
      "▁ना": 650,
      "ber": 651,
      "ము": 652,
      "ुर": 653,
      "▁नि": 654,
      "▁As": 655,
      "▁భారతదేశం": 656,
      "pp": 657,
      "ear": 658,
      "ry": 659,
      "over": 660,
      "के": 661,
      "न्": 662,
      "ag": 663,
      "▁al": 664,
      "▁v": 665,
      "▁గ": 666,
      "▁స్": 667,
      "ite": 668,
      "या": 669,
      "▁com": 670,
      "र्व": 671,
      "▁इस": 672,
      "्ट्र": 673,
      "ans": 674,
      "ac": 675,
      "ंत्र": 676,
      "ीं": 677,
      "▁लोग": 678,
      "ంగ": 679,
      "ంగా": 680,
      "వి": 681,
      "ైన": 682,
      "▁O": 683,
      "▁Ch": 684,
      "199": 685,
      "end": 686,
      "10": 687,
      "pt": 688,
      "सा": 689,
      "▁पू": 690,
      "▁रूप": 691,
      "os": 692,
      "ress": 693,
      "ధిక": 694,
      "rig": 695,
      "्ष": 696,
      "▁तथा": 697,
      "ant": 698,
      "ंध": 699,
      "द्": 700,
      "▁दे": 701,
      "िन्": 702,
      "▁Hin": 703,
      "పు": 704,
      "ూడ": 705,
      "▁ఎ": 706,
      "▁శ": 707,
      "▁ఉన్న": 708,
      "og": 709,
      "ुख": 710,
      "ere": 711,
      "ाष्ट्र": 712,
      "▁its": 713,
      "▁cent": 714,
      "धान": 715,
      "हु": 716,
      "ిత": 717,
      "age": 718,
      "our": 719,
      "▁स्": 720,
      "्तर": 721,
      ".com": 722,
      "gh": 723,
      "▁ద": 724,
      "ారు": 725,
      "78": 726,
      "ंड": 727,
      "ली": 728,
      "ated": 729,
      "▁हु": 730,
      "iv": 731,
      "ia": 732,
      "ap": 733,
      "ृत": 734,
      "▁were": 735,
      "▁जा": 736,
      "ew": 737,
      "ంట": 738,
      "ార్": 739,
      "క్ష": 740,
      "▁inc": 741,
      "ish": 742,
      "▁at": 743,
      "▁L": 744,
      "▁बाद": 745,
      "▁साथ": 746,
      "mp": 747,
      "18": 748,
      "ढ़": 749,
      "धिक": 750,
      "▁फ": 751,
      "र्म": 752,
      "▁वर्": 753,
      "▁तक": 754,
      "ect": 755,
      "▁साम": 756,
      "av": 757,
      "ore": 758,
      "arge": 759,
      "dia": 760,
      "▁ch": 761,
      "ass": 762,
      "od": 763,
      "▁जन": 764,
      "ाषा": 765,
      "outh": 766,
      "▁pro": 767,
      "िर": 768,
      "ेत्र": 769,
      "्प": 770,
      "▁सर": 771,
      "्रे": 772,
      "▁बहु": 773,
      "ism": 774,
      "र्थ": 775,
      "▁ला": 776,
      "angu": 777,
      "aj": 778,
      "ती": 779,
      "ance": 780,
      "▁सब": 781,
      "▁సా": 782,
      "fter": 783,
      "to": 784,
      "ord": 785,
      "▁cont": 786,
      "▁सरकार": 787,
      "hi": 788,
      "overn": 789,
      "ni": 790,
      "్చ": 791,
      "▁హ": 792,
      "erence": 793,
      "नी": 794,
      "भा": 795,
      "▁part": 796,
      "ous": 797,
      "▁sp": 798,
      "uring": 799,
      "ame": 800,
      "▁V": 801,
      ".g": 802,
      "17": 803,
      "ारा": 804,
      "▁देश": 805,
      "▁शास": 806,
      "eference": 807,
      "द्ध": 808,
      "▁सबसे": 809,
      "(R": 810,
      "ష్ట": 811,
      "స్థ": 812,
      "#c": 813,
      "ite_": 814,
      "(Reference": 815,
      "#cite_": 816,
      "conom": 817,
      "क्त": 818,
      "वे": 819,
      "िण": 820,
      "▁क्ष": 821,
      "▁पा": 822,
      "▁क्षेत्र": 823,
      "26": 824,
      "ational": 825,
      "ep": 826,
      "ोल": 827,
      "▁कार": 828,
      "▁जे": 829,
      "ड़ी": 830,
      "har": 831,
      "overnment": 832,
      "OT": 833,
      "ru": 834,
      "vers": 835,
      "ff": 836,
      "ine": 837,
      "stit": 838,
      "▁pl": 839,
      "196": 840,
      "मान": 841,
      "रे": 842,
      "ले": 843,
      "▁किया": 844,
      "▁भाषा": 845,
      "▁राष्ट्र": 846,
      "ంచ": 847,
      "దు": 848,
      "్ల": 849,
      "▁దేశ": 850,
      "▁కూడ": 851,
      "▁ప్రా": 852,
      "▁Hindu": 853,
      "ते": 854,
      "देश": 855,
      "ally": 856,
      "ates": 857,
      "▁प्रा": 858,
      "▁बाटे": 859,
      "mer": 860,
      "▁cl": 861,
      "▁reg": 862,
      "low": 863,
      "dit": 864,
      "▁langu": 865,
      "▁bec": 866,
      "ution": 867,
      "ces": 868,
      "की": 869,
      "ట్ట": 870,
      "తర": 871,
      "▁ఈ": 872,
      "ंग्रे": 873,
      "ద్ధ": 874,
      "स्क": 875,
      "త్వ": 876,
      "15": 877,
      "195": 878,
      "any": 879,
      "▁ad": 880,
      "SB": 881,
      "्म": 882,
      "१९": 883,
      "▁y": 884,
      "▁कु": 885,
      "inist": 886,
      "▁into": 887,
      "▁द्व": 888,
      "▁रहल": 889,
      "ाली": 890,
      "िस्त": 891,
      "SBN": 892,
      "చ్చ": 893,
      "▁ఒ": 894,
      "▁దేశం": 895,
      "▁de": 896,
      "▁భా": 897,
      "▁భారతీయ": 898,
      "illion": 899,
      "▁రాజ": 900,
      "▁k": 901,
      "▁rel": 902,
      "ुन": 903,
      "ैद": 904,
      "▁बि": 905,
      "▁दक्ष": 906,
      "ड़ा": 907,
      "▁धर्म": 908,
      "▁दक्षिण": 909,
      "▁per": 910,
      "▁Ar": 911,
      "opul": 912,
      "▁large": 913,
      "irst": 914,
      "ub": 915,
      "▁ar": 916,
      "all": 917,
      "ury": 918,
      "12": 919,
      "सी": 920,
      "▁घ": 921,
      "▁हिस": 922,
      "ाने": 923,
      "▁विश": 924,
      "978": 925,
      "లి": 926,
      "ాబ": 927,
      "▁ని": 928,
      "▁mar": 929,
      "▁జాత": 930,
      "▁form": 931,
      "ian": 932,
      "rigin": 933,
      "we": 934,
      "कि": 935,
      "ुस": 936,
      "्च": 937,
      "▁था": 938,
      "्रा": 939,
      "िका": 940,
      "▁गइल": 941,
      "▁sub": 942,
      "ंद्र": 943,
      "14": 944,
      "ived": 945,
      "▁world": 946,
      "ha": 947,
      "▁origin": 948,
      "16": 949,
      "if": 950,
      "me": 951,
      "ener": 952,
      "▁econom": 953,
      "▁that": 954,
      "ount": 955,
      "ave": 956,
      "▁లో": 957,
      "▁ag": 958,
      "్రీ": 959,
      "▁వ్య": 960,
      "▁రై": 961,
      "▁భారతదేశ": 962,
      "ష్ట్ర": 963,
      "qu": 964,
      "ब्": 965,
      "▁ट": 966,
      "▁थ": 967,
      "▁कई": 968,
      "▁स्व": 969,
      "▁भइल": 970,
      "▁जात": 971,
      "▁आध": 972,
      "▁अप": 973,
      "ाज्य": 974,
      "▁यह": 975,
      "▁द्वारा": 976,
      "gle": 977,
      "ory": 978,
      "up": 979,
      "red": 980,
      "▁first": 981,
      "lect": 982,
      "▁during": 983,
      "www": 984,
      "so": 985,
      "▁year": 986,
      "www.": 987,
      "/books": 988,
      "ीच": 989,
      "ीप": 990,
      "▁ओ": 991,
      "▁छ": 992,
      "▁जिस": 993,
      "194": 994,
      "▁उप": 995,
      "oogle": 996,
      "ages": 997,
      "▁स्थ": 998,
      ".google": 999,
      "versity": 1000,
      "▁ISBN": 1001,
      "తో": 1002,
      "వా": 1003,
      "▁పే": 1004,
      "్రి": 1005,
      "▁మొ": 1006,
      "ికి": 1007,
      "▁రాష్ట్ర": 1008,
      "▁స్థ": 1009,
      "uc": 1010,
      "▁Ind": 1011,
      "ric": 1012,
      "ther": 1013,
      "ंप": 1014,
      "कर": 1015,
      "बंध": 1016,
      "ेल": 1017,
      "▁मह": 1018,
      "▁se": 1019,
      "ough": 1020,
      "row": 1021,
      "▁पूर्व": 1022,
      "sp": 1023,
      "ics": 1024,
      "ts": 1025,
      "▁tra": 1026,
      "▁sy": 1027,
      "▁dec": 1028,
      "▁comp": 1029,
      "ओं": 1030,
      "ोक": 1031,
      "ఖ్య": 1032,
      "డు": 1033,
      "తం": 1034,
      "నే": 1035,
      "యా": 1036,
      "▁हिन्": 1037,
      "▁बढ़": 1038,
      "▁वाला": 1039,
      "▁ले": 1040,
      "197": 1041,
      "ర్వ": 1042,
      "▁అధిక": 1043,
      "▁संस्क": 1044,
      "ండి": 1045,
      "ల్ల": 1046,
      "eved": 1047,
      "▁popul": 1048,
      "▁Ret": 1049,
      "stitution": 1050,
      "ire": 1051,
      "ens": 1052,
      "▁pri": 1053,
      "▁le": 1054,
      "▁government": 1055,
      "000": 1056,
      "ound": 1057,
      "30": 1058,
      "reat": 1059,
      "rieved": 1060,
      "▁exp": 1061,
      "▁Retrieved": 1062,
      "▁South": 1063,
      "प्त": 1064,
      "हर": 1065,
      "▁अधिक": 1066,
      "▁An": 1067,
      "▁लि": 1068,
      "▁चु": 1069,
      "▁समय": 1070,
      "▁उत्तर": 1071,
      "lud": 1072,
      "gan": 1073,
      "డి": 1074,
      "ణా": 1075,
      "ద్ర": 1076,
      "ధ్య": 1077,
      "నా": 1078,
      "మైన": 1079,
      "వస్థ": 1080,
      "ాక": 1081,
      "▁ల": 1082,
      "▁art": 1083,
      "▁ఉంది": 1084,
      "▁జాతీయ": 1085,
      "reas": 1086,
      "ome": 1087,
      "ide": 1088,
      "ral": 1089,
      "ध्य": 1090,
      "मुख": 1091,
      "वन": 1092,
      "▁मान": 1093,
      "▁मिल": 1094,
      "ारी": 1095,
      "▁एह": 1096,
      "माण": 1097,
      "▁शासन": 1098,
      "▁Arch": 1099,
      "cc": 1100,
      "lo": 1101,
      "stem": 1102,
      "जी": 1103,
      "हन": 1104,
      "ाब": 1105,
      "ीत": 1106,
      "▁कइल": 1107,
      "ालय": 1108,
      "▁गया": 1109,
      "▁संघ": 1110,
      "स्था": 1111,
      "▁देख": 1112,
      "▁विश्व": 1113,
      "les": 1114,
      "టు": 1115,
      "▁after": 1116,
      "▁ము": 1117,
      "▁ఉన్నాయి": 1118,
      "▁ఒక": 1119,
      "ced": 1120,
      "der": 1121,
      "als": 1122,
      "▁original": 1123,
      "▁system": 1124,
      "▁Archived": 1125,
      "40": 1126,
      "▁over": 1127,
      "▁co": 1128,
      "▁end": 1129,
      "▁century": 1130,
      "ik": 1131,
      "वि": 1132,
      "ाद": 1133,
      "ोड़": 1134,
      "ard": 1135,
      "▁हवे": 1136,
      "्यव": 1137,
      "▁दो": 1138,
      "▁लग": 1139,
      "▁प्रमुख": 1140,
      "▁गो": 1141,
      "नाव": 1142,
      "हाँ": 1143,
      "▁निर्": 1144,
      "▁बहुत": 1145,
      "act": 1146,
      "lic": 1147,
      "ust": 1148,
      "ref": 1149,
      "▁pp": 1150,
      "▁have": 1151,
      "▁been": 1152,
      "▁Asia": 1153,
      "ond": 1154,
      "olog": 1155,
      "▁includ": 1156,
      "india": 1157,
      "used": 1158,
      "▁more": 1159,
      "▁years": 1160,
      "త్య": 1161,
      "పా": 1162,
      "మా": 1163,
      "▁ఏ": 1164,
      "ారం": 1165,
      "▁కా": 1166,
      "ింద": 1167,
      "aste": 1168,
      "udd": 1169,
      "▁class": 1170,
      "▁ऊ": 1171,
      "▁ड": 1172,
      "▁कि": 1173,
      "▁पुर": 1174,
      "▁Con": 1175,
      "▁cons": 1176,
      "estern": 1177,
      "CE": 1178,
      "▁became": 1179,
      "21": 1180,
      "ci": 1181,
      "ph": 1182,
      "eng": 1183,
      "▁but": 1184,
      "ote": 1185,
      "24": 1186,
      "hm": 1187,
      "▁he": 1188,
      "▁pol": 1189,
      "ajor": 1190,
      "ँच": 1191,
      "▁मु": 1192,
      "▁केंद्र": 1193,
      "▁भा": 1194,
      "▁भू": 1195,
      "▁जो": 1196,
      "▁गु": 1197,
      "▁had": 1198,
      "vel": 1199,
      "▁करे": 1200,
      "▁mod": 1201,
      "न्द": 1202,
      "▁also": 1203,
      "▁वर्ष": 1204,
      "▁relig": 1205,
      "्यवस्था": 1206,
      "ren": 1207,
      "▁me": 1208,
      "▁lat": 1209,
      "ural": 1210,
      "25": 1211,
      "ంబ": 1212,
      "గు": 1213,
      "డ్": 1214,
      "తు": 1215,
      "ధాన": 1216,
      "రా": 1217,
      "ాన్": 1218,
      "▁tw": 1219,
      "్రమ": 1220,
      "▁కో": 1221,
      "▁మార్": 1222,
      "న్ని": 1223,
      "ign": 1224,
      "▁చె": 1225,
      "▁భారతదేశంలో": 1226,
      "▁ఎన్న": 1227,
      "ban": 1228,
      "etwe": 1229,
      "dition": 1230,
      "etween": 1231,
      "▁im": 1232,
      "ations": 1233,
      "mpire": 1234,
      "28": 1235,
      "In": 1236,
      "cy": 1237,
      "गर": 1238,
      "तंत्र": 1239,
      "शिया": 1240,
      "हे": 1241,
      "ाम": 1242,
      "ूर": 1243,
      "ेर": 1244,
      "ैन": 1245,
      "▁सि": 1246,
      "▁साल": 1247,
      "▁मुख": 1248,
      "▁inf": 1249,
      "▁pe": 1250,
      "▁दक्": 1251,
      "▁elect": 1252,
      "▁लोक": 1253,
      "ियों": 1254,
      "▁num": 1255,
      "▁एशिया": 1256,
      "▁most": 1257,
      "ongress": 1258,
      "▁सभसे": 1259,
      "ex": 1260,
      "oth": 1261,
      "org": 1262,
      "▁BCE": 1263,
      "mong": 1264,
      "▁ter": 1265,
      "▁their": 1266,
      "▁region": 1267,
      "tin": 1268,
      "▁ca": 1269,
      "13": 1270,
      "तर": 1271,
      "स्त": 1272,
      "ील": 1273,
      "ట్": 1274,
      "పంచ": 1275,
      "భా": 1276,
      "సి": 1277,
      "ిన్న": 1278,
      "ెండ": 1279,
      "▁मध्य": 1280,
      "▁बन": 1281,
      "▁जाला": 1282,
      "out": 1283,
      "▁కే": 1284,
      "ियन": 1285,
      "▁వచ్చ": 1286,
      "198": 1287,
      "▁మధ్య": 1288,
      "▁ప్రపంచ": 1289,
      "▁संग": 1290,
      "ానికి": 1291,
      "ద్ద": 1292,
      "▁अन्य": 1293,
      "▁हिस्": 1294,
      "▁మార్గ": 1295,
      ".org": 1296,
      "▁million": 1297,
      "▁St": 1298,
      "▁not": 1299,
      "ell": 1300,
      "fic": 1301,
      "ree": 1302,
      "▁soc": 1303,
      "ower": 1304,
      "▁two": 1305,
      "rib": 1306,
      "▁Com": 1307,
      "▁Un": 1308,
      "▁modern": 1309,
      "arli": 1310,
      "orth": 1311,
      "▁Budd": 1312,
      "▁who": 1313,
      "▁such": 1314,
      "ulture": 1315,
      "23": 1316,
      "चीन": 1317,
      "द्य": 1318,
      "में": 1319,
      "िव": 1320,
      "▁काल": 1321,
      "▁मैद": 1322,
      "▁बिस": 1323,
      "▁बीच": 1324,
      "▁sh": 1325,
      "▁minist": 1326,
      "▁अंग्रे": 1327,
      "▁परंप": 1328,
      "imal": 1329,
      "▁नाम": 1330,
      "िस्तान": 1331,
      "▁मैदान": 1332,
      "▁परंपरा": 1333,
      "ood": 1334,
      "ures": 1335,
      "▁between": 1336,
      "▁rep": 1337,
      "#cite_ref": 1338,
      "#cite_ref-": 1339,
      "వాత": 1340,
      "్మ": 1341,
      "▁పార": 1342,
      "్రా": 1343,
      "ాల్": 1344,
      "▁కు": 1345,
      "▁CE": 1346,
      "▁Congress": 1347,
      "▁Ma": 1348,
      "▁ప్రధాన": 1349,
      "▁gener": 1350,
      "▁చే": 1351,
      "స్తు": 1352,
      "▁increas": 1353,
      "▁హింద": 1354,
      "▁కూడా": 1355,
      "▁ప్రాంత": 1356,
      "▁వ్యవస్థ": 1357,
      "▁పేరు": 1358,
      "▁this": 1359,
      "note": 1360,
      "खिन": 1361,
      "दा": 1362,
      "यु": 1363,
      "िला": 1364,
      "ीस": 1365,
      "ince": 1366,
      "ाना": 1367,
      "▁Brit": 1368,
      "▁इला": 1369,
      "istan": 1370,
      "▁En": 1371,
      "▁खेल": 1372,
      "▁अनुस": 1373,
      "▁जाता": 1374,
      "#cite_note": 1375,
      "▁कुछ": 1376,
      "▁prime": 1377,
      "▁दक्खिन": 1378,
      "#cite_note-": 1379,
      "▁caste": 1380,
      "ember": 1381,
      "anges": 1382,
      "▁language": 1383,
      "ublic": 1384,
      "aw": 1385,
      "cal": 1386,
      "▁long": 1387,
      "amil": 1388,
      "ov": 1389,
      "ari": 1390,
      "FO": 1391,
      "atic": 1392,
      "▁both": 1393,
      "NOT": 1394,
      "ंज": 1395,
      "ंब": 1396,
      "काल": 1397,
      "तिक": 1398,
      "पु": 1399,
      "म्": 1400,
      "रब": 1401,
      "हीं": 1402,
      "▁क्र": 1403,
      "▁सु": 1404,
      "▁पार": 1405,
      "▁बड़": 1406,
      "▁major": 1407,
      "▁इंड": 1408,
      "ातिर": 1409,
      "▁या": 1410,
      "▁यु": 1411,
      "▁खातिर": 1412,
      "▁World": 1413,
      "OTNOT": 1414,
      "▁प्राचीन": 1415,
      "ountry": 1416,
      "FOOTNOT": 1417,
      "FOOTNOTE": 1418,
      "దాయ": 1419,
      "రణ": 1420,
      "ర్య": 1421,
      "▁క్రీ": 1422,
      "▁dance": 1423,
      "▁మత": 1424,
      "▁res": 1425,
      "ament": 1426,
      "స్క": 1427,
      "▁ప్రజ": 1428,
      "▁ఆర్": 1429,
      "ంత్ర": 1430,
      "▁శా": 1431,
      "▁దక్ష": 1432,
      "▁రైలు": 1433,
      "ket": 1434,
      "uri": 1435,
      "▁ser": 1436,
      "▁grow": 1437,
      "▁Chin": 1438,
      "velop": 1439,
      "isation": 1440,
      "▁British": 1441,
      "lear": 1442,
      "uclear": 1443,
      "ष्": 1444,
      "हित": 1445,
      "ून": 1446,
      "ेट": 1447,
      "्छ": 1448,
      "▁j": 1449,
      "▁ठ": 1450,
      "▁सद": 1451,
      "▁पह": 1452,
      "्राज्य": 1453,
      "▁It": 1454,
      "▁बना": 1455,
      "▁ab": 1456,
      "▁आर्थ": 1457,
      "▁अर्थ": 1458,
      "▁east": 1459,
      "▁प्रदेश": 1460,
      "▁nort": 1461,
      "ंगा": 1462,
      "▁राज्यों": 1463,
      "▁हुआ": 1464,
      "▁साम्राज्य": 1465,
      "▁आधार": 1466,
      "▁मुख्य": 1467,
      "▁हिस्सा": 1468,
      "▁आर्थिक": 1469,
      "-d": 1470,
      "22": 1471,
      "hed": 1472,
      "▁sc": 1473,
      "▁Al": 1474,
      "▁Se": 1475,
      "imes": 1476,
      "▁population": 1477,
      "-l": 1478,
      "▁app": 1479,
      "▁many": 1480,
      "urban": 1481,
      "contin": 1482,
      "▁under": 1483,
      "continent": 1484,
      "lu": 1485,
      "▁ra": 1486,
      "ata": 1487,
      "ially": 1488,
      "▁minister": 1489,
      "ple": 1490,
      "ప్": 1491,
      "లం": 1492,
      "వే": 1493,
      "ుక": 1494,
      "ాలలో": 1495,
      "్యం": 1496,
      "▁అయ": 1497,
      "క్కు": 1498,
      "▁జనా": 1499,
      "్టీ": 1500,
      "▁భాష": 1501,
      "▁రాజ్య": 1502,
      "▁స్థాన": 1503,
      "▁అధికార": 1504,
      "▁later": 1505,
      "▁పార్టీ": 1506,
      "▁దక్షి": 1507,
      "-प": 1508,
      "for": 1509,
      "per": 1510,
      "च्छ": 1511,
      "बि": 1512,
      "ां": 1513,
      "िश": 1514,
      "ृति": 1515,
      "्ले": 1516,
      "▁%": 1517,
      "▁सी": 1518,
      "्री": 1519,
      "▁हि": 1520,
      "ise": 1521,
      "▁न्या": 1522,
      "र्ण": 1523,
      "▁विक": 1524,
      "▁होख": 1525,
      "able": 1526,
      "▁ईसा": 1527,
      "▁उत्प": 1528,
      "ंत्री": 1529,
      "▁हुई": 1530,
      "▁कारण": 1531,
      "▁कार्य": 1532,
      "द्योग": 1533,
      "▁अनुसार": 1534,
      "ai": 1535,
      "ace": 1536,
      "mon": 1537,
      "ty": 1538,
      "▁ro": 1539,
      "▁Empire": 1540,
      "▁Gu": 1541,
      "▁supp": 1542,
      "▁languages": 1543,
      "▁Buddh": 1544,
      "11": 1545,
      "ited": 1546,
      "▁fore": 1547,
      "▁mil": 1548,
      "▁began": 1549,
      "hern": 1550,
      "akistan": 1551,
      "▁northern": 1552,
      "▁up": 1553,
      "▁urban": 1554,
      "hem": 1555,
      "ition": 1556,
      "29": 1557,
      "▁mus": 1558,
      "-स": 1559,
      "odi": 1560,
      "ँव": 1561,
      "ख्या": 1562,
      "णी": 1563,
      "मिल": 1564,
      "रु": 1565,
      "शास": 1566,
      "सद": 1567,
      "००": 1568,
      "▁जल": 1569,
      "▁दू": 1570,
      "▁land": 1571,
      "▁गण": 1572,
      "ild": 1573,
      "▁north": 1574,
      "▁काम": 1575,
      "ade": 1576,
      "्याप": 1577,
      "भाव": 1578,
      "▁पाक": 1579,
      "्चिम": 1580,
      "▁थी": 1581,
      "▁स्वतंत्र": 1582,
      "▁स्थित": 1583,
      "▁हिन्दी": 1584,
      "▁इलाका": 1585,
      "▁south": 1586,
      "esh": 1587,
      "omin": 1588,
      "▁hum": 1589,
      "raph": 1590,
      "ular": 1591,
      "ically": 1592,
      "27": 1593,
      "ach": 1594,
      "han": 1595,
      "krit": 1596,
      "ule": 1597,
      "vi": 1598,
      "ంద్ర": 1599,
      "త్ర": 1600,
      "భు": 1601,
      "ష్": 1602,
      "ెద్ద": 1603,
      "▁ను": 1604,
      "ork": 1605,
      "▁sec": 1606,
      "▁పు": 1607,
      "▁పరి": 1608,
      "▁కాల": 1609,
      "▁Sans": 1610,
      "▁rec": 1611,
      "▁ప్రభు": 1612,
      "▁Pl": 1613,
      "▁Press": 1614,
      "ction": 1615,
      "▁ఉత్": 1616,
      "▁ఇతర": 1617,
      "ించింది": 1618,
      "▁Uni": 1619,
      "▁దేశంలో": 1620,
      "▁మొద": 1621,
      "▁హిందూ": 1622,
      "▁Sanskrit": 1623,
      "▁ప్రభుత్వ": 1624,
      "ani": 1625,
      "iter": 1626,
      "▁Mu": 1627,
      "istory": 1628,
      "tern": 1629,
      "ensus": 1630,
      "▁University": 1631,
      "land": 1632,
      "hen": 1633,
      "▁among": 1634,
      "ice": 1635,
      "▁fol": 1636,
      "▁Pakistan": 1637,
      "▁rule": 1638,
      "lowing": 1639,
      "▁peri": 1640,
      "lim": 1641,
      "गो": 1642,
      "ज़": 1643,
      "नों": 1644,
      "मंत्री": 1645,
      "वल": 1646,
      "वी": 1647,
      "वीं": 1648,
      "शन": 1649,
      "ोज": 1650,
      "ars": 1651,
      "▁हिम": 1652,
      "ess": 1653,
      "▁जी": 1654,
      "▁जिन": 1655,
      "▁अम": 1656,
      "▁दिया": 1657,
      "िये": 1658,
      "्त्र": 1659,
      "▁प्रति": 1660,
      "▁तमिल": 1661,
      "▁non": 1662,
      "▁होला": 1663,
      "▁समाज": 1664,
      "ुरु": 1665,
      "▁स्था": 1666,
      "▁राष्ट्रीय": 1667,
      "▁develop": 1668,
      "▁संस्कृति": 1669,
      "▁लिए": 1670,
      "▁चुनाव": 1671,
      "calf": 1672,
      "▁पाकिस्तान": 1673,
      "▁period": 1674,
      "▁हिमालय": 1675,
      "35": 1676,
      "▁ri": 1677,
      "etcalf": 1678,
      "own": 1679,
      "ope": 1680,
      "merg": 1681,
      "▁classical": 1682,
      "▁Mugh": 1683,
      ".in": 1684,
      "36": 1685,
      "ked": 1686,
      "▁since": 1687,
      "ised": 1688,
      "ech": 1689,
      "▁Beng": 1690,
      "ost": 1691,
      "hes": 1692,
      "arn": 1693,
      "▁Cent": 1694,
      "▁hig": 1695,
      "right": 1696,
      "▁subcontinent": 1697,
      "India": 1698,
      "▁peop": 1699,
      "▁Bengal": 1700,
      "-p": 1701,
      "ered": 1702,
      "ative": 1703,
      "▁emp": 1704,
      "ime": 1705,
      "ately": 1706,
      "▁largest": 1707,
      "▁economy": 1708,
      "-g": 1709,
      "led": 1710,
      "lish": 1711,
      "गत": 1712,
      "जात": 1713,
      "द्व": 1714,
      "पू": 1715,
      "वं": 1716,
      "ाय": 1717,
      "ुल": 1718,
      "ौर": 1719,
      "గర": 1720,
      "ప్ర": 1721,
      "పాల": 1722,
      "ావ": 1723,
      "ీన": 1724,
      "ుకు": 1725,
      "▁ట": 1726,
      "▁हाला": 1727,
      "ities": 1728,
      "▁western": 1729,
      "▁పూ": 1730,
      "్రం": 1731,
      "▁आय": 1732,
      "▁अब": 1733,
      "▁अभ": 1734,
      "▁अस": 1735,
      "▁दश": 1736,
      "▁సభ": 1737,
      "▁సి": 1738,
      "▁Th": 1739,
      "▁కార": 1740,
      "▁వా": 1741,
      "▁వే": 1742,
      "▁एगो": 1743,
      "▁రెండ": 1744,
      "▁అత్య": 1745,
      "▁शता": 1746,
      "▁साहित": 1747,
      "▁than": 1748,
      "క్క": 1749,
      "▁ఇది": 1750,
      "▁नेत": 1751,
      "ించిన": 1752,
      "▁नाँव": 1753,
      "धानमंत्री": 1754,
      "▁సాం": 1755,
      "▁देशों": 1756,
      "क्ति": 1757,
      "ద్ధి": 1758,
      "ब्दी": 1759,
      "▁tradition": 1760,
      "विधान": 1761,
      "▁influ": 1762,
      "▁కేంద్ర": 1763,
      "▁వచ్చింది": 1764,
      "▁Comp": 1765,
      "స్కృ": 1766,
      "క్కువ": 1767,
      "▁शताब्दी": 1768,
      "▁साहित्य": 1769,
      "esp": 1770,
      "▁Sik": 1771,
      "vement": 1772,
      "▁Del": 1773,
      "▁Eur": 1774,
      "(P": 1775,
      "jab": 1776,
      "▁other": 1777,
      "athem": 1778,
      "▁mid": 1779,
      "▁one": 1780,
      "▁rate": 1781,
      "ains": 1782,
      "▁economic": 1783,
      "▁music": 1784,
      "46": 1785,
      "ting": 1786,
      "ana": 1787,
      "▁Is": 1788,
      "omen": 1789,
      "▁new": 1790,
      "▁By": 1791,
      "▁Pun": 1792,
      "▁East": 1793,
      "▁US": 1794,
      "ack": 1795,
      "ology": 1796,
      "cient": 1797,
      "▁social": 1798,
      "▁Punjab": 1799,
      "-c": 1800,
      "iz": 1801,
      "la": 1802,
      "rough": 1803,
      "▁occ": 1804,
      "▁gr": 1805,
      "▁state": 1806,
      "▁ext": 1807,
      "▁people": 1808,
      "▁US$": 1809,
      "-s": 1810,
      "ँकि": 1811,
      "चल": 1812,
      "चना": 1813,
      "टी": 1814,
      "भग": 1815,
      "मत": 1816,
      "योग": 1817,
      "हरी": 1818,
      "ोष": 1819,
      "्ड": 1820,
      "▁कप": 1821,
      "ins": 1822,
      "▁सदी": 1823,
      "▁मो": 1824,
      "read": 1825,
      "▁प्ले": 1826,
      "▁बद": 1827,
      "▁बाने": 1828,
      "▁रहा": 1829,
      "▁निय": 1830,
      "र्ट": 1831,
      "र्ष": 1832,
      "▁वाली": 1833,
      "rid": 1834,
      "▁उन": 1835,
      "▁संसद": 1836,
      "▁संविधान": 1837,
      "▁चल": 1838,
      "▁राजनी": 1839,
      "▁होता": 1840,
      "▁करने": 1841,
      "▁करोड़": 1842,
      "▁इसके": 1843,
      "▁देस": 1844,
      "▁हुए": 1845,
      "▁लाख": 1846,
      "ोलन": 1847,
      "ife": 1848,
      "▁ओर": 1849,
      "▁संस्कृत": 1850,
      "▁निर्माण": 1851,
      "imalay": 1852,
      "▁न्याय": 1853,
      "▁होखे": 1854,
      "▁हालाँकि": 1855,
      "▁प्लेट": 1856,
      "oi": 1857,
      "ven": 1858,
      "vent": 1859,
      "arly": 1860,
      "▁life": 1861,
      "ird": 1862,
      "▁National": 1863,
      "orts": 1864,
      "▁spec": 1865,
      "arliament": 1866,
      "▁increased": 1867,
      "▁China": 1868,
      "▁Mughal": 1869,
      "100": 1870,
      "ron": 1871,
      "▁out": 1872,
      "arat": 1873,
      "itary": 1874,
      "iss": 1875,
      "▁Tamil": 1876,
      "▁After": 1877,
      "und": 1878,
      "-m": 1879,
      "-w": 1880,
      "ted": 1881,
      "గం": 1882,
      "గి": 1883,
      "గ్": 1884,
      "గిన": 1885,
      "నాలు": 1886,
      "బడ": 1887,
      "మి": 1888,
      "మే": 1889,
      "ిమ": 1890,
      "ిల్ల": 1891,
      "ుల": 1892,
      "▁య": 1893,
      "▁ద్": 1894,
      "ange": 1895,
      "▁పర": 1896,
      "▁పట్ట": 1897,
      "▁పెద్ద": 1898,
      "్రె": 1899,
      "ారి": 1900,
      "ాలను": 1901,
      "▁liter": 1902,
      "▁కలి": 1903,
      "▁వె": 1904,
      "rad": 1905,
      "▁రవా": 1906,
      "▁భారత్": 1907,
      "▁అతి": 1908,
      "▁ఉంట": 1909,
      "▁జరి": 1910,
      "▁తరు": 1911,
      "ultan": 1912,
      "ాబ్": 1913,
      "▁lead": 1914,
      "▁number": 1915,
      "▁మార్గాలు": 1916,
      "▁క్రీడ": 1917,
      "▁ఆర్ధిక": 1918,
      "ప్ప": 1919,
      "▁అయిన": 1920,
      "▁జనాభా": 1921,
      "▁ఉత్తర": 1922,
      "▁Delhi": 1923,
      "▁రవాణా": 1924,
      "▁తరువాత": 1925,
      "the": 1926,
      "ya": 1927,
      "▁Y": 1928,
      "anu": 1929,
      "▁there": 1930,
      "ograph": 1931,
      "▁Indus": 1932,
      "70": 1933,
      "ght": 1934,
      "rans": 1935,
      "कल": 1936,
      "च्च": 1937,
      "श्चिम": 1938,
      "स्ट": 1939,
      "हास": 1940,
      "िप": 1941,
      "ूल": 1942,
      "ेक": 1943,
      "ेज": 1944,
      "ैली": 1945,
      "▁कम": 1946,
      "▁किन": 1947,
      "▁पच्छ": 1948,
      "▁पश्चिम": 1949,
      "▁ब्र": 1950,
      "▁बंग": 1951,
      "ors": 1952,
      "▁set": 1953,
      "▁अल": 1954,
      "▁अरब": 1955,
      "▁नहीं": 1956,
      "▁def": 1957,
      "▁तीस": 1958,
      "▁संबंध": 1959,
      "▁इन": 1960,
      "ight": 1961,
      "▁यूर": 1962,
      "क्षा": 1963,
      "तिहास": 1964,
      "▁निर": 1965,
      "▁all": 1966,
      "ृत्व": 1967,
      "▁भाषाओं": 1968,
      "ंग्रेस": 1969,
      "▁टी": 1970,
      "▁हिन्द": 1971,
      "▁लगभग": 1972,
      "▁भाग": 1973,
      "▁बिस्व": 1974,
      "▁Eng": 1975,
      "▁पार्ट": 1976,
      "▁हिंद": 1977,
      "▁उत्पाद": 1978,
      "्यापार": 1979,
      "▁दशक": 1980,
      "▁नेतृत्व": 1981,
      "▁पच्छिम": 1982,
      "ib": 1983,
      "ue": 1984,
      "▁found": 1985,
      "▁main": 1986,
      "▁Mus": 1987,
      "▁Himalay": 1988,
      "▁en": 1989,
      "orn": 1990,
      "▁power": 1991,
      "▁parliament": 1992,
      "▁emerg": 1993,
      "▁Plate": 1994,
      "50": 1995,
      "▁right": 1996,
      "eral": 1997,
      "▁them": 1998,
      "▁offic": 1999,
      "▁cour": 2000,
      "▁pre": 2001,
      "ould": 2002,
      "▁est": 2003,
      "▁dis": 2004,
      "illen": 2005,
      "▁Constitution": 2006,
      "▁general": 2007,
      "▁species": 2008,
      "new": 2009,
      "rol": 2010,
      "▁sur": 2011,
      "▁Sh": 2012,
      "▁nuclear": 2013,
      "nium": 2014,
      "illennium": 2015,
      "ta": 2016,
      "ंतर": 2017,
      "णा": 2018,
      "त्त": 2019,
      "त्व": 2020,
      "पाल": 2021,
      "फी": 2022,
      "बर": 2023,
      "सं": 2024,
      "स्य": 2025,
      "ीरे": 2026,
      "▁ढ": 2027,
      "▁कॉ": 2028,
      "▁स्तर": 2029,
      "▁महा": 2030,
      "▁पै": 2031,
      "▁पहल": 2032,
      "▁बौ": 2033,
      "▁war": 2034,
      "▁आज": 2035,
      "▁अउ": 2036,
      "र्ज": 2037,
      "▁प्रकार": 2038,
      "▁गा": 2039,
      "▁गंगा": 2040,
      "▁बाड़ी": 2041,
      "ियाँ": 2042,
      "दीप": 2043,
      "न्न": 2044,
      "धिकार": 2045,
      "argest": 2046,
      "▁जनजात": 2047,
      "▁क्षेत्रीय": 2048,
      "▁कुल": 2049,
      "ुनिक": 2050,
      "▁हिसाब": 2051,
      "▁भूम": 2052,
      "▁सदस्य": 2053,
      "▁आधारित": 2054,
      "-largest": 2055,
      "▁स्थाप": 2056,
      "▁चुनावों": 2057,
      "-in": 2058,
      "55": 2059,
      "eat": 2060,
      "ok": 2061,
      "ug": 2062,
      "కీయ": 2063,
      "గీ": 2064,
      "చే": 2065,
      "టిక": 2066,
      "ట్ల": 2067,
      "లలో": 2068,
      "ీర్": 2069,
      "ౌక": 2070,
      "▁col": 2071,
      "▁country": 2072,
      "▁పా": 2073,
      "▁పాల": 2074,
      "▁పాక": 2075,
      "▁mathem": 2076,
      "ాలో": 2077,
      "ought": 2078,
      "▁సరి": 2079,
      "▁కొ": 2080,
      "ript": 2081,
      "▁మహ": 2082,
      "▁ప్రస్తు": 2083,
      "▁అనే": 2084,
      "▁ఉప": 2085,
      "▁through": 2086,
      "dust": 2087,
      "ించి": 2088,
      "ందిన": 2089,
      "స్తాన్": 2090,
      "▁బహ": 2091,
      "▁స్వ": 2092,
      "ంగ్రె": 2093,
      "▁ఎక్కువ": 2094,
      "ivil": 2095,
      "▁produ": 2096,
      "▁సాధ": 2097,
      "▁ముఖ్య": 2098,
      "▁ఏర్": 2099,
      "▁కాంగ్రె": 2100,
      "తున్న": 2101,
      "▁ఎన్నో": 2102,
      "ుకో": 2103,
      "▁దక్షిణ": 2104,
      "ప్రదాయ": 2105,
      "▁అత్యధిక": 2106,
      "▁ద్వ": 2107,
      "▁పాకి": 2108,
      "▁సరిహ": 2109,
      "43": 2110,
      "dle": 2111,
      "eb": 2112,
      "eh": 2113,
      "hat": 2114,
      "iet": 2115,
      "mit": 2116,
      "▁bas": 2117,
      "eft": 2118,
      "▁contrib": 2119,
      "▁agric": 2120,
      "▁Indo": 2121,
      "▁including": 2122,
      "▁Central": 2123,
      "ford": 2124,
      "ose": 2125,
      "ten": 2126,
      "▁billion": 2127,
      "ley": 2128,
      "▁Pro": 2129,
      "owe": 2130,
      "▁Ganges": 2131,
      "▁sty": 2132,
      "▁play": 2133,
      "-b": 2134,
      "gen": 2135,
      "ms": 2136,
      "xford": 2137,
      "▁us": 2138,
      "▁te": 2139,
      "dic": 2140,
      "dian": 2141,
      "omet": 2142,
      "aman": 2143,
      "▁constitution": 2144,
      "▁Hindi": 2145,
      "▁Hinduism": 2146,
      "▁imp": 2147,
      "▁military": 2148,
      "▁river": 2149,
      "▁Company": 2150,
      "ians": 2151,
      "गल": 2152,
      "टक": 2153,
      "तन": 2154,
      "त्": 2155,
      "पर": 2156,
      "प्र": 2157,
      "मन": 2158,
      "मी": 2159,
      "महा": 2160,
      "रात": 2161,
      "राज्य": 2162,
      "लर": 2163,
      "सभा": 2164,
      "ृष": 2165,
      "ेड": 2166,
      "ोप": 2167,
      "▁ent": 2168,
      "▁trans": 2169,
      "ind": 2170,
      "ann": 2171,
      "▁सैन": 2172,
      "▁मा": 2173,
      "rect": 2174,
      "▁पड़": 2175,
      "▁ही": 2176,
      "andhi": 2177,
      "्यता": 2178,
      "▁जब": 2179,
      "▁जवन": 2180,
      "▁जहाँ": 2181,
      "▁आग": 2182,
      "▁आद": 2183,
      "▁आप": 2184,
      "▁अव": 2185,
      "▁दर": 2186,
      "▁दुन": 2187,
      "▁विस्त": 2188,
      "्तु": 2189,
      "ाजिक": 2190,
      "▁no": 2191,
      "▁Metcalf": 2192,
      "▁परमाण": 2193,
      "▁उद्योग": 2194,
      "▁इतिहास": 2195,
      "emoc": 2196,
      "ments": 2197,
      "्याद": 2198,
      "▁सामाजिक": 2199,
      "▁जनसं": 2200,
      "ording": 2201,
      "▁घोष": 2202,
      "▁स्थान": 2203,
      "▁पुरान": 2204,
      "न्द्र": 2205,
      "▁religi": 2206,
      "▁territ": 2207,
      "▁caused": 2208,
      "▁संगीत": 2209,
      "▁अंग्रेजी": 2210,
      "▁विकास": 2211,
      "▁गणराज्य": 2212,
      "▁स्वतंत्रता": 2213,
      "ुरुआ": 2214,
      "द्वीप": 2215,
      "▁English": 2216,
      "▁परमाणु": 2217,
      "▁जनसंख्या": 2218,
      "▁used": 2219,
      "ances": 2220,
      "ories": 2221,
      "▁ac": 2222,
      "▁some": 2223,
      "▁Oxford": 2224,
      "-f": 2225,
      "ah": 2226,
      "▁ed": 2227,
      "▁time": 2228,
      "▁they": 2229,
      "rew": 2230,
      "arch": 2231,
      "▁made": 2232,
      "ashm": 2233,
      "193": 2234,
      "acy": 2235,
      "▁And": 2236,
      "▁forest": 2237,
      "owever": 2238,
      "-A": 2239,
      "ert": 2240,
      "itical": 2241,
      "▁coo": 2242,
      "▁far": 2243,
      "▁led": 2244,
      "▁left": 2245,
      "old": 2246,
      "▁Gandhi": 2247,
      "▁Jain": 2248,
      "▁disp": 2249,
      "osed": 2250,
      "▁Buddhist": 2251,
      "▁second": 2252,
      "▁Muslim": 2253,
      "ehru": 2254,
      "38": 2255,
      "400": 2256,
      "cial": 2257,
      "ober": 2258,
      "ంధ": 2259,
      "ంటి": 2260,
      "ందు": 2261,
      "కొ": 2262,
      "కాల": 2263,
      "కారం": 2264,
      "క్రమ": 2265,
      "ణి": 2266,
      "దం": 2267,
      "దర": 2268,
      "ధి": 2269,
      "పతి": 2270,
      "లా": 2271,
      "లకు": 2272,
      "లను": 2273,
      "లతో": 2274,
      "వు": 2275,
      "సు": 2276,
      "ృద్ధి": 2277,
      "ెలు": 2278,
      "▁wide": 2279,
      "▁సిం": 2280,
      "▁వర్": 2281,
      "▁మాత": 2282,
      "ిక్": 2283,
      "▁ప్రతి": 2284,
      "▁third": 2285,
      "▁జన": 2286,
      "ident": 2287,
      "▁చిన్న": 2288,
      "▁ఇండి": 2289,
      "ద్దు": 2290,
      "ండు": 2291,
      "స్తారు": 2292,
      "▁నే": 2293,
      "▁సంస్కృ": 2294,
      "▁సంగీ": 2295,
      "▁విస్త": 2296,
      "ocal": 2297,
      "▁గల": 2298,
      "ంగ్ల": 2299,
      "▁centuri": 2300,
      "ిత్ర": 2301,
      ".gov": 2302,
      "▁దేశాల": 2303,
      "▁ప్రాచ": 2304,
      "▁రాజకీయ": 2305,
      "▁రాష్ట్రాలు": 2306,
      "డిప": 2307,
      "ాల్లో": 2308,
      "▁చేస": 2309,
      "▁ప్రాంతాలు": 2310,
      "▁శాస్త": 2311,
      "▁నుండి": 2312,
      "▁కాలంలో": 2313,
      "▁సిని": 2314,
      "▁influen": 2315,
      "ిల్లీ": 2316,
      "▁ఏర్ప": 2317,
      "▁సరిహద్దు": 2318,
      "▁contribut": 2319,
      "▁centuries": 2320,
      "500": 2321,
      "ंस": 2322,
      "खा": 2323,
      "त्य": 2324,
      "दारी": 2325,
      "धी": 2326,
      "फल": 2327,
      "शील": 2328,
      "ोट": 2329,
      "▁टे": 2330,
      "heast": 2331,
      "▁सह": 2332,
      "▁सू": 2333,
      "alth": 2334,
      "ati": 2335,
      "▁पर्व": 2336,
      "▁पंज": 2337,
      "▁women": 2338,
      "▁रह": 2339,
      "▁रहे": 2340,
      "ानी": 2341,
      "▁लिये": 2342,
      "▁प्रभाव": 2343,
      "▁प्रधानमंत्री": 2344,
      "amb": 2345,
      "▁gra": 2346,
      "▁इहाँ": 2347,
      "क्ट": 2348,
      "▁चीन": 2349,
      "ातर": 2350,
      "▁History": 2351,
      "▁rural": 2352,
      "▁एकर": 2353,
      "▁उत्त": 2354,
      "ुरू": 2355,
      "▁प्राप्त": 2356,
      "▁जाती": 2357,
      "▁आधुनिक": 2358,
      "▁अपना": 2359,
      "▁उपमहा": 2360,
      "बंधन": 2361,
      "▁एही": 2362,
      "loy": 2363,
      "▁सिंध": 2364,
      "▁परंपरागत": 2365,
      "▁served": 2366,
      "▁ठो": 2367,
      "▁Sikh": 2368,
      "▁राजनीतिक": 2369,
      "▁कॉंग्रेस": 2370,
      "▁बौद्ध": 2371,
      "▁जनजाति": 2372,
      "▁सैन्य": 2373,
      "▁पंजाब": 2374,
      "39": 2375,
      "ma": 2376,
      "mb": 2377,
      "ram": 2378,
      "vid": 2379,
      "ering": 2380,
      "▁millennium": 2381,
      "▁last": 2382,
      "▁Indians": 2383,
      "▁New": 2384,
      "▁Nehru": 2385,
      "▁direct": 2386,
      "▁election": 2387,
      "▁human": 2388,
      "ultanate": 2389,
      "300": 2390,
      "bar": 2391,
      "line": 2392,
      "▁her": 2393,
      "ali": 2394,
      "ites": 2395,
      "very": 2396,
      "▁Government": 2397,
      "▁ass": 2398,
      "ives": 2399,
      "ccording": 2400,
      "▁eastern": 2401,
      "▁Europe": 2402,
      "▁religious": 2403,
      ".p": 2404,
      "fe": 2405,
      "miss": 2406,
      "ool": 2407,
      "te": 2408,
      "▁esp": 2409,
      "ons": 2410,
      "leg": 2411,
      "urn": 2412,
      "ecially": 2413,
      "verse": 2414,
      "ctober": 2415,
      "▁Kashm": 2416,
      "▁October": 2417,
      "ptember": 2418,
      "▁United": 2419,
      "echn": 2420,
      "▁especially": 2421,
      "bal": 2422,
      "bers": 2423,
      "df": 2424,
      "uly": 2425,
      "val": 2426,
      "▁early": 2427,
      "▁national": 2428,
      "ract": 2429,
      "rahm": 2430,
      "▁great": 2431,
      "▁Pers": 2432,
      "ants": 2433,
      "▁control": 2434,
      "epend": 2435,
      "▁coast": 2436,
      "▁growth": 2437,
      "▁September": 2438,
      "▁high": 2439,
      "▁employ": 2440,
      "anuary": 2441,
      "au": 2442,
      "aks": 2443,
      "min": 2444,
      "tro": 2445,
      "ual": 2446,
      "ंट": 2447,
      "जरात": 2448,
      "ण्ड": 2449,
      "तम": 2450,
      "तमान": 2451,
      "थान": 2452,
      "दे": 2453,
      "रिक": 2454,
      "वना": 2455,
      "वरी": 2456,
      "सि": 2457,
      "स्व": 2458,
      "सित": 2459,
      "ीर": 2460,
      "ेष": 2461,
      "ेमा": 2462,
      "्ञ": 2463,
      "्ली": 2464,
      "▁सक": 2465,
      "▁सिन": 2466,
      "▁मूल": 2467,
      "ार्": 2468,
      "▁हा": 2469,
      "▁भर": 2470,
      "▁बड़ा": 2471,
      "▁culture": 2472,
      "▁आन्द": 2473,
      "▁दि": 2474,
      "▁रचना": 2475,
      "▁वे": 2476,
      "▁गई": 2477,
      "▁तट": 2478,
      "▁hist": 2479,
      "▁rem": 2480,
      "▁एवं": 2481,
      "िस्ट": 2482,
      "istic": 2483,
      "une": 2484,
      "▁Rep": 2485,
      "▁movement": 2486,
      "▁विभ": 2487,
      "▁January": 2488,
      "▁diff": 2489,
      "▁अन्त": 2490,
      "ake": 2491,
      "▁areas": 2492,
      "वादी": 2493,
      "▁central": 2494,
      "185": 2495,
      "▁वर्ग": 2496,
      "१९९": 2497,
      "▁थे": 2498,
      "ीपी": 2499,
      "▁छोड़": 2500,
      "▁जिसमें": 2501,
      "करण": 2502,
      "▁महत्व": 2503,
      "▁बढ़ती": 2504,
      "▁include": 2505,
      "▁ऊँच": 2506,
      "▁political": 2507,
      "▁गुजरात": 2508,
      "म्भ": 2509,
      "▁majority": 2510,
      "▁युद्ध": 2511,
      "▁अर्थव": 2512,
      "▁सीमा": 2513,
      "▁roc": 2514,
      "ज़ी": 2515,
      "▁हिंदू": 2516,
      "▁emerged": 2517,
      "्यादातर": 2518,
      "ुरुआत": 2519,
      "▁सिनेमा": 2520,
      "DF": 2521,
      "ied": 2522,
      "ration": 2523,
      "ines": 2524,
      "ath": 2525,
      "▁sha": 2526,
      "▁Prad": 2527,
      "▁Dec": 2528,
      "▁states": 2529,
      "▁regions": 2530,
      "cess": 2531,
      "▁ago": 2532,
      "▁Guj": 2533,
      "▁following": 2534,
      "(PDF": 2535,
      "▁Andaman": 2536,
      ".pdf": 2537,
      "▁Pradesh": 2538,
      "/india": 2539,
      "80": 2540,
      "ix": 2541,
      "kar": 2542,
      "king": 2543,
      "vol": 2544,
      "ంక": 2545,
      "కాలు": 2546,
      "గలు": 2547,
      "గంగా": 2548,
      "జ్య": 2549,
      "టం": 2550,
      "టీ": 2551,
      "ణంగా": 2552,
      "తా": 2553,
      "తిక": 2554,
      "తంత్ర": 2555,
      "తాబ్": 2556,
      "దా": 2557,
      "దార": 2558,
      "పం": 2559,
      "భి": 2560,
      "యో": 2561,
      "రం": 2562,
      "రో": 2563,
      "వత్": 2564,
      "ెల": 2565,
      "ెంగ": 2566,
      "▁ఐ": 2567,
      "▁డ": 2568,
      "▁ఢ": 2569,
      "dis": 2570,
      "▁indust": 2571,
      "▁so": 2572,
      "▁pain": 2573,
      "▁పత": 2574,
      "▁పో": 2575,
      "ash": 2576,
      "▁సమా": 2577,
      "▁సౌక": 2578,
      "▁మన": 2579,
      "▁మూడ": 2580,
      "ర్లు": 2581,
      "▁రహ": 2582,
      "▁ప్రము": 2583,
      "▁ప్రకారం": 2584,
      "▁అభి": 2585,
      "▁De": 2586,
      "▁Raj": 2587,
      "▁జాబ": 2588,
      "▁చరి": 2589,
      "ాత్ర": 2590,
      "ained": 2591,
      "▁ఆధ": 2592,
      "ంతో": 2593,
      "ంత్రి": 2594,
      "▁నా": 2595,
      "▁నగర": 2596,
      "▁నడిప": 2597,
      "▁బ్రి": 2598,
      "▁బెంగ": 2599,
      "▁వివి": 2600,
      "ultural": 2601,
      "▁Ass": 2602,
      "▁గు": 2603,
      "▁శతాబ్": 2604,
      "▁సామ": 2605,
      "ాబా": 2606,
      "వామ": 2607,
      "▁రాష్ట్రపతి": 2608,
      "▁ఒకటి": 2609,
      "▁coal": 2610,
      "డ్డ": 2611,
      "▁ప్రపంచంలో": 2612,
      "▁ప్రజా": 2613,
      "▁పరిశ": 2614,
      "▁దేశంలోని": 2615,
      "▁మొదల": 2616,
      "▁రెండు": 2617,
      "▁పట్టణ": 2618,
      "▁literacy": 2619,
      "ప్పటిక": 2620,
      "▁mathemat": 2621,
      "▁బహు": 2622,
      "▁సింధ": 2623,
      "▁ఇండియా": 2624,
      "దారులు": 2625,
      "▁painting": 2626,
      "▁సౌకర్య": 2627,
      "▁ప్రముఖ": 2628,
      "▁జాబిత": 2629,
      "▁చరిత్ర": 2630,
      "▁వివిధ": 2631,
      "mar": 2632,
      "oin": 2633,
      "pri": 2634,
      "til": 2635,
      "ually": 2636,
      "▁we": 2637,
      "▁Ara": 2638,
      "▁ne": 2639,
      "▁Bi": 2640,
      "etic": 2641,
      "▁July": 2642,
      "▁ancient": 2643,
      "▁occup": 2644,
      "31": 2645,
      "DP": 2646,
      "ile": 2647,
      "minist": 2648,
      "ss": 2649,
      "erv": 2650,
      "ating": 2651,
      "▁inter": 2652,
      "▁prom": 2653,
      "▁bu": 2654,
      "oms": 2655,
      "ries": 2656,
      "▁ref": 2657,
      "▁rul": 2658,
      "▁stat": 2659,
      "book": 2660,
      "▁support": 2661,
      "lands": 2662,
      "hy": 2663,
      "ove": 2664,
      "एँ": 2665,
      "ज्ञ": 2666,
      "टि": 2667,
      "डी": 2668,
      "दार": 2669,
      "द्र": 2670,
      "धार": 2671,
      "पे": 2672,
      "पति": 2673,
      "रह": 2674,
      "लिक": 2675,
      "श्म": 2676,
      "सार": 2677,
      "हें": 2678,
      "िट": 2679,
      "िथ": 2680,
      "ूद": 2681,
      "ेस": 2682,
      "ोत": 2683,
      "२०": 2684,
      "२००": 2685,
      "▁सके": 2686,
      "▁सर्व": 2687,
      "▁मन": 2688,
      "▁केन्द्र": 2689,
      "ारम्भ": 2690,
      "▁पहा": 2691,
      "▁बै": 2692,
      "▁cre": 2693,
      "▁bir": 2694,
      "्यात": 2695,
      "▁fl": 2696,
      "▁fig": 2697,
      "▁feat": 2698,
      "▁जाल": 2699,
      "▁जीत": 2700,
      "▁ज्यादातर": 2701,
      "ings": 2702,
      "▁दल": 2703,
      "▁दिल": 2704,
      "▁रक्षा": 2705,
      "▁नद": 2706,
      "िकी": 2707,
      "िक्ष": 2708,
      "▁dra": 2709,
      "▁सेना": 2710,
      "▁प्रशास": 2711,
      "▁प्रचल": 2712,
      "▁प्रारम्भ": 2713,
      "▁गठ": 2714,
      "amm": 2715,
      "▁Bang": 2716,
      "▁Brahm": 2717,
      "▁These": 2718,
      "▁संयु": 2719,
      "▁शैली": 2720,
      "htm": 2721,
      "▁चार": 2722,
      "क्षण": 2723,
      "▁विदेश": 2724,
      "▁अनु": 2725,
      "वायु": 2726,
      "▁धीरे": 2727,
      "▁निभा": 2728,
      "apit": 2729,
      "ैदिक": 2730,
      "▁घा": 2731,
      "▁जाति": 2732,
      "नावल": 2733,
      "▁वर्षों": 2734,
      "▁युग": 2735,
      "बिध": 2736,
      "▁जलवायु": 2737,
      "▁न्यायालय": 2738,
      "▁बंगाल": 2739,
      "▁अलग": 2740,
      "▁तीसरी": 2741,
      "▁यूरोप": 2742,
      "▁पार्टी": 2743,
      "पालिका": 2744,
      "▁स्थापना": 2745,
      "▁दुनिया": 2746,
      "▁उत्तरी": 2747,
      "▁सिंधु": 2748,
      "▁आन्दोलन": 2749,
      "▁दिहल": 2750,
      "▁अर्थव्यवस्था": 2751,
      "pril": 2752,
      "ज्ञान": 2753,
      "▁संयुक्त": 2754,
      "/p": 2755,
      "37": 2756,
      "JP": 2757,
      "ke": 2758,
      "here": 2759,
      "▁sm": 2760,
      "▁port": 2761,
      "▁bi": 2762,
      "▁April": 2763,
      "duced": 2764,
      "artic": 2765,
      "▁union": 2766,
      "▁vill": 2767,
      "ected": 2768,
      "ody": 2769,
      "▁leg": 2770,
      "▁parliamentary": 2771,
      "▁widely": 2772,
      "▁histor": 2773,
      ".htm": 2774,
      "tal": 2775,
      "▁$": 2776,
      "▁u": 2777,
      "alley": 2778,
      "enins": 2779,
      "▁Its": 2780,
      "▁census": 2781,
      "▁li": 2782,
      "▁local": 2783,
      "▁Af": 2784,
      "lief": 2785,
      "▁contin": 2786,
      "▁party": 2787,
      "▁arch": 2788,
      "▁term": 2789,
      "▁States": 2790,
      "▁whose": 2791,
      "▁Himalayas": 2792,
      "▁rock": 2793,
      "▁Gujarat": 2794,
      "ail": 2795,
      "son": 2796,
      "▁tex": 2797,
      "▁cru": 2798,
      "▁ind": 2799,
      "▁sultanate": 2800,
      "▁pres": 2801,
      "▁penins": 2802,
      "▁fed": 2803,
      "ently": 2804,
      "▁Act": 2805,
      "▁el": 2806,
      "ecut": 2807,
      "▁Bh": 2808,
      "▁There": 2809,
      "▁gar": 2810,
      "▁grew": 2811,
      "ulpt": 2812,
      "ists": 2813,
      "▁Econom": 2814,
      "▁rates": 2815,
      "▁diversity": 2816,
      "▁Asian": 2817,
      "▁dev": 2818,
      "▁religions": 2819,
      "▁sculpt": 2820,
      "form": 2821,
      "▁official": 2822,
      "▁Persian": 2823,
      ".n": 2824,
      "/artic": 2825,
      "120": 2826,
      "64": 2827,
      "day": 2828,
      "pur": 2829,
      "wn": 2830,
      "▁z": 2831,
      "ined": 2832,
      "▁old": 2833,
      "▁off": 2834,
      "▁Aug": 2835,
      "▁earli": 2836,
      "▁his": 2837,
      "ility": 2838,
      "▁Bhar": 2839,
      "ross": 2840,
      "▁along": 2841,
      "▁become": 2842,
      "▁sever": 2843,
      "▁This": 2844,
      "▁August": 2845,
      "(क": 2846,
      "60": 2847,
      "ंक": 2848,
      "चर": 2849,
      "चार": 2850,
      "टन": 2851,
      "तः": 2852,
      "तु": 2853,
      "थिय": 2854,
      "पा": 2855,
      "बू": 2856,
      "ब्यवस्था": 2857,
      "यल": 2858,
      "रूप": 2859,
      "ाव": 2860,
      "ीज": 2861,
      "ृद्ध": 2862,
      "గే": 2863,
      "గో": 2864,
      "జి": 2865,
      "జీ": 2866,
      "డే": 2867,
      "నీ": 2868,
      "నాల": 2869,
      "బ్": 2870,
      "మీ": 2871,
      "మ్మ": 2872,
      "యాలు": 2873,
      "లస": 2874,
      "ళం": 2875,
      "ళ్ల": 2876,
      "వడ": 2877,
      "వర్": 2878,
      "వచ్చ": 2879,
      "వృద్ధి": 2880,
      "షు": 2881,
      "ాట": 2882,
      "ాస": 2883,
      "ాహ": 2884,
      "ాన్ని": 2885,
      "ుంది": 2886,
      "్వ": 2887,
      "▁ऋ": 2888,
      "▁ఖ": 2889,
      "▁గా": 2890,
      "▁सफल": 2891,
      "▁मै": 2892,
      "▁मौ": 2893,
      "ality": 2894,
      "▁पठ": 2895,
      "▁हर": 2896,
      "▁हथिय": 2897,
      "▁बज": 2898,
      "▁बने": 2899,
      "▁बड़ी": 2900,
      "▁often": 2901,
      "▁cur": 2902,
      "▁పద్ధ": 2903,
      "▁పండు": 2904,
      "ict": 2905,
      "▁bl": 2906,
      "्यों": 2907,
      "▁जान": 2908,
      "▁आक": 2909,
      "▁आर्": 2910,
      "▁आधिकार": 2911,
      "▁अग": 2912,
      "▁अफ": 2913,
      "▁रू": 2914,
      "▁रे": 2915,
      "▁नव": 2916,
      "▁नदी": 2917,
      "▁नीच": 2918,
      "िकल": 2919,
      "▁సమ": 2920,
      "▁సు": 2921,
      "▁సర్వ": 2922,
      "▁व्यापार": 2923,
      "▁लें": 2924,
      "▁लंब": 2925,
      "▁వాత": 2926,
      "▁భూ": 2927,
      "▁ग्र": 2928,
      "▁गति": 2929,
      "▁तरह": 2930,
      "ाजपा": 2931,
      "amp": 2932,
      "▁बाकी": 2933,
      "దేశ్": 2934,
      "స్వామ": 2935,
      "▁రో": 2936,
      "▁రంగ": 2937,
      "▁అను": 2938,
      "న్నాయి": 2939,
      "▁शहरी": 2940,
      "utes": 2941,
      "▁चा": 2942,
      "▁चीज": 2943,
      "▁చైన": 2944,
      "▁करना": 2945,
      "ेशन": 2946,
      "▁समु": 2947,
      "▁समर्थ": 2948,
      "▁एकरे": 2949,
      "▁within": 2950,
      "నుక": 2951,
      "ల్ప": 2952,
      "ల్లో": 2953,
      "ల్వే": 2954,
      "▁खे": 2955,
      "▁खाना": 2956,
      "త్తం": 2957,
      "ించే": 2958,
      "▁June": 2959,
      "▁सभ्यता": 2960,
      "▁West": 2961,
      "▁తన": 2962,
      "▁తమి": 2963,
      "▁సంఖ్య": 2964,
      "▁సంవత్": 2965,
      "▁బా": 2966,
      "▁విభ": 2967,
      "▁విశ": 2968,
      "टेक्": 2969,
      "वाद": 2970,
      "▁नाच": 2971,
      "ముద్ర": 2972,
      "▁స్వాత": 2973,
      "▁इसी": 2974,
      "▁पूरा": 2975,
      "ंधी": 2976,
      "▁ఉన్నారు": 2977,
      "ृतिक": 2978,
      "▁वर्तमान": 2979,
      "▁जनता": 2980,
      "▁बहुमत": 2981,
      "▁राष्ट्रपति": 2982,
      "▁కూడిన": 2983,
      "▁నిర్వ": 2984,
      "▁రైల్వే": 2985,
      "▁భారతదేశపు": 2986,
      "▁భారతదేశానికి": 2987,
      "ब्द": 2988,
      "▁जाते": 2989,
      "▁अपनी": 2990,
      "▁మొత్తం": 2991,
      "▁अधिकार": 2992,
      "▁चुकल": 2993,
      "ards": 2994,
      "▁दोनों": 2995,
      "▁ऊपर": 2996,
      "▁डॉ": 2997,
      "▁కోర్": 2998,
      "ట్లు": 2999,
      "సియా": 3000,
      "▁Union": 3001,
      "िवार": 3002,
      "▁ప్రధానమ": 3003,
      "▁చేయ": 3004,
      "▁longer": 3005,
      "▁इंडो": 3006,
      "▁इंडिया": 3007,
      "రణం": 3008,
      "ष्ण": 3009,
      "▁अर्थब्यवस्था": 3010,
      "▁భాషలు": 3011,
      "▁అధికారిక": 3012,
      "▁పుట్ట": 3013,
      "▁మొదటి": 3014,
      "▁अमेर": 3015,
      "पूर्ण": 3016,
      "పాలిత": 3017,
      "ావరణం": 3018,
      "▁టె": 3019,
      "▁కార్య": 3020,
      "▁కారణంగా": 3021,
      "▁వేగంగా": 3022,
      "▁కేంద్రపాలిత": 3023,
      "▁యు": 3024,
      "▁వెబ్": 3025,
      "▁ఉంటాయి": 3026,
      "▁జరిగిన": 3027,
      "news": 3028,
      "▁पहले": 3029,
      "▁गांधी": 3030,
      "▁भूमिका": 3031,
      "ీర్ణ": 3032,
      "▁ప్రస్తుతం": 3033,
      "▁అనేక": 3034,
      "▁ఎక్కువగా": 3035,
      "▁కాంగ్రెసు": 3036,
      "▁आदि": 3037,
      "▁ప్రాచీన": 3038,
      "▁రహదారులు": 3039,
      "▁అభివృద్ధి": 3040,
      "▁శతాబ్దం": 3041,
      "▁పరిశ్రమ": 3042,
      "▁दिल्ली": 3043,
      "▁प्रशासन": 3044,
      "▁गठबंधन": 3045,
      "▁निभाई": 3046,
      "▁हथियार": 3047,
      "▁आधिकारिक": 3048,
      "▁వాతావరణం": 3049,
      "▁సంవత్స": 3050,
      "▁స్వాతంత్ర": 3051,
      "▁నిర్వహ": 3052,
      "-t": 3053,
      "fore": 3054,
      "lam": 3055,
      "onom": 3056,
      "▁air": 3057,
      "▁well": 3058,
      "▁sch": 3059,
      "ese": 3060,
      "ished": 3061,
      "▁According": 3062,
      "▁Camb": 3063,
      "▁near": 3064,
      "igni": 3065,
      "▁three": 3066,
      "emal": 3067,
      "duct": 3068,
      "▁Western": 3069,
      "▁common": 3070,
      "101": 3071,
      "▁administ": 3072,
      "alled": 3073,
      "▁market": 3074,
      "▁popular": 3075,
      "ternational": 3076,
      "▁grou": 3077,
      "▁based": 3078,
      "echnology": 3079,
      "ignific": 3080,
      "68": 3081,
      "can": 3082,
      "cent": 3083,
      "cript": 3084,
      "mary": 3085,
      "eration": 3086,
      "ature": 3087,
      "▁cor": 3088,
      "▁won": 3089,
      "▁when": 3090,
      "▁mon": 3091,
      "▁lower": 3092,
      "urther": 3093,
      "though": 3094,
      "▁Mo": 3095,
      "ung": 3096,
      "▁rise": 3097,
      "ively": 3098,
      "▁spe": 3099,
      "▁kn": 3100,
      "▁marri": 3101,
      "▁forms": 3102,
      "ucation": 3103,
      "▁composed": 3104,
      "lobal": 3105,
      "▁elections": 3106,
      "▁agriculture": 3107,
      "▁Kashmir": 3108,
      "ignificant": 3109,
      "(ed": 3110,
      "-india": 3111,
      "44": 3112,
      "72": 3113,
      "get": 3114,
      "na": 3115,
      "oor": 3116,
      "round": 3117,
      "tt": 3118,
      "ving": 3119,
      "west": 3120,
      "▁trib": 3121,
      "ank": 3122,
      "ara": 3123,
      "▁car": 3124,
      "▁cities": 3125,
      "▁sou": 3126,
      "ico": 3127,
      "▁four": 3128,
      "▁men": 3129,
      "▁member": 3130,
      "ising": 3131,
      "ingd": 3132,
      "▁low": 3133,
      "▁Among": 3134,
      "▁now": 3135,
      "▁BJP": 3136,
      "▁Mod": 3137,
      "adu": 3138,
      "▁During": 3139,
      "▁Re": 3140,
      "▁Ram": 3141,
      "sequ": 3142,
      "▁commer": 3143,
      "thern": 3144,
      "▁regional": 3145,
      "▁republic": 3146,
      "▁Buddhism": 3147,
      "ternal": 3148,
      "▁development": 3149,
      "▁territories": 3150,
      "aksh": 3151,
      "▁Republic": 3152,
      "▁southern": 3153,
      "-re": 3154,
      "eograph": 3155,
      "tle": 3156,
      "ats": 3157,
      "▁wild": 3158,
      "▁sa": 3159,
      "▁May": 3160,
      "rop": 3161,
      "▁though": 3162,
      "▁GDP": 3163,
      "▁Nadu": 3164,
      "▁execut": 3165,
      "▁endem": 3166,
      "outheast": 3167,
      "▁styles": 3168,
      "▁education": 3169,
      "▁employed": 3170,
      "▁differ": 3171,
      "▁industry": 3172,
      "▁created": 3173,
      "▁peninsular": 3174,
      "▁federal": 3175,
      "-फ": 3176,
      "87": 3177,
      "ie": 3178,
      "ip": 3179,
      "ring": 3180,
      "vis": 3181,
      "ंथ": 3182,
      "एं": 3183,
      "गरी": 3184,
      "गोल": 3185,
      "ट्ट": 3186,
      "डिया": 3187,
      "डीपी": 3188,
      "त्या": 3189,
      "धि": 3190,
      "धे": 3191,
      "बी": 3192,
      "भाषा": 3193,
      "रल": 3194,
      "रो": 3195,
      "ल्": 3196,
      "लों": 3197,
      "लिम": 3198,
      "वास": 3199,
      "शत": 3200,
      "सून": 3201,
      "िज": 3202,
      "ुग": 3203,
      "ुष": 3204,
      "ुद्ध": 3205,
      "ेम": 3206,
      "ोढ़": 3207,
      "ोच्च": 3208,
      "्न": 3209,
      "▁कला": 3210,
      "▁कर्ज": 3211,
      "▁कश्म": 3212,
      "▁सल": 3213,
      "▁सो": 3214,
      "▁मंत्र": 3215,
      "▁माम": 3216,
      "▁मिला": 3217,
      "ather": 3218,
      "▁पु": 3219,
      "▁बार": 3220,
      "▁indi": 3221,
      "▁जइ": 3222,
      "▁जिन्": 3223,
      "▁man": 3224,
      "▁अश": 3225,
      "र्शन": 3226,
      "▁व्यवस्था": 3227,
      "▁वैदिक": 3228,
      "▁total": 3229,
      "▁domin": 3230,
      "▁सेवा": 3231,
      "▁प्रद": 3232,
      "▁ता": 3233,
      "▁तीन": 3234,
      "▁तुल": 3235,
      "▁बाहरी": 3236,
      "▁उठ": 3237,
      "▁उस": 3238,
      "▁संबि": 3239,
      "▁शब्द": 3240,
      "क्स": 3241,
      "▁सां": 3242,
      "▁राजा": 3243,
      "▁होती": 3244,
      "duc": 3245,
      "▁समा": 3246,
      "▁सम्प": 3247,
      "▁विवाद": 3248,
      "स्लिम": 3249,
      "akh": 3250,
      "ंदिर": 3251,
      "pper": 3252,
      "pta": 3253,
      "oss": 3254,
      "ाष्ट्रीय": 3255,
      "▁वर्ण": 3256,
      "ector": 3257,
      "▁जनवरी": 3258,
      "▁जेह": 3259,
      "ditions": 3260,
      "स्कृतिक": 3261,
      "१९७": 3262,
      "१९८": 3263,
      "▁बिबिध": 3264,
      "किटेक्": 3265,
      "्राफी": 3266,
      "▁अपने": 3267,
      "▁जिसके": 3268,
      "बंधीय": 3269,
      "▁लिहल": 3270,
      "▁मानसून": 3271,
      "▁मिलल": 3272,
      "▁मिले": 3273,
      "▁कइलस": 3274,
      "▁देखल": 3275,
      "▁here": 3276,
      "▁गुप्त": 3277,
      "▁अंग्रेज़ी": 3278,
      "ंबर": 3279,
      "पुरी": 3280,
      "म्ब": 3281,
      "▁बड़े": 3282,
      "▁सदन": 3283,
      "▁पहिल": 3284,
      "▁appro": 3285,
      "शासित": 3286,
      "▁जलोढ़": 3287,
      "▁दूस": 3288,
      "▁प्रतिशत": 3289,
      "▁middle": 3290,
      "▁किन्तु": 3291,
      "▁ब्रिट": 3292,
      "▁निर्यात": 3293,
      "▁पच्छिमी": 3294,
      "▁अउर": 3295,
      "ृष्ट": 3296,
      "▁जबकि": 3297,
      "▁विस्तृत": 3298,
      "▁घोषित": 3299,
      "▁सहयोग": 3300,
      "टिबंधीय": 3301,
      "▁सर्वोच्च": 3302,
      "▁विदेशी": 3303,
      "▁यूरोपीय": 3304,
      "▁independ": 3305,
      "▁Bharat": 3306,
      "बूत": 3307,
      "▁पठार": 3308,
      "▁आर्किटेक्": 3309,
      "▁नीचे": 3310,
      "▁समुंद्र": 3311,
      "▁डॉलर": 3312,
      "▁संबिधान": 3313,
      "▁आर्किटेक्चर": 3314,
      "/d": 3315,
      "45": 3316,
      "75": 3317,
      "The": 3318,
      "doi": 3319,
      "of": 3320,
      "rin": 3321,
      "▁ve": 3322,
      "▁times": 3323,
      "stru": 3324,
      "ices": 3325,
      "▁dist": 3326,
      "life": 3327,
      "▁Hindust": 3328,
      "▁polic": 3329,
      "amilies": 3330,
      "▁developed": 3331,
      "ridge": 3332,
      "▁estim": 3333,
      "▁remain": 3334,
      "▁upper": 3335,
      "/w": 3336,
      "49": 3337,
      "74": 3338,
      "are": 3339,
      "adi": 3340,
      "cl": 3341,
      "gy": 3342,
      "io": 3343,
      "ratic": 3344,
      "ued": 3345,
      "xim": 3346,
      "▁these": 3347,
      "▁ob": 3348,
      "▁families": 3349,
      "▁mult": 3350,
      "isl": 3351,
      "ouse": 3352,
      "▁Civil": 3353,
      "▁dances": 3354,
      "▁however": 3355,
      "econom": 3356,
      "use": 3357,
      "▁before": 3358,
      "angered": 3359,
      "umb": 3360,
      "akes": 3361,
      "▁vi": 3362,
      "▁prot": 3363,
      "▁around": 3364,
      "ricket": 3365,
      "▁trad": 3366,
      "▁traditions": 3367,
      "▁comple": 3368,
      "▁numbers": 3369,
      "▁Although": 3370,
      "▁traditional": 3371,
      "▁Islam": 3372,
      "▁estab": 3373,
      "iety": 3374,
      "emocratic": 3375,
      "mission": 3376,
      "▁oldest": 3377,
      "▁earliest": 3378,
      "▁Cambridge": 3379,
      "33": 3380,
      "700": 3381,
      "che": 3382,
      "date": 3383,
      "ject": 3384,
      "ling": 3385,
      "ped": 3386,
      "ran": 3387,
      "ti": 3388,
      "uch": 3389,
      "ంద": 3390,
      "ంప": 3391,
      "కి": 3392,
      "ఖండ": 3393,
      "తులు": 3394,
      "థిక": 3395,
      "దన": 3396,
      "ద్య": 3397,
      "ఫ్": 3398,
      "బె": 3399,
      "మన": 3400,
      "మె": 3401,
      "మై": 3402,
      "మాలు": 3403,
      "యం": 3404,
      "రీ": 3405,
      "రాలు": 3406,
      "లే": 3407,
      "వ్య": 3408,
      "వలం": 3409,
      "శ్చ": 3410,
      "శ్మ": 3411,
      "సై": 3412,
      "స్య": 3413,
      "సత్వ": 3414,
      "ాఖ": 3415,
      "ాప": 3416,
      "ూచ": 3417,
      "ూప": 3418,
      "ూర్": 3419,
      "ెహ": 3420,
      "ైగా": 3421,
      "ోర": 3422,
      "ౌద్ధ": 3423,
      "▁ఘ": 3424,
      "▁ఫ": 3425,
      "▁tem": 3426,
      "inn": 3427,
      "atak": 3428,
      "itect": 3429,
      "▁che": 3430,
      "▁aff": 3431,
      "▁work": 3432,
      "▁significant": 3433,
      "▁పద": 3434,
      "▁పి": 3435,
      "▁పొ": 3436,
      "▁పర్య": 3437,
      "▁పాత్ర": 3438,
      "▁పశ్చ": 3439,
      "▁పైగా": 3440,
      "▁flow": 3441,
      "▁further": 3442,
      "ారసత్వ": 3443,
      "ాలీ": 3444,
      "ాలకు": 3445,
      "ాలతో": 3446,
      "▁క్య": 3447,
      "▁empire": 3448,
      "▁వహ": 3449,
      "▁వై": 3450,
      "▁వంట": 3451,
      "▁వంటి": 3452,
      "▁వారసత్వ": 3453,
      "్యాయ": 3454,
      "్యులు": 3455,
      "▁మే": 3456,
      "న్ఫ": 3457,
      "న్మ": 3458,
      "ilt": 3459,
      "దినాలు": 3460,
      "▁name": 3461,
      "ర్ల": 3462,
      "ర్కొ": 3463,
      "▁Me": 3464,
      "▁రకాల": 3465,
      "ికత": 3466,
      "▁అవ": 3467,
      "▁అని": 3468,
      "ాయక": 3469,
      "ాయు": 3470,
      "ాతి": 3471,
      "కుంట": 3472,
      "▁ఇవ": 3473,
      "▁ఇన్ఫ": 3474,
      "ortant": 3475,
      "▁ఆక్రమ": 3476,
      "▁ఆఫ్": 3477,
      "▁ann": 3478,
      "▁నాలు": 3479,
      "▁న్యాయ": 3480,
      "▁సంక": 3481,
      "▁సంఘ": 3482,
      "▁సంప్రదాయ": 3483,
      "▁బౌద్ధ": 3484,
      "టిలో": 3485,
      "ములో": 3486,
      "▁vari": 3487,
      "▁గో": 3488,
      "ంటే": 3489,
      "క్షరా": 3490,
      "▁హిమ": 3491,
      "▁spread": 3492,
      "స్థాన్": 3493,
      "▁plain": 3494,
      "ంచి": 3495,
      "▁దేశానికి": 3496,
      "▁దేశాలలో": 3497,
      "▁నిర్": 3498,
      "▁లోని": 3499,
      "▁లోక్": 3500,
      "▁రైళ్ల": 3501,
      "▁రాష్ట్రాల": 3502,
      "rica": 3503,
      "మైనది": 3504,
      "▁లే": 3505,
      "▁లక్ష": 3506,
      "టుంబ": 3507,
      "▁ముంబ": 3508,
      "actbook": 3509,
      "▁కాశ్మ": 3510,
      "▁consid": 3511,
      "▁held": 3512,
      "గువ": 3513,
      "డ్డు": 3514,
      "▁కోట్ల": 3515,
      "▁చెందిన": 3516,
      "▁చెందు": 3517,
      "▁భారతదేశంలోని": 3518,
      "▁కేవలం": 3519,
      "▁వచ్చిన": 3520,
      "▁కుటుంబ": 3521,
      "▁ఆర్థిక": 3522,
      "▁All": 3523,
      "▁రాజ్యాలు": 3524,
      "▁స్థానంలో": 3525,
      "▁దక్షిణా": 3526,
      "ష్ణ": 3527,
      "▁record": 3528,
      "▁ప్రభుత్వం": 3529,
      "▁సాంప్రదాయ": 3530,
      "బడిన": 3531,
      "▁పరంగా": 3532,
      "▁కలిగి": 3533,
      "▁leading": 3534,
      "▁Plateau": 3535,
      "▁పాక్": 3536,
      "▁స్వతంత్ర": 3537,
      "ుకోవడ": 3538,
      "▁దక్షిణాన": 3539,
      "▁ద్వీ": 3540,
      "▁పాకిస్తాన్": 3541,
      "▁పాకిస్థాన్": 3542,
      "లామ": 3543,
      "▁మాత్రం": 3544,
      "▁సంస్కృతి": 3545,
      "▁సంగీతం": 3546,
      "ిత్రక": 3547,
      "▁శాస్త్రం": 3548,
      "▁సినిమా": 3549,
      "▁డాల": 3550,
      "▁ఢిల్లీ": 3551,
      "▁మూడు": 3552,
      "▁ఆధార": 3553,
      "▁నడిపించ": 3554,
      "▁బ్రిటి": 3555,
      "▁బెంగాలీ": 3556,
      "▁సామ్రా": 3557,
      "ాబాద్": 3558,
      "ప్పటికీ": 3559,
      "▁జాబితా": 3560,
      "▁birth": 3561,
      "▁small": 3562,
      "▁village": 3563,
      "▁Africa": 3564,
      "▁సర్వీ": 3565,
      "స్వామ్య": 3566,
      "▁రోడ్డు": 3567,
      "▁ప్రధానమంత్రి": 3568,
      "▁వెబ్సై": 3569,
      "▁approxim": 3570,
      "స్యత": 3571,
      "▁పశ్చిమ": 3572,
      "క్షరాస్యత": 3573,
      "▁హిమాల": 3574,
      "▁చెందుతున్న": 3575,
      "(c": 3576,
      "81": 3577,
      "83": 3578,
      "900": 3579,
      "ared": 3580,
      "ely": 3581,
      "p://": 3582,
      "uk": 3583,
      "▁civil": 3584,
      "orm": 3585,
      "▁sing": 3586,
      "▁sim": 3587,
      "▁pan": 3588,
      "▁pract": 3589,
      "ional": 3590,
      "ingly": 3591,
      "▁eth": 3592,
      "ett": 3593,
      "cept": 3594,
      "▁Par": 3595,
      "utra": 3596,
      "iron": 3597,
      "▁thought": 3598,
      "▁Nuclear": 3599,
      "▁Nico": 3600,
      "http://": 3601,
      "ability": 3602,
      "▁Fore": 3603,
      "▁until": 3604,
      "anted": 3605,
      "iving": 3606,
      "▁changes": 3607,
      "▁partition": 3608,
      "▁Valley": 3609,
      "ineering": 3610,
      "▁formed": 3611,
      "▁endangered": 3612,
      "igned": 3613,
      "▁growing": 3614,
      "▁update": 3615,
      "odiversity": 3616,
      "▁Islands": 3617,
      "▁leader": 3618,
      "▁Jainism": 3619,
      "▁influenced": 3620,
      "▁figures": 3621,
      "▁school": 3622,
      "▁known": 3623,
      "ingdoms": 3624,
      "▁approximately": 3625,
      "▁Nicobar": 3626,
      "\"India": 3627,
      "-आ": 3628,
      "-ब": 3629,
      "-म": 3630,
      "ax": 3631,
      "lad": 3632,
      "van": 3633,
      "ंह": 3634,
      "काज": 3635,
      "खी": 3636,
      "खंड": 3637,
      "ची": 3638,
      "जो": 3639,
      "जूद": 3640,
      "डु": 3641,
      "धाय": 3642,
      "नत": 3643,
      "पि": 3644,
      "पात": 3645,
      "फ़": 3646,
      "बो": 3647,
      "भाष": 3648,
      "यन": 3649,
      "ये": 3650,
      "लू": 3651,
      "वर": 3652,
      "वर्": 3653,
      "शा": 3654,
      "हते": 3655,
      "िरा": 3656,
      "ीव": 3657,
      "ीति": 3658,
      "ीक्षण": 3659,
      "ुक्त": 3660,
      "ूट": 3661,
      "ूह": 3662,
      "ेप": 3663,
      "ैर": 3664,
      "ोसी": 3665,
      "१८": 3666,
      "▁ऐ": 3667,
      "▁झ": 3668,
      "▁किस": 3669,
      "▁technology": 3670,
      "iness": 3671,
      "▁सुरुआत": 3672,
      "▁मल": 3673,
      "▁मस": 3674,
      "▁मौर": 3675,
      "▁मंदिर": 3676,
      "ार्म": 3677,
      "ened": 3678,
      "▁पी": 3679,
      "▁पहु": 3680,
      "▁पैद": 3681,
      "▁पेट": 3682,
      "arh": 3683,
      "्रोल": 3684,
      "▁भाजपा": 3685,
      "▁बिक": 3686,
      "▁बनी": 3687,
      "▁बनावल": 3688,
      "▁west": 3689,
      "▁worn": 3690,
      "▁sari": 3691,
      "esc": 3692,
      "▁fast": 3693,
      "▁five": 3694,
      "▁जम": 3695,
      "▁जै": 3696,
      "▁जैन": 3697,
      "▁जाना": 3698,
      "▁जवना": 3699,
      "▁आंद": 3700,
      "▁अध": 3701,
      "▁अंतर": 3702,
      "ase": 3703,
      "▁दस": 3704,
      "▁दुस": 3705,
      "▁दृष्ट": 3706,
      "▁रिप": 3707,
      "▁नम": 3708,
      "िकेट": 3709,
      "▁वाल": 3710,
      "▁वीं": 3711,
      "▁Tem": 3712,
      "▁every": 3713,
      "▁लिया": 3714,
      "▁लड़ा": 3715,
      "ियम": 3716,
      "्तेम": 3717,
      "्तनत": 3718,
      "▁Southeast": 3719,
      "▁गए": 3720,
      "▁गैर": 3721,
      "▁तेल": 3722,
      "▁history": 3723,
      "ाजन": 3724,
      "▁resp": 3725,
      "ami": 3726,
      "▁पर्य": 3727,
      "▁परभाव": 3728,
      "▁परीक्षण": 3729,
      "▁उन्": 3730,
      "▁उष्ण": 3731,
      "▁इस्": 3732,
      "▁काफी": 3733,
      "▁श्र": 3734,
      "▁शक्त": 3735,
      "▁शाम": 3736,
      "▁शुरू": 3737,
      "▁शिक्ष": 3738,
      "usiness": 3739,
      "ासा": 3740,
      "astri": 3741,
      "लाव": 3742,
      "▁Dal": 3743,
      "emb": 3744,
      "▁होल": 3745,
      "▁होते": 3746,
      "▁करता": 3747,
      "▁range": 3748,
      "▁conduct": 3749,
      "ays": 3750,
      "▁str": 3751,
      "▁sum": 3752,
      "स्थान": 3753,
      "▁अनेक": 3754,
      "▁Keral": 3755,
      "oci": 3756,
      "▁area": 3757,
      "वाँ": 3758,
      "▁उत्": 3759,
      "▁नाटक": 3760,
      "▁vast": 3761,
      "▁इसकी": 3762,
      "▁इस्तेम": 3763,
      "िन्न": 3764,
      "aputra": 3765,
      "▁जाए": 3766,
      "▁Langu": 3767,
      "▁फिर": 3768,
      "▁फ्रा": 3769,
      "्रेणी": 3770,
      "भाग": 3771,
      "▁शास्त्र": 3772,
      "▁plate": 3773,
      "▁प्राय": 3774,
      "▁addition": 3775,
      "१९५": 3776,
      "१९६": 3777,
      "▁kingdoms": 3778,
      "▁arm": 3779,
      "▁subsequ": 3780,
      "ountries": 3781,
      "▁again": 3782,
      "ब्लिक": 3783,
      "▁ट्राफी": 3784,
      "▁छोट": 3785,
      "▁पूर्वी": 3786,
      "ध्यम": 3787,
      "▁मिलियन": 3788,
      "▁पुरुष": 3789,
      "▁लोकसभा": 3790,
      "▁एशियाई": 3791,
      "▁मध्यकाल": 3792,
      "▁बनल": 3793,
      "▁बनाने": 3794,
      "▁क्रिकेट": 3795,
      "▁बड़हन": 3796,
      "▁पहि": 3797,
      "्रीका": 3798,
      "▁विकसित": 3799,
      "▁कार्यकाल": 3800,
      "द्योगिकी": 3801,
      "रुप": 3802,
      "▁कामकाज": 3803,
      "▁स्थिति": 3804,
      "▁जीवन": 3805,
      "▁जीडीपी": 3806,
      "▁अमरी": 3807,
      "▁आयात": 3808,
      "▁अभी": 3809,
      "▁असम": 3810,
      "▁बदल": 3811,
      "▁नियर": 3812,
      "undament": 3813,
      "▁हिन्दू": 3814,
      "▁भागी": 3815,
      "▁court": 3816,
      "▁courts": 3817,
      "▁surv": 3818,
      "▁ढेर": 3819,
      "▁पैमान": 3820,
      "▁अउरी": 3821,
      "▁माध्यम": 3822,
      "▁पड़ोसी": 3823,
      "▁टेली": 3824,
      "▁gradu": 3825,
      "▁उपमहाद्वीप": 3826,
      "▁विभिन्न": 3827,
      "▁coalition": 3828,
      "▁Arab": 3829,
      "पेक्ष": 3830,
      "२०१": 3831,
      "▁legisl": 3832,
      "▁liber": 3833,
      "▁sculpture": 3834,
      "▁ऋतु": 3835,
      "▁जानल": 3836,
      "▁अफ्रीका": 3837,
      "▁समर्थन": 3838,
      "▁Modern": 3839,
      "▁executive": 3840,
      "▁different": 3841,
      "▁सल्तनत": 3842,
      "▁मंत्रिम": 3843,
      "▁तुलना": 3844,
      "▁सांस्कृतिक": 3845,
      "▁ब्रिटिश": 3846,
      "ladesh": 3847,
      "धायिका": 3848,
      "▁मौर्य": 3849,
      "▁पहुँच": 3850,
      "▁पैदा": 3851,
      "▁आंदोलन": 3852,
      "▁इस्ला": 3853,
      "▁शामिल": 3854,
      "▁शिक्षा": 3855,
      "▁Kerala": 3856,
      "▁इस्तेमाल": 3857,
      "42": 3858,
      "63": 3859,
      "76": 3860,
      "air": 3861,
      "rish": 3862,
      "▁qu": 3863,
      "reme": 3864,
      "ency": 3865,
      "▁can": 3866,
      "orter": 3867,
      "▁sector": 3868,
      "esert": 3869,
      "▁bord": 3870,
      "asia": 3871,
      "▁Mad": 3872,
      "ute": 3873,
      "uted": 3874,
      "other": 3875,
      "ources": 3876,
      "ival": 3877,
      "avi": 3878,
      "harm": 3879,
      "ological": 3880,
      "▁Constit": 3881,
      "▁result": 3882,
      "▁just": 3883,
      "▁European": 3884,
      ".html": 3885,
      "embly": 3886,
      "/news": 3887,
      "62": 3888,
      "94": 3889,
      "yp": 3890,
      "ones": 3891,
      "arg": 3892,
      "▁intro": 3893,
      "▁doi": 3894,
      "▁Sing": 3895,
      "utical": 3896,
      "▁Gree": 3897,
      "ott": 3898,
      "aking": 3899,
      "▁Ur": 3900,
      "▁Factbook": 3901,
      "aper": 3902,
      "aving": 3903,
      "ffect": 3904,
      "soon": 3905,
      "▁Ancient": 3906,
      "▁religion": 3907,
      "rent": 3908,
      "▁about": 3909,
      "aceutical": 3910,
      "genous": 3911,
      "▁directly": 3912,
      "urned": 3913,
      "▁Assembly": 3914,
      "undamental": 3915,
      "harmaceutical": 3916,
      "-k": 3917,
      "/f": 3918,
      "32": 3919,
      "82": 3920,
      "bot": 3921,
      "eated": 3922,
      "ls": 3923,
      "nd": 3924,
      "tou": 3925,
      "yan": 3926,
      "one": 3927,
      "albot": 3928,
      "its": 3929,
      "anding": 3930,
      "▁called": 3931,
      "orks": 3932,
      "▁writ": 3933,
      "▁would": 3934,
      "▁pa": 3935,
      "▁femal": 3936,
      "▁lim": 3937,
      "▁lik": 3938,
      "▁equ": 3939,
      "▁Sp": 3940,
      "▁Sri": 3941,
      "▁nat": 3942,
      "olence": 3943,
      "racy": 3944,
      "▁Man": 3945,
      "▁Mal": 3946,
      "▁March": 3947,
      "▁Pol": 3948,
      "ada": 3949,
      "▁Dra": 3950,
      "iddle": 3951,
      "anged": 3952,
      "abad": 3953,
      "▁Krish": 3954,
      "▁War": 3955,
      "▁vis": 3956,
      "▁att": 3957,
      "▁char": 3958,
      "opulation": 3959,
      "▁consum": 3960,
      "▁others": 3961,
      "▁use": 3962,
      "emocracy": 3963,
      "vided": 3964,
      "▁mathematics": 3965,
      "▁Bangladesh": 3966,
      "▁indigenous": 3967,
      "▁Singh": 3968,
      "touch": 3969,
      "(A": 3970,
      "-e": 3971,
      "/in": 3972,
      "517": 3973,
      "93": 3974,
      "HO": 3975,
      "IN": 3976,
      "ded": 3977,
      "ii": 3978,
      "man": 3979,
      "ues": 3980,
      "div": 3981,
      "▁cult": 3982,
      "▁capit": 3983,
      "▁six": 3984,
      "▁pil": 3985,
      "▁pred": 3986,
      "▁fundamental": 3987,
      "▁lay": 3988,
      "▁Thar": 3989,
      "▁At": 3990,
      "190": 3991,
      "▁do": 3992,
      "▁der": 3993,
      "▁ret": 3994,
      "▁Mani": 3995,
      "▁global": 3996,
      "ably": 3997,
      "▁exch": 3998,
      "▁On": 3999,
      "▁Chand": 4000,
      "140": 4001,
      "cience": 4002,
      "▁Ste": 4003,
      "▁Maury": 4004,
      "▁script": 4005,
      "▁Gupta": 4006,
      "▁foreign": 4007,
      "arnatak": 4008,
      "ledge": 4009,
      "vention": 4010,
      "▁enact": 4011,
      "▁important": 4012,
      "▁built": 4013,
      "▁features": 4014,
      "▁veget": 4015,
      "umbai": 4016,
      "itecture": 4017,
      "-B": 4018,
      "-ग": 4019,
      "-व": 4020,
      "/c": 4021,
      "04": 4022,
      "cer": 4023,
      "ched": 4024,
      "dus": 4025,
      "ez": 4026,
      "equ": 4027,
      "sar": 4028,
      "ंदी": 4029,
      "ंका": 4030,
      "खर": 4031,
      "गा": 4032,
      "गढ़": 4033,
      "चा": 4034,
      "चि": 4035,
      "चे": 4036,
      "चान": 4037,
      "चला": 4038,
      "जन": 4039,
      "जबूत": 4040,
      "टल": 4041,
      "णाली": 4042,
      "नै": 4043,
      "फा": 4044,
      "भर": 4045,
      "यक": 4046,
      "यास": 4047,
      "वें": 4048,
      "व्य": 4049,
      "वेश": 4050,
      "वर्ष": 4051,
      "सम": 4052,
      "हि": 4053,
      "हू": 4054,
      "हना": 4055,
      "ाई": 4056,
      "ीकरण": 4057,
      "ुक": 4058,
      "ुन्": 4059,
      "ूबर": 4060,
      "ोह": 4061,
      "ोटे": 4062,
      "ोर्ट": 4063,
      "ौह": 4064,
      "ौद्योगिकी": 4065,
      "्ल": 4066,
      "्ला": 4067,
      "१५": 4068,
      "२४": 4069,
      "▁Q": 4070,
      "▁कान": 4071,
      "▁कथा": 4072,
      "▁कहल": 4073,
      "▁किये": 4074,
      "▁कन्न": 4075,
      "▁कृष": 4076,
      "▁कहते": 4077,
      "▁सहा": 4078,
      "▁सिन्": 4079,
      "▁मत": 4080,
      "▁मश": 4081,
      "▁मे": 4082,
      "▁मात": 4083,
      "▁मरा": 4084,
      "▁मील": 4085,
      "▁मजबूत": 4086,
      "▁केवल": 4087,
      "ारे": 4088,
      "ाराष्ट्र": 4089,
      "sted": 4090,
      "▁पास": 4091,
      "aries": 4092,
      "्राष्ट्रीय": 4093,
      "▁II": 4094,
      "▁हाल": 4095,
      "▁हस्त": 4096,
      "▁हत्या": 4097,
      "▁भोज": 4098,
      "▁भक्ति": 4099,
      "▁बीस": 4100,
      "▁ब्यापार": 4101,
      "▁International": 4102,
      "▁creat": 4103,
      "▁invol": 4104,
      "▁public": 4105,
      "▁body": 4106,
      "▁fest": 4107,
      "▁जग": 4108,
      "▁जून": 4109,
      "▁makes": 4110,
      "▁आई": 4111,
      "▁आठ": 4112,
      "▁आस": 4113,
      "▁आइल": 4114,
      "▁अर": 4115,
      "▁अला": 4116,
      "▁अक्ट": 4117,
      "▁दिव": 4118,
      "▁रख": 4119,
      "▁रा": 4120,
      "▁रो": 4121,
      "▁निम": 4122,
      "▁नया": 4123,
      "▁नृत": 4124,
      "र्द": 4125,
      "▁वास": 4126,
      "▁Tel": 4127,
      "ालर": 4128,
      "▁eight": 4129,
      "▁took": 4130,
      "ियत": 4131,
      "▁Col": 4132,
      "▁Country": 4133,
      "▁प्रग": 4134,
      "▁प्रत": 4135,
      "▁प्रसार": 4136,
      "▁प्रणाली": 4137,
      "▁प्रयास": 4138,
      "▁प्रौद्योगिकी": 4139,
      "▁ते": 4140,
      "▁तो": 4141,
      "▁तेज": 4142,
      "iles": 4143,
      "▁reduced": 4144,
      "etw": 4145,
      "eter": 4146,
      "ola": 4147,
      "olid": 4148,
      "▁Mumbai": 4149,
      "▁परब": 4150,
      "▁परिण": 4151,
      "▁उभ": 4152,
      "▁संर": 4153,
      "नाडु": 4154,
      "▁शा": 4155,
      "▁शहर": 4156,
      "▁शक्ति": 4157,
      "ताब": 4158,
      "ित्र": 4159,
      "ियां": 4160,
      "uscript": 4161,
      "ades": 4162,
      "▁सागर": 4163,
      "igh": 4164,
      "▁Di": 4165,
      "▁Dance": 4166,
      "▁राजधान": 4167,
      "▁राजस्थान": 4168,
      "▁राजनै": 4169,
      "▁योग": 4170,
      "▁However": 4171,
      "▁Gond": 4172,
      "▁Ghat": 4173,
      "▁Non": 4174,
      "▁Nep": 4175,
      "▁being": 4176,
      "▁करते": 4177,
      "ेशिया": 4178,
      "duction": 4179,
      "▁एकरा": 4180,
      "▁कोई": 4181,
      "▁कोर्ट": 4182,
      "क्षर": 4183,
      "क्षेत्र": 4184,
      "▁विमान": 4185,
      "▁ste": 4186,
      "ables": 4187,
      "कारणी": 4188,
      "▁अन्तर": 4189,
      "elf": 4190,
      "▁Utt": 4191,
      "▁राज्यन": 4192,
      "▁राज्यसभा": 4193,
      "lied": 4194,
      "liance": 4195,
      "ured": 4196,
      "▁For": 4197,
      "overty": 4198,
      "ंत्रिक": 4199,
      "▁लोगों": 4200,
      "▁Or": 4201,
      "▁पूरु": 4202,
      "anta": 4203,
      "▁फिल": 4204,
      "▁सामान": 4205,
      "▁process": 4206,
      "्पा": 4207,
      "▁सरकारें": 4208,
      "hip": 4209,
      "▁पापु": 4210,
      "▁भाषाएँ": 4211,
      "्मक": 4212,
      "▁relations": 4213,
      "ुस्त": 4214,
      "ified": 4215,
      "medi": 4216,
      "▁ओह": 4217,
      "▁जिसका": 4218,
      "▁महासा": 4219,
      "▁महाराष्ट्र": 4220,
      "▁decades": 4221,
      "हरण": 4222,
      "▁अधिकां": 4223,
      "▁मानल": 4224,
      "▁मानव": 4225,
      "▁माना": 4226,
      "▁संघीय": 4227,
      "▁संघर्ष": 4228,
      "▁निर्भर": 4229,
      "▁डालर": 4230,
      "▁मुस्लिम": 4231,
      "▁भूगोल": 4232,
      "▁meat": 4233,
      "▁सिख": 4234,
      "▁सिंह": 4235,
      "▁मुखिया": 4236,
      "▁लोकप्र": 4237,
      "▁संगम": 4238,
      "▁show": 4239,
      "oods": 4240,
      "दाय": 4241,
      "▁दक्खिनी": 4242,
      "▁क्रम": 4243,
      "▁क्रय": 4244,
      "ष्ठ": 4245,
      "▁बनाई": 4246,
      "▁appear": 4247,
      "ांति": 4248,
      "▁सीधे": 4249,
      "्रीम": 4250,
      "▁हिंदी": 4251,
      "▁कार्यकारणी": 4252,
      "▁तमिलनाडु": 4253,
      "▁extant": 4254,
      "▁extens": 4255,
      "▁कपड़ा": 4256,
      "▁बदलाव": 4257,
      "▁उनके": 4258,
      "▁चलन": 4259,
      "▁इनहन": 4260,
      "▁टीवी": 4261,
      "▁उत्पादन": 4262,
      "त्ति": 4263,
      "▁agricultural": 4264,
      "▁style": 4265,
      "त्न": 4266,
      "▁आगे": 4267,
      "▁आगमन": 4268,
      "▁आपन": 4269,
      "▁विस्तार": 4270,
      "▁घोषणा": 4271,
      "▁विकासशील": 4272,
      "▁cooked": 4273,
      "▁cooking": 4274,
      "▁influences": 4275,
      "▁पर्वत": 4276,
      "▁रही": 4277,
      "▁प्रभावित": 4278,
      "▁उपमहादीप": 4279,
      "▁greater": 4280,
      "▁हाकी": 4281,
      "▁महत्वपूर्ण": 4282,
      "▁status": 4283,
      "▁जालें": 4284,
      "▁नदियाँ": 4285,
      "▁प्रचलित": 4286,
      "▁घाटी": 4287,
      "▁continued": 4288,
      "▁elites": 4289,
      "▁रूस": 4290,
      "▁रेग": 4291,
      "▁खेती": 4292,
      "▁अमेरिका": 4293,
      "▁commercial": 4294,
      "▁कश्मीर": 4295,
      "▁जइसे": 4296,
      "▁उसके": 4297,
      "▁समाप्त": 4298,
      "▁पहिले": 4299,
      "▁recorded": 4300,
      "▁झार": 4301,
      "▁पेट्रोल": 4302,
      "▁दुसरा": 4303,
      "▁दृष्टि": 4304,
      "▁फ्रांस": 4305,
      "▁भागीदारी": 4306,
      "▁टेलीवि": 4307,
      "▁Krishna": 4308,
      "▁enacted": 4309,
      "▁मराठ": 4310,
      "▁अलावा": 4311,
      "▁अक्टूबर": 4312,
      "▁परिणाम": 4313,
      "▁राजधानी": 4314,
      "▁राजनैतिक": 4315,
      "▁Ghats": 4316,
      "▁Uttar": 4317,
      "▁पूरुब": 4318,
      "▁पापुलर": 4319,
      "▁महासागर": 4320,
      "▁अधिकांश": 4321,
      "▁लोकप्रिय": 4322,
      "▁पेट्रोलियम": 4323,
      "\"A": 4324,
      "(B": 4325,
      "(వ": 4326,
      "-n": 4327,
      "-st": 4328,
      "-to": 4329,
      "59": 4330,
      "79": 4331,
      "97": 4332,
      "ISBN": 4333,
      "Metcalf": 4334,
      "af": 4335,
      "aist": 4336,
      "cul": 4337,
      "eign": 4338,
      "eval": 4339,
      "garh": 4340,
      "has": 4341,
      "lished": 4342,
      "put": 4343,
      "uent": 4344,
      "viron": 4345,
      "yn": 4346,
      "కో": 4347,
      "గణ": 4348,
      "జాలు": 4349,
      "టులు": 4350,
      "డిన": 4351,
      "తీ": 4352,
      "తూ": 4353,
      "తము": 4354,
      "దటి": 4355,
      "దరణ": 4356,
      "నలో": 4357,
      "నది": 4358,
      "పై": 4359,
      "పిక్": 4360,
      "బంధ": 4361,
      "బడ్డ": 4362,
      "మొ": 4363,
      "మాన": 4364,
      "మతి": 4365,
      "మించ": 4366,
      "యింది": 4367,
      "యాలో": 4368,
      "రత": 4369,
      "రే": 4370,
      "లీ": 4371,
      "లిం": 4372,
      "లాలు": 4373,
      "ళి": 4374,
      "ళ్": 4375,
      "ళిక": 4376,
      "వులు": 4377,
      "శీ": 4378,
      "శ్ర": 4379,
      "షన్": 4380,
      "సీ": 4381,
      "సిం": 4382,
      "సులు": 4383,
      "సింది": 4384,
      "ాంగ": 4385,
      "ాదా": 4386,
      "ీఠ": 4387,
      "ీలో": 4388,
      "ీటిలో": 4389,
      "ున్న": 4390,
      "ూరు": 4391,
      "ెట్": 4392,
      "ెనీ": 4393,
      "ెనుక": 4394,
      "▁తి": 4395,
      "▁eng": 4396,
      "▁test": 4397,
      "▁tax": 4398,
      "ining": 4399,
      "hest": 4400,
      "alw": 4401,
      "dieval": 4402,
      "itics": 4403,
      "▁wear": 4404,
      "▁waist": 4405,
      "▁pur": 4406,
      "▁pharmaceutical": 4407,
      "▁పార్": 4408,
      "▁పంచ": 4409,
      "▁పీఠ": 4410,
      "్రీయ": 4411,
      "ica": 4412,
      "▁Indira": 4413,
      "▁bro": 4414,
      "▁fish": 4415,
      "ారా": 4416,
      "ారిత్రక": 4417,
      "ాలా": 4418,
      "ాలనే": 4419,
      "ాలెండ": 4420,
      "▁సహ": 4421,
      "▁సార": 4422,
      "▁స్ట": 4423,
      "▁సైన": 4424,
      "▁సార్": 4425,
      "▁సముద్ర": 4426,
      "▁సూచ": 4427,
      "▁Tib": 4428,
      "▁Ak": 4429,
      "▁కథ": 4430,
      "▁కల": 4431,
      "▁కి": 4432,
      "▁కన్న": 4433,
      "▁కింద": 4434,
      "▁కంప": 4435,
      "▁ep": 4436,
      "rial": 4437,
      "▁వల": 4438,
      "▁వీటిలో": 4439,
      "▁Carn": 4440,
      "▁భౌ": 4441,
      "▁భిన్న": 4442,
      "▁మా": 4443,
      "▁మీ": 4444,
      "▁మై": 4445,
      "▁మౌ": 4446,
      "▁మంది": 4447,
      "▁renew": 4448,
      "▁relief": 4449,
      "▁nomin": 4450,
      "దేశీ": 4451,
      "ర్చ": 4452,
      "ర్జ": 4453,
      "ర్త": 4454,
      "ర్ష": 4455,
      "ర్మే": 4456,
      "▁Their": 4457,
      "▁Many": 4458,
      "▁Minist": 4459,
      "స్లామ": 4460,
      "▁రి": 4461,
      "▁రే": 4462,
      "▁ప్రారం": 4463,
      "▁ప్రదేశ్": 4464,
      "▁అహ": 4465,
      "▁ఉండ": 4466,
      "నిస్తాన్": 4467,
      "▁Dem": 4468,
      "క్తి": 4469,
      "క్నాల": 4470,
      "▁Ro": 4471,
      "▁జరు": 4472,
      "▁జంబ": 4473,
      "▁జమ్మ": 4474,
      "▁జన్మ": 4475,
      "▁చి": 4476,
      "▁చారిత్రక": 4477,
      "▁చాలా": 4478,
      "resent": 4479,
      "ాతం": 4480,
      "ాతో": 4481,
      "▁below": 4482,
      "కులు": 4483,
      "▁ఇవి": 4484,
      "▁ఇక్క": 4485,
      "▁ఇంగ్ల": 4486,
      "▁ఇస్లామ": 4487,
      "నులు": 4488,
      "ినీ": 4489,
      "ల్లు": 4490,
      "త్త": 4491,
      "▁external": 4492,
      "▁ఆహ": 4493,
      "▁animal": 4494,
      "▁diverse": 4495,
      "▁నృ": 4496,
      "▁Karnatak": 4497,
      "▁తూర్": 4498,
      "▁సంబంధ": 4499,
      "▁బంగ్ల": 4500,
      "▁విద్య": 4501,
      "▁విదేశీ": 4502,
      "రుష": 4503,
      "▁Feb": 4504,
      "ముఖ్య": 4505,
      "▁Asher": 4506,
      "overeign": 4507,
      "▁గణ": 4508,
      "విధ్య": 4509,
      "విస్తారు": 4510,
      "▁శ్రీ": 4511,
      "▁శెల": 4512,
      "▁centre": 4513,
      "▁దీ": 4514,
      "▁దాదా": 4515,
      "క్షం": 4516,
      "188": 4517,
      "▁హై": 4518,
      "ously": 4519,
      "ameez": 4520,
      "▁Va": 4521,
      "ruary": 4522,
      "ffic": 4523,
      "▁place": 4524,
      "▁కూడుకు": 4525,
      "ట్టమొ": 4526,
      "తరాలు": 4527,
      "ద్ధం": 4528,
      "▁adop": 4529,
      "▁దేశంగా": 4530,
      "▁భాగం": 4531,
      "▁రాజు": 4532,
      "లిచ": 4533,
      "▁వ్యాప": 4534,
      "▁పేర్కొ": 4535,
      "▁మొట్టమొ": 4536,
      "▁decla": 4537,
      "▁exports": 4538,
      "▁ఒకే": 4539,
      "త్యం": 4540,
      "పాదన": 4541,
      "▁consolid": 4542,
      "▁head": 4543,
      "తుంది": 4544,
      "▁ఎన్నిక": 4545,
      "భాగం": 4546,
      "స్తున్న": 4547,
      "▁హిందీ": 4548,
      "▁వ్యవస్థలో": 4549,
      "▁మతాలు": 4550,
      "▁ప్రజల": 4551,
      "▁ప్రజలు": 4552,
      "▁శాఖ": 4553,
      "▁serv": 4554,
      "-dram": 4555,
      "▁Sea": 4556,
      "ుకొ": 4557,
      "▁జనాభ": 4558,
      "▁రాజ్యాంగ": 4559,
      "▁స్థానం": 4560,
      "vidian": 4561,
      "▁నుంచి": 4562,
      "▁secular": 4563,
      "▁పురుష": 4564,
      "▁హిందూదేశం": 4565,
      "▁highest": 4566,
      "గరికత": 4567,
      "ుకుంట": 4568,
      "▁టై": 4569,
      "▁వాణి": 4570,
      "▁వేల": 4571,
      "▁సాంస్కృ": 4572,
      "▁traditionally": 4573,
      "▁influence": 4574,
      "బడింది": 4575,
      "మేన": 4576,
      "ారిగా": 4577,
      "▁కలిసి": 4578,
      "▁ఉంటుంది": 4579,
      "▁క్రీడలు": 4580,
      "▁ఉత్తరాన": 4581,
      "▁తరువాతి": 4582,
      "▁rights": 4583,
      "▁కొన్ని": 4584,
      "▁ఉపఖండ": 4585,
      "▁producer": 4586,
      "▁సాధించ": 4587,
      "▁ద్వారా": 4588,
      "▁tea": 4589,
      "ంధీ": 4590,
      "ెలుగు": 4591,
      "▁ప్రతిపాదన": 4592,
      "▁జనగణ": 4593,
      "▁చేసింది": 4594,
      "▁శాస్త్రీయ": 4595,
      "▁సినిమాలు": 4596,
      "▁ఏర్పడ్డ": 4597,
      "▁సరిహద్దుగా": 4598,
      "ంకా": 4599,
      "▁పతకాలు": 4600,
      "▁సమాఖ్య": 4601,
      "▁మనదేశం": 4602,
      "▁నాగరికత": 4603,
      "▁నగరాలు": 4604,
      "▁గుర్త": 4605,
      "▁ఒకటిగా": 4606,
      "▁ప్రజాస్వామ్య": 4607,
      "▁ప్రజాదరణ": 4608,
      "▁మొదలైన": 4609,
      "▁పట్టణాలు": 4610,
      "▁బహుళ": 4611,
      "▁సింధు": 4612,
      "▁Brahmaputra": 4613,
      "▁texts": 4614,
      "▁crust": 4615,
      "వచ్చు": 4616,
      "▁గాంధీ": 4617,
      "▁పద్ధతి": 4618,
      "▁పండుగలు": 4619,
      "▁తమిళం": 4620,
      "▁విభిన్న": 4621,
      "▁కోర్టు": 4622,
      "▁టెక్నాల": 4623,
      "▁కార్యక్రమ": 4624,
      "▁పరిశ్రమలు": 4625,
      "▁స్వాతంత్ర్య": 4626,
      "▁నిర్వహణ": 4627,
      "▁commonly": 4628,
      "(eds": 4629,
      "▁estimated": 4630,
      "▁established": 4631,
      "వ్యవస్థ": 4632,
      "▁పొందిన": 4633,
      "▁క్యాలెండ": 4634,
      "▁వైవిధ్య": 4635,
      "▁ఇన్ఫర్మే": 4636,
      "▁ఆఫ్ఘ": 4637,
      "▁నాలుగు": 4638,
      "▁సంకీర్ణ": 4639,
      "▁సంప్రదాయాలు": 4640,
      "▁రైళ్లను": 4641,
      "▁లేదా": 4642,
      "▁ముంబై": 4643,
      "▁కాశ్మీ": 4644,
      "▁దక్షిణాసియా": 4645,
      "▁సాంప్రదాయిక": 4646,
      "▁ద్వీప": 4647,
      "▁డాలర్లు": 4648,
      "▁సర్వీసులు": 4649,
      "▁వెబ్సైటు": 4650,
      "▁single": 4651,
      "▁Temple": 4652,
      "▁conducted": 4653,
      "▁summer": 4654,
      "▁resulting": 4655,
      "▁Dravidian": 4656,
      "mediately": 4657,
      "vironment": 4658,
      "ళ్ళ": 4659,
      "ెనుకటి": 4660,
      "▁Tibet": 4661,
      "▁కన్నడ": 4662,
      "▁కంపెనీ": 4663,
      "▁Carnatic": 4664,
      "▁ప్రారంభ": 4665,
      "▁జరుపు": 4666,
      "▁జంబూ": 4667,
      "▁జమ్మూ": 4668,
      "▁ఇస్లామాబాద్": 4669,
      "▁Karnataka": 4670,
      "▁తూర్పు": 4671,
      "▁బంగ్లా": 4672,
      "▁February": 4673,
      "▁శెలవు": 4674,
      "▁దాదాపు": 4675,
      "▁మొట్టమొదటి": 4676,
      "-dramas": 4677,
      "▁వాణిజ్య": 4678,
      "▁సాంస్కృతిక": 4679,
      "▁టెక్నాలజీ": 4680,
      "▁క్యాలెండర్": 4681,
      "▁ఇన్ఫర్మేషన్": 4682,
      "\"The": 4683,
      "ahar": 4684,
      "bb": 4685,
      "ft": 4686,
      "file": 4687,
      "hn": 4688,
      "hā": 4689,
      "mun": 4690,
      "ris": 4691,
      "yson": 4692,
      "▁very": 4693,
      "ala": 4694,
      "▁fact": 4695,
      "▁mig": 4696,
      "▁today": 4697,
      "192": 4698,
      "▁Soc": 4699,
      "▁Middle": 4700,
      "verage": 4701,
      "ush": 4702,
      "▁Rout": 4703,
      "▁only": 4704,
      "ryan": 4705,
      "▁partic": 4706,
      "eneral": 4707,
      "acter": 4708,
      "250": 4709,
      "▁across": 4710,
      "▁heredit": 4711,
      "▁practices": 4712,
      "▁Languages": 4713,
      "▁Constituent": 4714,
      "▁Routledge": 4715,
      "-E": 4716,
      "-and": 4717,
      "-op": 4718,
      "54": 4719,
      "86": 4720,
      "ee": 4721,
      "lal": 4722,
      "wards": 4723,
      "°E": 4724,
      "°N": 4725,
      "▁tree": 4726,
      "onial": 4727,
      "ater": 4728,
      "▁somet": 4729,
      "▁bread": 4730,
      "▁mi": 4731,
      "▁much": 4732,
      "isher": 4733,
      "ents": 4734,
      "▁Talbot": 4735,
      "rist": 4736,
      "▁Desert": 4737,
      "▁He": 4738,
      "arty": 4739,
      "ock": 4740,
      "184": 4741,
      "170": 4742,
      "121": 4743,
      "▁report": 4744,
      "awahar": 4745,
      "▁recog": 4746,
      "hess": 4747,
      "-Aryan": 4748,
      "/articles": 4749,
      "▁independence": 4750,
      "airs": 4751,
      "▁Greek": 4752,
      "▁Stein": 4753,
      "▁engineering": 4754,
      "-operation": 4755,
      "awaharlal": 4756,
      "-P": 4757,
      "-r": 4758,
      "/s": 4759,
      "05": 4760,
      "bi": 4761,
      "back": 4762,
      "gu": 4763,
      "hand": 4764,
      "ll": 4765,
      "uis": 4766,
      "▁Z": 4767,
      "era": 4768,
      "eri": 4769,
      "▁opp": 4770,
      "araj": 4771,
      "▁could": 4772,
      "▁cultural": 4773,
      "▁institution": 4774,
      "▁siz": 4775,
      "▁pers": 4776,
      "▁poverty": 4777,
      "ick": 4778,
      "asi": 4779,
      "asp": 4780,
      "▁hy": 4781,
      "▁having": 4782,
      "ili": 4783,
      "ilar": 4784,
      "▁refor": 4785,
      "▁nation": 4786,
      "etail": 4787,
      "raven": 4788,
      "▁god": 4789,
      "▁those": 4790,
      "▁Early": 4791,
      "▁Geograph": 4792,
      "▁North": 4793,
      "▁exam": 4794,
      "▁Jamm": 4795,
      "illed": 4796,
      "▁vict": 4797,
      "▁prov": 4798,
      "ubs": 4799,
      "ganisation": 4800,
      "▁poll": 4801,
      "▁Buddha": 4802,
      "▁Mach": 4803,
      "▁lands": 4804,
      "ackb": 4805,
      "▁dishes": 4806,
      "mitted": 4807,
      "▁transmitted": 4808,
      "annica": 4809,
      "▁mathematical": 4810,
      "key": 4811,
      ".nic": 4812,
      "▁trade": 4813,
      "▁similar": 4814,
      "▁Urdu": 4815,
      "▁character": 4816,
      "fficial": 4817,
      "▁Jammu": 4818,
      "(आ": 4819,
      "(फ": 4820,
      "-उ": 4821,
      "-च": 4822,
      "-ध": 4823,
      "-न": 4824,
      "-भ": 4825,
      "07": 4826,
      "230": 4827,
      "85": 4828,
      "91": 4829,
      "ble": 4830,
      "cri": 4831,
      "census": 4832,
      "edic": 4833,
      "ham": 4834,
      "ij": 4835,
      "lac": 4836,
      "pen": 4837,
      "rat": 4838,
      "ras": 4839,
      "rought": 4840,
      "tic": 4841,
      "ंच": 4842,
      "ंश": 4843,
      "ंती": 4844,
      "कट": 4845,
      "करा": 4846,
      "कटिबंधीय": 4847,
      "खन": 4848,
      "गी": 4849,
      "ग्र": 4850,
      "गान": 4851,
      "गाल": 4852,
      "घर": 4853,
      "जा": 4854,
      "टर": 4855,
      "तपु": 4856,
      "थल": 4857,
      "द्रा": 4858,
      "धन": 4859,
      "धित": 4860,
      "नियों": 4861,
      "पन": 4862,
      "पान": 4863,
      "प्रीम": 4864,
      "भु": 4865,
      "मो": 4866,
      "मार": 4867,
      "महल": 4868,
      "यर": 4869,
      "याल": 4870,
      "रम": 4871,
      "वत": 4872,
      "वियत": 4873,
      "शल": 4874,
      "शाली": 4875,
      "शेष": 4876,
      "ष्ट": 4877,
      "सवी": 4878,
      "हत": 4879,
      "हों": 4880,
      "हारी": 4881,
      "ादी": 4882,
      "ावे": 4883,
      "ाड़ी": 4884,
      "ुट": 4885,
      "ुष्": 4886,
      "ूर्व": 4887,
      "ूनी": 4888,
      "ेद": 4889,
      "ेक्षा": 4890,
      "ेदारी": 4891,
      "ैंड": 4892,
      "ॉकी": 4893,
      "ोब": 4894,
      "ौट": 4895,
      "्मा": 4896,
      "१०": 4897,
      "२२": 4898,
      "▁ऑ": 4899,
      "▁era": 4900,
      "▁कर्": 4901,
      "▁कर्म": 4902,
      "▁कड़ी": 4903,
      "▁कंप": 4904,
      "andi": 4905,
      "▁सिस्ट": 4906,
      "▁सगरी": 4907,
      "▁सतपु": 4908,
      "▁मण": 4909,
      "▁मी": 4910,
      "▁मू": 4911,
      "▁माल": 4912,
      "▁मार्": 4913,
      "▁केरल": 4914,
      "reen": 4915,
      "ense": 4916,
      "aten": 4917,
      "▁पद": 4918,
      "▁पुन": 4919,
      "ेंज": 4920,
      "्रम": 4921,
      "▁हॉकी": 4922,
      "▁भवन": 4923,
      "▁भयल": 4924,
      "itions": 4925,
      "▁बर": 4926,
      "▁बह": 4927,
      "▁बी": 4928,
      "▁बो": 4929,
      "▁बिया": 4930,
      "▁बिस्त": 4931,
      "▁बडी": 4932,
      "▁cal": 4933,
      "▁came": 4934,
      "oral": 4935,
      "oram": 4936,
      "▁average": 4937,
      "▁init": 4938,
      "▁sep": 4939,
      "▁pat": 4940,
      "▁ज़": 4941,
      "▁जमा": 4942,
      "omest": 4943,
      "▁आम": 4944,
      "▁आर": 4945,
      "▁अक्ष": 4946,
      "▁अति": 4947,
      "▁अंड": 4948,
      "▁अहि": 4949,
      "▁दी": 4950,
      "▁दौर": 4951,
      "▁दुन्": 4952,
      "▁रखा": 4953,
      "▁रत्न": 4954,
      "▁नगर": 4955,
      "ानों": 4956,
      "िक्": 4957,
      "िकार": 4958,
      "▁वा": 4959,
      "▁वृद्ध": 4960,
      "▁वंश": 4961,
      "▁effect": 4962,
      "▁eaten": 4963,
      "riya": 4964,
      "▁लीं": 4965,
      "्तव": 4966,
      "▁Cl": 4967,
      "▁प्रत्य": 4968,
      "▁प्रसि": 4969,
      "▁Sch": 4970,
      "▁तब": 4971,
      "▁ति": 4972,
      "▁ताज": 4973,
      "▁hab": 4974,
      "ोंड": 4975,
      "urred": 4976,
      "urope": 4977,
      "ाजी": 4978,
      "▁बाड़": 4979,
      "▁बांग": 4980,
      "▁बाढ़": 4981,
      "▁एव": 4982,
      "▁परि": 4983,
      "▁परमान": 4984,
      "▁परधानमंत्री": 4985,
      "▁परिवार": 4986,
      "▁उसे": 4987,
      "▁उदा": 4988,
      "▁उच्च": 4989,
      "▁Pe": 4990,
      "uled": 4991,
      "▁संख्या": 4992,
      "नाथ": 4993,
      "नाटक": 4994,
      "▁इंद": 4995,
      "▁इन्": 4996,
      "▁शतर": 4997,
      "▁शुरुआत": 4998,
      "▁श्रेणी": 4999,
      "क्शन": 5000,
      "imals": 5001,
      "ास्ट": 5002,
      "▁साझ": 5003,
      "▁चाल": 5004,
      "▁चला": 5005,
      "▁चले": 5006,
      "▁चुन": 5007,
      "िनल": 5008,
      "ातार": 5009,
      "igion": 5010,
      "astes": 5011,
      "्टवे": 5012,
      "romise": 5013,
      "▁Rel": 5014,
      "▁राजवं": 5015,
      "▁यहाँ": 5016,
      "▁Ex": 5017,
      "▁होना": 5018,
      "▁करती": 5019,
      "ेशियन": 5020,
      "oted": 5021,
      "ंगी": 5022,
      "▁समझ": 5023,
      "▁सम्रा": 5024,
      "▁समृद्ध": 5025,
      "▁समूह": 5026,
      "दीव": 5027,
      "ayan": 5028,
      "िलियन": 5029,
      "क्षेप": 5030,
      "▁moist": 5031,
      "▁विद्र": 5032,
      "▁विरो": 5033,
      "▁super": 5034,
      "▁खाड़ी": 5035,
      "▁नेहर": 5036,
      "▁extin": 5037,
      "▁भील": 5038,
      "▁Jawaharlal": 5039,
      "▁ईद": 5040,
      "▁ईपू": 5041,
      "▁ईस्ट": 5042,
      "▁धार्म": 5043,
      "▁नागर": 5044,
      "▁इसका": 5045,
      "▁इसमें": 5046,
      "ंत्रण": 5047,
      "▁पूर्ण": 5048,
      "िन्दी": 5049,
      "▁Hindus": 5050,
      "ours": 5051,
      "▁फ़": 5052,
      "▁फैली": 5053,
      "▁फुट": 5054,
      "ection": 5055,
      "▁सामरिक": 5056,
      "▁child": 5057,
      "▁जनम": 5058,
      "▁provided": 5059,
      "िरपेक्ष": 5060,
      "▁सरकारी": 5061,
      "▁Vedic": 5062,
      "▁शासक": 5063,
      "▁पाया": 5064,
      "▁पाँच": 5065,
      "रेलू": 5066,
      "▁भाषाएं": 5067,
      "▁clim": 5068,
      "lows": 5069,
      "▁becom": 5070,
      "▁रहलें": 5071,
      "▁बिदे": 5072,
      "▁बिधायिका": 5073,
      "सीसी": 5074,
      "▁घरेलू": 5075,
      "▁विशेष": 5076,
      "▁marked": 5077,
      "▁formal": 5078,
      "्रां": 5079,
      "▁originally": 5080,
      "▁थार": 5081,
      "▁स्वरुप": 5082,
      "▁ओड": 5083,
      "▁छह": 5084,
      "▁छोटे": 5085,
      "▁उपयोग": 5086,
      "▁बढ़कर": 5087,
      "▁expans": 5088,
      "▁मान्यता": 5089,
      "▁कइले": 5090,
      "▁कइलें": 5091,
      "▁देखा": 5092,
      "▁देखे": 5093,
      "▁लगातार": 5094,
      "▁classes": 5095,
      "▁ऊप": 5096,
      "▁किए": 5097,
      "▁केंद्रीय": 5098,
      "▁latter": 5099,
      "▁लोकतंत्र": 5100,
      "▁numer": 5101,
      "स्त्र": 5102,
      "ीलंका": 5103,
      "▁society": 5104,
      "▁बिसाल": 5105,
      "▁अंग्रेज": 5106,
      "▁मैदानी": 5107,
      "aws": 5108,
      "▁सुधार": 5109,
      "▁सुप्रीम": 5110,
      "▁Chinese": 5111,
      "▁ठे": 5112,
      "▁पहिला": 5113,
      "▁बनाया": 5114,
      "▁above": 5115,
      "▁प्रदेशों": 5116,
      "-पश": 5117,
      "▁न्याया": 5118,
      "▁कार्यपालिका": 5119,
      "▁जिनके": 5120,
      "▁जिनमें": 5121,
      "▁स्थाई": 5122,
      "▁आयोज": 5123,
      "ization": 5124,
      "▁मोदी": 5125,
      "▁मोताब": 5126,
      "▁नियुक्त": 5127,
      "▁संसदीय": 5128,
      "▁चलते": 5129,
      "▁राजनीति": 5130,
      "▁न्यायपालिका": 5131,
      "rade": 5132,
      "▁किनारे": 5133,
      "▁पश्चिमी": 5134,
      "▁ब्रह": 5135,
      "▁संबंधों": 5136,
      "▁यूरेशियन": 5137,
      "▁टीम": 5138,
      "▁maint": 5139,
      "▁Himalayan": 5140,
      "र्जा": 5141,
      "▁भूमि": 5142,
      "▁सदस्यों": 5143,
      "oka": 5144,
      "तन्त्र": 5145,
      "▁अवशेष": 5146,
      "▁स्थानीय": 5147,
      "▁सूचना": 5148,
      "▁पंजाबी": 5149,
      "ण्डल": 5150,
      "देव": 5151,
      "▁भरत": 5152,
      "▁ऊँची": 5153,
      "▁गुजराती": 5154,
      "▁December": 5155,
      "▁Deccan": 5156,
      "िथिक": 5157,
      "▁पहाड़": 5158,
      "▁पहाड़ी": 5159,
      "▁प्रचलन": 5160,
      "▁घाट": 5161,
      "▁Economy": 5162,
      "▁मौजूद": 5163,
      "▁बजट": 5164,
      "▁अगस्त": 5165,
      "▁लंबे": 5166,
      "▁ग्रंथ": 5167,
      "▁group": 5168,
      "▁सोवियत": 5169,
      "▁जिन्हें": 5170,
      "▁अशोक": 5171,
      "▁प्रदान": 5172,
      "▁वर्णन": 5173,
      "▁लिहले": 5174,
      "▁distin": 5175,
      "▁policies": 5176,
      "▁किसी": 5177,
      "▁मलयाल": 5178,
      "▁मसाला": 5179,
      "▁बिकसित": 5180,
      "▁जैसे": 5181,
      "▁अंतर्राष्ट्रीय": 5182,
      "▁रिपब्लिक": 5183,
      "▁तेलुग": 5184,
      "▁पर्यटन": 5185,
      "▁उन्हें": 5186,
      "▁श्रीलंका": 5187,
      "▁होलें": 5188,
      "▁शास्त्रीय": 5189,
      "▁प्रायदीप": 5190,
      "▁पहिचान": 5191,
      "▁अमरीकी": 5192,
      "▁असमिया": 5193,
      "▁मंत्रिमण्डल": 5194,
      "▁इस्लाम": 5195,
      "▁written": 5196,
      "▁natal": 5197,
      "touchability": 5198,
      "▁cultures": 5199,
      "▁कृषि": 5200,
      "▁सहायक": 5201,
      "▁मशीन": 5202,
      "▁भोजपुरी": 5203,
      "▁दिवस": 5204,
      "▁निम्न": 5205,
      "▁नृत्य": 5206,
      "▁वास्तव": 5207,
      "▁प्रगति": 5208,
      "▁रेगिस्तान": 5209,
      "▁झारखंड": 5210,
      "▁मराठी": 5211,
      "-Europe": 5212,
      "▁sometimes": 5213,
      "▁recogn": 5214,
      "▁example": 5215,
      "crimin": 5216,
      "ुष्क": 5217,
      "▁कर्नाटक": 5218,
      "▁सिस्टम": 5219,
      "▁सतपुड़ा": 5220,
      "▁मालदीव": 5221,
      "▁बियाह": 5222,
      "▁बिस्तार": 5223,
      "omestic": 5224,
      "▁दुन्नों": 5225,
      "▁वृद्धि": 5226,
      "▁ताजमहल": 5227,
      "▁habit": 5228,
      "▁बांग्ला": 5229,
      "▁उदाहरण": 5230,
      "▁इंदिरा": 5231,
      "▁शतरंज": 5232,
      "्टवेयर": 5233,
      "▁राजवंश": 5234,
      "▁सम्राट": 5235,
      "▁विद्रोह": 5236,
      "▁धार्मिक": 5237,
      "▁नागरिक": 5238,
      "▁मोताबिक": 5239,
      "▁मलयालम": 5240,
      "-European": 5241,
      "-C": 5242,
      "-h": 5243,
      "-y": 5244,
      "01": 5245,
      "53": 5246,
      "BC": 5247,
      "CN": 5248,
      "IA": 5249,
      "PA": 5250,
      "after": 5251,
      "cover": 5252,
      "gins": 5253,
      "ho": 5254,
      "ior": 5255,
      "jo": 5256,
      "kim": 5257,
      "long": 5258,
      "mber": 5259,
      "mend": 5260,
      "most": 5261,
      "och": 5262,
      "pass": 5263,
      "tell": 5264,
      "udi": 5265,
      "—w": 5266,
      "▁tand": 5267,
      "ancy": 5268,
      "▁then": 5269,
      "ening": 5270,
      "atics": 5271,
      "aro": 5272,
      "itud": 5273,
      "▁cat": 5274,
      "▁crit": 5275,
      "▁cos": 5276,
      "▁age": 5277,
      "icy": 5278,
      "▁band": 5279,
      "▁fall": 5280,
      "▁mer": 5281,
      "203": 5282,
      "▁lies": 5283,
      "▁Ter": 5284,
      "▁Aj": 5285,
      "▁top": 5286,
      "▁Capit": 5287,
      "▁due": 5288,
      "▁reac": 5289,
      "ams": 5290,
      "cean": 5291,
      "▁Mar": 5292,
      "▁Myan": 5293,
      "▁Pall": 5294,
      "iger": 5295,
      "irt": 5296,
      "▁Democratic": 5297,
      "▁General": 5298,
      "resident": 5299,
      "▁belief": 5300,
      "▁belong": 5301,
      "▁rather": 5302,
      "▁stand": 5303,
      "▁Jan": 5304,
      "▁animals": 5305,
      "akers": 5306,
      "▁Kal": 5307,
      "udy": 5308,
      "▁From": 5309,
      "▁Fron": 5310,
      "come": 5311,
      "▁Ash": 5312,
      "▁Old": 5313,
      "osp": 5314,
      "osen": 5315,
      "ourn": 5316,
      "iva": 5317,
      "apons": 5318,
      "▁Lank": 5319,
      "avou": 5320,
      "▁chosen": 5321,
      "harma": 5322,
      "▁plains": 5323,
      "▁compan": 5324,
      "▁compromise": 5325,
      "▁primary": 5326,
      "▁level": 5327,
      "▁express": 5328,
      "ustral": 5329,
      "onds": 5330,
      "▁consists": 5331,
      "rents": 5332,
      "exp": 5333,
      "▁abs": 5334,
      "-daro": 5335,
      "▁milk": 5336,
      "▁northwest": 5337,
      "achal": 5338,
      "▁recent": 5339,
      "henjo": 5340,
      "▁rivers": 5341,
      "arna": 5342,
      "-pro": 5343,
      "▁Sikkim": 5344,
      "▁Yaksh": 5345,
      "▁played": 5346,
      "▁enter": 5347,
      "▁forests": 5348,
      "▁disputes": 5349,
      "▁assert": 5350,
      "▁share": 5351,
      "▁Bihar": 5352,
      "▁promin": 5353,
      "ovember": 5354,
      "▁architecture": 5355,
      "/article": 5356,
      "▁Mohenjo": 5357,
      "▁speakers": 5358,
      "ropical": 5359,
      "struct": 5360,
      "▁Hindustani": 5361,
      "▁multi": 5362,
      "▁Arabian": 5363,
      "▁borders": 5364,
      "▁Madh": 5365,
      "▁introduced": 5366,
      "-kn": 5367,
      "equality": 5368,
      "▁festival": 5369,
      "▁Organ": 5370,
      "▁distinct": 5371,
      "▁tandoor": 5372,
      "▁reached": 5373,
      "▁Myanmar": 5374,
      "▁Pallav": 5375,
      "-sp": 5376,
      "-econom": 5377,
      ".w": 5378,
      "41": 5379,
      "DA": 5380,
      "aic": 5381,
      "dars": 5382,
      "ey": 5383,
      "gth": 5384,
      "khand": 5385,
      "lung": 5386,
      "mers": 5387,
      "oastri": 5388,
      "por": 5389,
      "pay": 5390,
      "uous": 5391,
      "uduc": 5392,
      "vara": 5393,
      "yal": 5394,
      "yle": 5395,
      "—s": 5396,
      "▁ener": 5397,
      "▁ten": 5398,
      "▁tropical": 5399,
      "anism": 5400,
      "eror": 5401,
      "erable": 5402,
      "ales": 5403,
      "alore": 5404,
      "arb": 5405,
      "ither": 5406,
      "itated": 5407,
      "anda": 5408,
      "▁cle": 5409,
      "▁cro": 5410,
      "▁cricket": 5411,
      "oroastri": 5412,
      "▁inequality": 5413,
      "▁went": 5414,
      "▁slow": 5415,
      "▁sites": 5416,
      "▁signed": 5417,
      "▁sovereign": 5418,
      "▁par": 5419,
      "▁bron": 5420,
      "▁bott": 5421,
      "▁fin": 5422,
      "▁fash": 5423,
      "▁min": 5424,
      "▁may": 5425,
      "▁mamm": 5426,
      "isen": 5427,
      "▁loo": 5428,
      "▁loss": 5429,
      "▁laws": 5430,
      "▁Treat": 5431,
      "▁town": 5432,
      "▁Cav": 5433,
      "▁Census": 5434,
      "lymp": 5435,
      "▁dri": 5436,
      "▁She": 5437,
      "▁Sal": 5438,
      "▁Some": 5439,
      "▁Shan": 5440,
      "ilw": 5441,
      "ilomet": 5442,
      "▁reven": 5443,
      "▁Bay": 5444,
      "rac": 5445,
      "▁Modi": 5446,
      "▁Marat": 5447,
      "▁gas": 5448,
      "▁gend": 5449,
      "▁gave": 5450,
      "▁gold": 5451,
      "▁goods": 5452,
      "▁Puduc": 5453,
      "adwe": 5454,
      "▁isol": 5455,
      "▁threat": 5456,
      "▁Dyson": 5457,
      "▁Har": 5458,
      "idly": 5459,
      "▁Nag": 5460,
      "angra": 5461,
      "▁rich": 5462,
      "otion": 5463,
      "herry": 5464,
      "▁stren": 5465,
      "▁exc": 5466,
      "▁Jhar": 5467,
      "▁any": 5468,
      "▁another": 5469,
      "▁WHO": 5470,
      "pped": 5471,
      "▁Olymp": 5472,
      "▁Chola": 5473,
      "ressed": 5474,
      "ivity": 5475,
      "▁Laksh": 5476,
      "avid": 5477,
      "▁churi": 5478,
      "▁contain": 5479,
      "▁contains": 5480,
      "hib": 5481,
      "▁parts": 5482,
      "▁added": 5483,
      "▁kameez": 5484,
      "▁kilomet": 5485,
      "▁relative": 5486,
      "▁margins": 5487,
      "165": 5488,
      "▁Indones": 5489,
      "▁seals": 5490,
      "▁decade": 5491,
      "▁populous": 5492,
      "▁governments": 5493,
      "reath": 5494,
      "▁export": 5495,
      "▁arts": 5496,
      "reasing": 5497,
      "rency": 5498,
      "▁immediately": 5499,
      "▁elected": 5500,
      "ext": 5501,
      "▁cause": 5502,
      "ellion": 5503,
      "232": 5504,
      "▁shalw": 5505,
      "▁ministers": 5506,
      "▁increasingly": 5507,
      "▁resident": 5508,
      "▁series": 5509,
      "▁railw": 5510,
      "force": 5511,
      "▁role": 5512,
      "▁suppl": 5513,
      "▁urbanisation": 5514,
      "▁folk": 5515,
      "▁emperor": 5516,
      "▁Punjabi": 5517,
      "ographics": 5518,
      "orship": 5519,
      "▁setting": 5520,
      "▁office": 5521,
      "oulder": 5522,
      "▁surround": 5523,
      "▁Shiva": 5524,
      "▁coll": 5525,
      "▁colleg": 5526,
      "mitt": 5527,
      "▁basin": 5528,
      "▁Profile": 5529,
      "▁player": 5530,
      "-body": 5531,
      "gency": 5532,
      "▁constitutional": 5533,
      "▁impro": 5534,
      "▁contributions": 5535,
      "▁Sikhism": 5536,
      "vidence": 5537,
      "▁associ": 5538,
      "▁Assam": 5539,
      "▁weapons": 5540,
      "▁supported": 5541,
      "▁drain": 5542,
      "▁Bangalore": 5543,
      "▁portal": 5544,
      "▁historical": 5545,
      "▁crucial": 5546,
      "▁garment": 5547,
      "▁garlic": 5548,
      "pura": 5549,
      "▁currency": 5550,
      "▁blackb": 5551,
      "▁administration": 5552,
      "▁groups": 5553,
      "▁coral": 5554,
      "▁marriages": 5555,
      "▁tribal": 5556,
      "▁wildlife": 5557,
      "▁safe": 5558,
      "▁endemic": 5559,
      "▁manuscript": 5560,
      "▁remaining": 5561,
      "▁Civilisation": 5562,
      "▁protected": 5563,
      "▁Park": 5564,
      "▁schools": 5565,
      "▁strong": 5566,
      "▁armies": 5567,
      "▁subsequent": 5568,
      "▁against": 5569,
      "▁gradually": 5570,
      "▁liberal": 5571,
      "▁capita": 5572,
      "▁predomin": 5573,
      "▁exchange": 5574,
      "▁Maurya": 5575,
      "▁broad": 5576,
      "▁Akbar": 5577,
      "▁nominal": 5578,
      "▁Demographics": 5579,
      "▁declared": 5580,
      "guard": 5581,
      "▁Zoroastri": 5582,
      "araja": 5583,
      "▁becoming": 5584,
      "passing": 5585,
      "▁cattle": 5586,
      "▁merch": 5587,
      "▁Ajanta": 5588,
      "▁Janata": 5589,
      "▁Front": 5590,
      "▁Ashoka": 5591,
      "▁companies": 5592,
      "▁Organization": 5593,
      "▁energy": 5594,
      "▁sovereignty": 5595,
      "▁bronz": 5596,
      "▁bottom": 5597,
      "▁mammals": 5598,
      "▁loose": 5599,
      "▁Treaty": 5600,
      "▁Caves": 5601,
      "▁Shankar": 5602,
      "▁revenues": 5603,
      "▁Puducherry": 5604,
      "adweep": 5605,
      "▁strength": 5606,
      "▁Jharkhand": 5607,
      "▁Lakshadweep": 5608,
      "▁churidars": 5609,
      "▁kilometres": 5610,
      "▁Indonesia": 5611,
      "▁residents": 5612,
      "▁colleges": 5613,
      ".c": 5614,
      "/t": 5615,
      "UCN": 5616,
      "gre": 5617,
      "ns": 5618,
      "now": 5619,
      "port": 5620,
      "side": 5621,
      "νδ": 5622,
      "att": 5623,
      "diat": 5624,
      "aran": 5625,
      "▁mem": 5626,
      "rief": 5627,
      "▁democracy": 5628,
      "▁Mon": 5629,
      "▁gen": 5630,
      "▁Ra": 5631,
      "▁Nat": 5632,
      "▁November": 5633,
      "otal": 5634,
      "▁what": 5635,
      "▁suc": 5636,
      "▁Jo": 5637,
      "▁commun": 5638,
      "wealth": 5639,
      "▁medieval": 5640,
      "monwealth": 5641,
      "▁humans": 5642,
      "limate": 5643,
      "▁York": 5644,
      "missions": 5645,
      "athak": 5646,
      "oint": 5647,
      "▁Economic": 5648,
      "▁adopted": 5649,
      "-year": 5650,
      "\"భ": 5651,
      "(ఆ": 5652,
      "(గ": 5653,
      "(In": 5654,
      "-ఢ": 5655,
      "-ద": 5656,
      "-ల": 5657,
      "/S": 5658,
      "130": 5659,
      "422": 5660,
      "56": 5661,
      "99": 5662,
      "den": 5663,
      "iri": 5664,
      "uber": 5665,
      "ying": 5666,
      "ంజ": 5667,
      "ందర": 5668,
      "కం": 5669,
      "కర": 5670,
      "కా": 5671,
      "కూ": 5672,
      "కృ": 5673,
      "కే": 5674,
      "క్య": 5675,
      "కాత": 5676,
      "కరణ": 5677,
      "గమ": 5678,
      "గ్ర": 5679,
      "గర్": 5680,
      "గతి": 5681,
      "చయ": 5682,
      "చుకోవడ": 5683,
      "జన": 5684,
      "జ్": 5685,
      "జిక": 5686,
      "జ్మ": 5687,
      "జ్యం": 5688,
      "టా": 5689,
      "ట్ర": 5690,
      "టన్": 5691,
      "టలు": 5692,
      "టర్": 5693,
      "టాన్": 5694,
      "టోర": 5695,
      "డమ": 5696,
      "డైన": 5697,
      "ణించ": 5698,
      "ణులు": 5699,
      "తను": 5700,
      "తంలో": 5701,
      "తాయి": 5702,
      "తంగా": 5703,
      "తారు": 5704,
      "త్రీ": 5705,
      "త్రి": 5706,
      "థాలు": 5707,
      "థ్యం": 5708,
      "దగా": 5709,
      "దులు": 5710,
      "దావ": 5711,
      "ధీన": 5712,
      "నం": 5713,
      "నలు": 5714,
      "నిక": 5715,
      "పర": 5716,
      "పూ": 5717,
      "పో": 5718,
      "పరి": 5719,
      "ప్రీ": 5720,
      "ప్రి": 5721,
      "పాల్": 5722,
      "పెద్ద": 5723,
      "పడిన": 5724,
      "బా": 5725,
      "బి": 5726,
      "భవ": 5727,
      "భూ": 5728,
      "మల": 5729,
      "మూ": 5730,
      "మో": 5731,
      "మలు": 5732,
      "మిత": 5733,
      "మారు": 5734,
      "యు": 5735,
      "యమించ": 5736,
      "రిక": 5737,
      "రకు": 5738,
      "లిక": 5739,
      "లక్": 5740,
      "లయా": 5741,
      "లమె": 5742,
      "ళలు": 5743,
      "వల": 5744,
      "వహ": 5745,
      "విం": 5746,
      "వంత": 5747,
      "వరి": 5748,
      "వైన": 5749,
      "వార్": 5750,
      "వతం": 5751,
      "వల్ల": 5752,
      "వత్ర": 5753,
      "వారి": 5754,
      "శో": 5755,
      "శాన": 5756,
      "శాఖ": 5757,
      "షం": 5758,
      "షయాలు": 5759,
      "సన": 5760,
      "సభ": 5761,
      "సా": 5762,
      "స్ర": 5763,
      "హల్": 5764,
      "ాభ": 5765,
      "ామ": 5766,
      "ాక్": 5767,
      "ాడే": 5768,
      "ాజ్మ": 5769,
      "ిప": 5770,
      "ిర": 5771,
      "ిళ": 5772,
      "ితి": 5773,
      "ిస్త": 5774,
      "ీక్ష": 5775,
      "ీషు": 5776,
      "ుమ": 5777,
      "ుల్": 5778,
      "ుత్": 5779,
      "ుపూ": 5780,
      "ూపా": 5781,
      "ూపం": 5782,
      "ూనది": 5783,
      "ెర్": 5784,
      "ెస్": 5785,
      "ెట్ట": 5786,
      "ెక్క": 5787,
      "ెట్ర": 5788,
      "ోత్": 5789,
      "ోంది": 5790,
      "ౌర": 5791,
      "్మా": 5792,
      "—ISBN": 5793,
      "▁ఓ": 5794,
      "▁థ": 5795,
      "▁ధ": 5796,
      "▁ది": 5797,
      "▁టి": 5798,
      "▁ide": 5799,
      "inc": 5800,
      "aning": 5801,
      "onomet": 5802,
      "▁own": 5803,
      "edd": 5804,
      "▁పలు": 5805,
      "▁పవి": 5806,
      "▁ప్ల": 5807,
      "▁పర్వ": 5808,
      "▁పల్ల": 5809,
      "▁పక్క": 5810,
      "▁పటం": 5811,
      "్రై": 5812,
      "్రాన్": 5813,
      "ారాల": 5814,
      "ased": 5815,
      "ాలే": 5816,
      "▁less": 5817,
      "▁సిక్": 5818,
      "▁కృ": 5819,
      "▁కలు": 5820,
      "▁కను": 5821,
      "▁కల్": 5822,
      "▁క్రి": 5823,
      "▁కనుక": 5824,
      "▁కల్ప": 5825,
      "▁కంటే": 5826,
      "▁కబడ్డ": 5827,
      "▁కళలు": 5828,
      "lege": 5829,
      "▁వం": 5830,
      "▁వృద్ధి": 5831,
      "▁వలస": 5832,
      "▁వాయు": 5833,
      "లోమీ": 5834,
      "▁Cal": 5835,
      "్యా": 5836,
      "▁desc": 5837,
      "▁భక్తి": 5838,
      "▁మర": 5839,
      "▁మార": 5840,
      "▁మాన": 5841,
      "▁మరో": 5842,
      "▁మంత్రి": 5843,
      "▁మలయా": 5844,
      "లుగా": 5845,
      "దేశపు": 5846,
      "దేశ్ల": 5847,
      "ర్శ": 5848,
      "ర్తి": 5849,
      "ర్థ్యం": 5850,
      "స్ట్": 5851,
      "స్లిం": 5852,
      "స్వతం": 5853,
      "▁రకాలు": 5854,
      "▁రూప": 5855,
      "▁రచయ": 5856,
      "▁రూపా": 5857,
      "▁ప్రదేశ": 5858,
      "▁ప్రత్య": 5859,
      "▁ప్రసి": 5860,
      "▁ప్రయో": 5861,
      "▁భారతంలో": 5862,
      "▁Pal": 5863,
      "▁అణ": 5864,
      "▁అంత": 5865,
      "▁అరు": 5866,
      "▁అవి": 5867,
      "▁అంట": 5868,
      "▁అన్ని": 5869,
      "▁అప్ప": 5870,
      "▁అమె": 5871,
      "▁అక్షరాస్యత": 5872,
      "▁అశో": 5873,
      "న్నీ": 5874,
      "న్నై": 5875,
      "గాన్ని": 5876,
      "irm": 5877,
      "నిజాలు": 5878,
      "క్స్": 5879,
      "▁Res": 5880,
      "ాయాలు": 5881,
      "▁జల": 5882,
      "▁జో": 5883,
      "▁Emerg": 5884,
      "▁చవి": 5885,
      "▁చూడ": 5886,
      "▁చిత": 5887,
      "▁చదర": 5888,
      "ాతీయ": 5889,
      "ాత్మా": 5890,
      "ానీ": 5891,
      "ాను": 5892,
      "angetic": 5893,
      "కుల": 5894,
      "ots": 5895,
      "▁ఇండ": 5896,
      "▁ఇటీ": 5897,
      "▁ఇంకా": 5898,
      "ండా": 5899,
      "ండ్": 5900,
      "ల్కాత": 5901,
      "త్తా": 5902,
      "ించారు": 5903,
      "ందింది": 5904,
      "స్తులు": 5905,
      "▁ఆగ": 5906,
      "▁ఆదాయ": 5907,
      "▁నె": 5908,
      "▁నెల": 5909,
      "▁నెహ": 5910,
      "▁నాయక": 5911,
      "రిస్త": 5912,
      "▁Way": 5913,
      "▁Women": 5914,
      "▁తర": 5915,
      "▁తె": 5916,
      "▁తే": 5917,
      "▁తత్వ": 5918,
      "▁తర్వ": 5919,
      "▁తక్కువ": 5920,
      "▁తెలుగు": 5921,
      "▁తాజ్మ": 5922,
      "▁సంస్థ": 5923,
      "▁సంస్క": 5924,
      "▁బంగ": 5925,
      "▁విధ": 5926,
      "▁విలు": 5927,
      "▁విమాన": 5928,
      "▁విషయాలు": 5929,
      "రుగు": 5930,
      "▁భారతదేశం–": 5931,
      "▁గత": 5932,
      "▁గంగ": 5933,
      "▁గ్రా": 5934,
      "▁గెలు": 5935,
      "▁గమన": 5936,
      "▁స్త్రీ": 5937,
      "109": 5938,
      "osis": 5939,
      "rigonomet": 5940,
      "పుకో": 5941,
      "పుతూ": 5942,
      "పుణులు": 5943,
      "▁ఎలక్": 5944,
      "▁ఎక్స్": 5945,
      "▁శి": 5946,
      "ogam": 5947,
      "ితే": 5948,
      "▁దాట": 5949,
      "ంటున్న": 5950,
      "ార్త": 5951,
      "ectancy": 5952,
      "▁సామా": 5953,
      "▁హాక": 5954,
      "▁Ved": 5955,
      "స్థాన": 5956,
      "ంచిన": 5957,
      "దుగా": 5958,
      "▁దేశపు": 5959,
      "▁కూడి": 5960,
      "▁కూడుకొ": 5961,
      "▁ఈశాన": 5962,
      "▁ఈస్ట్": 5963,
      "త్వంలో": 5964,
      "చ్చే": 5965,
      "▁ఒలం": 5966,
      "▁భాగ": 5967,
      "▁భావిస్తారు": 5968,
      "▁భాగాన్ని": 5969,
      "▁largely": 5970,
      "125": 5971,
      "▁నిడి": 5972,
      "▁నియమించ": 5973,
      "▁నిపుణులు": 5974,
      "▁జాతులు": 5975,
      "ific": 5976,
      "▁వ్యాస": 5977,
      "తోంది": 5978,
      "వాదం": 5979,
      "▁పేర్లు": 5980,
      "▁మొగలు": 5981,
      "▁స్థావ": 5982,
      "▁sex": 5983,
      "rown": 5984,
      "▁decid": 5985,
      "డుతున్న": 5986,
      "డుకుంట": 5987,
      "ర్వోత్": 5988,
      "▁అధికారం": 5989,
      "నాథ": 5990,
      "ాకా": 5991,
      "▁లకు": 5992,
      "▁లౌక": 5993,
      "▁ముడి": 5994,
      "▁ముస్లిం": 5995,
      "పావ": 5996,
      "పాటు": 5997,
      "పాడుకుంట": 5998,
      "▁ఏక": 5999,
      "▁ఏప్రి": 6000,
      "▁కాపాడుకుంట": 6001,
      "ంబే": 6002,
      "తులతో": 6003,
      "రాజ": 6004,
      "్రమే": 6005,
      "▁కోల్కాత": 6006,
      "▁చెప్": 6007,
      "▁చెంద": 6008,
      "▁చెన్నై": 6009,
      "▁ఎన్నుకో": 6010,
      "▁ఎన్నుకుంట": 6011,
      "సియాలో": 6012,
      "సిల్లు": 6013,
      "▁ప్రపంచములో": 6014,
      "ద్దులు": 6015,
      "▁పారి": 6016,
      "▁కులాలు": 6017,
      "▁ప్రాంతీయ": 6018,
      "▁ప్రాంతాల్లో": 6019,
      "▁వ్యవస్థకు": 6020,
      "aticians": 6021,
      "దాయంలో": 6022,
      "▁శాసన": 6023,
      "▁scen": 6024,
      "లంక": 6025,
      "▁అయితే": 6026,
      "▁భాషా": 6027,
      "▁భాషలను": 6028,
      "▁రాజ్యంగా": 6029,
      "▁స్థానాలను": 6030,
      "peration": 6031,
      "view": 6032,
      "▁పరిపాల": 6033,
      "▁కాలే": 6034,
      "▁ఇతరదేశ": 6035,
      "▁ప్రభుత్వాన్ని": 6036,
      "361": 6037,
      "-gener": 6038,
      "ుకుంది": 6039,
      "▁పూర్వ": 6040,
      "▁పూర్తి": 6041,
      "▁సభ్య": 6042,
      "▁సభను": 6043,
      "▁సభ్యులు": 6044,
      "▁వాహ": 6045,
      "▁వాటి": 6046,
      "▁వేద": 6047,
      "▁రెండవ": 6048,
      "▁రెండో": 6049,
      "▁అత్యంత": 6050,
      "ించినట్లు": 6051,
      "▁సాంకే": 6052,
      "issing": 6053,
      "గినది": 6054,
      "బడతారు": 6055,
      "▁పరీక్ష": 6056,
      "▁కలిగిన": 6057,
      "▁వెల్ల": 6058,
      "▁భారత్లో": 6059,
      "▁అతిపెద్ద": 6060,
      "▁జరిగే": 6061,
      "ాబ్ది": 6062,
      "▁క్రీడా": 6063,
      "▁క్రీడలలో": 6064,
      "▁అయినా": 6065,
      "ible": 6066,
      "ట్లాడే": 6067,
      "▁పాలనలో": 6068,
      "▁పాలించారు": 6069,
      "▁mathematicians": 6070,
      "▁మహాస": 6071,
      "▁మహిళ": 6072,
      "▁మహాత్మా": 6073,
      "▁ప్రస్తుతము": 6074,
      "▁ఉపయో": 6075,
      "▁స్వీ": 6076,
      "▁సాధించిన": 6077,
      "▁ముఖ్యంగా": 6078,
      "▁ముఖ్యమైన": 6079,
      "▁కాంగ్రెస్": 6080,
      "mitte": 6081,
      "▁entire": 6082,
      "వుతుంది": 6083,
      "▁వర్గ": 6084,
      "▁మాత్రమే": 6085,
      "▁ప్రతిప": 6086,
      "▁జనతా": 6087,
      "▁జనవరి": 6088,
      "▁నేరే": 6089,
      "▁నేపాల్": 6090,
      "▁విస్తర": 6091,
      "▁విస్తీర్ణ": 6092,
      "▁చేసే": 6093,
      "mbol": 6094,
      "ంకెలు": 6095,
      "రోపా": 6096,
      "▁ఐక్య": 6097,
      "▁ఐరోపా": 6098,
      "▁ఢాకా": 6099,
      "▁పతాక": 6100,
      "▁సమాజ": 6101,
      "▁నాటి": 6102,
      "▁బ్రిటీ": 6103,
      "▁సామర్థ్యం": 6104,
      "ాబాదు": 6105,
      "▁ప్రపంచంలోని": 6106,
      "▁ప్రపంచంలోనే": 6107,
      "ప్పటికినీ": 6108,
      "▁సింధూనది": 6109,
      "▁సౌకర్యాలు": 6110,
      "▁సౌకర్యాలలో": 6111,
      "▁జాబితాలో": 6112,
      "గోళిక": 6113,
      "వర్తి": 6114,
      "వచ్చని": 6115,
      "ాటక": 6116,
      "ాహో": 6117,
      "ాహార": 6118,
      "▁ఖనిజాలు": 6119,
      "▁సమరం": 6120,
      "▁సుప్రీ": 6121,
      "▁భూభాగం": 6122,
      "▁భూటాన్": 6123,
      "▁రంగం": 6124,
      "▁చైనా": 6125,
      "▁చైనాను": 6126,
      "▁తమిళ": 6127,
      "▁బాం": 6128,
      "▁బాంబే": 6129,
      "ముద్రం": 6130,
      "▁రైల్వేశాఖ": 6131,
      "▁కోర్టులు": 6132,
      "▁పుట్టి": 6133,
      "▁పుట్టుపూ": 6134,
      "▁సంవత్సర": 6135,
      "▁స్వాతంత్ర్యం": 6136,
      "▁నిర్వహించింది": 6137,
      "లేదు": 6138,
      "▁పదవి": 6139,
      "▁పర్యాయాలు": 6140,
      "▁పర్యాటక": 6141,
      "ాయుత": 6142,
      "కుంటారు": 6143,
      "▁ఇవిక": 6144,
      "▁న్యాయవ్యవస్థ": 6145,
      "▁బౌద్ధులు": 6146,
      "▁గోదావ": 6147,
      "▁నిర్మ": 6148,
      "▁లోక్సభ": 6149,
      "▁రాజ్యాలుగా": 6150,
      "▁ఆధారపడిన": 6151,
      "▁బ్రిటిష్": 6152,
      "▁బ్రిటిషు": 6153,
      "▁సామ్రాజ్య": 6154,
      "▁సామ్రాజ్యం": 6155,
      "▁పశ్చిమాన": 6156,
      "▁హిమాలయ": 6157,
      "▁హిమాలయాలు": 6158,
      "culosis": 6159,
      "సింగ్": 6160,
      "▁తిరుగు": 6161,
      "▁పార్లమె": 6162,
      "▁పీఠభూ": 6163,
      "▁సహస్ర": 6164,
      "▁సారస్వతం": 6165,
      "▁స్టాక్": 6166,
      "▁సైనిక": 6167,
      "▁సార్వత్ర": 6168,
      "▁సముద్రతీ": 6169,
      "▁సూచించినట్లు": 6170,
      "▁కిలోమీ": 6171,
      "▁కిందకు": 6172,
      "▁వలన": 6173,
      "▁భౌగోళిక": 6174,
      "▁మీదగా": 6175,
      "▁మౌర్య": 6176,
      "ర్చు": 6177,
      "ర్జాతీయ": 6178,
      "ర్షణ": 6179,
      "▁ఉండటం": 6180,
      "▁చిరు": 6181,
      "▁ఇంగ్లీషు": 6182,
      "▁ఆహారం": 6183,
      "▁విద్యుత్": 6184,
      "ముఖ్యమైన": 6185,
      "▁గణతంత్ర": 6186,
      "▁హైదర": 6187,
      "▁కూడుకుని": 6188,
      "▁వ్యాపార": 6189,
      "▁ఎన్నికల్లో": 6190,
      "▁జనాభాతో": 6191,
      "▁రాజ్యాంగం": 6192,
      "▁పురుషుల": 6193,
      "▁టైటి": 6194,
      "మేనని": 6195,
      "▁ప్రతిపాదనకు": 6196,
      "▁జనగణన": 6197,
      "▁ఏర్పడ్డాయి": 6198,
      "▁మొదలైనవి": 6199,
      "▁కార్యక్రమాలు": 6200,
      "▁ఆఫ్ఘనిస్తాన్": 6201,
      "▁కాశ్మీరు": 6202,
      "▁ప్రారంభించ": 6203,
      "▁జరుపుకుంటారు": 6204,
      "▁తూర్పున": 6205,
      "▁బంగ్లాదేశ్ల": 6206,
      "▁శెలవుదినాలు": 6207,
      "▁hereditary": 6208,
      "▁Health": 6209,
      "▁members": 6210,
      "uberculosis": 6211,
      "చుకోవడం": 6212,
      "టర్లకు": 6213,
      "టోరల్": 6214,
      "బాటు": 6215,
      "రికా": 6216,
      "ెట్రో": 6217,
      "▁దిగువ": 6218,
      "▁పవిత్ర": 6219,
      "▁పక్కన": 6220,
      "▁కనుమలు": 6221,
      "▁మలయాళం": 6222,
      "▁రచయిత": 6223,
      "▁రూపాంత": 6224,
      "▁ప్రసిద్ధి": 6225,
      "▁అంతర్జాతీయ": 6226,
      "▁అమెరికా": 6227,
      "▁అశోకు": 6228,
      "▁చూడండి": 6229,
      "▁చదరంగ": 6230,
      "▁ఇండో": 6231,
      "▁ఆదాయం": 6232,
      "▁నెలకొ": 6233,
      "▁తాజ్మహల్": 6234,
      "▁సంస్కరణ": 6235,
      "▁బంగారు": 6236,
      "▁గెలుచుకోవడం": 6237,
      "▁స్త్రీలు": 6238,
      "▁ఎలక్టోరల్": 6239,
      "▁సామాజిక": 6240,
      "▁కూడుకొని": 6241,
      "▁ఈశాన్య": 6242,
      "▁ఒలంపిక్": 6243,
      "▁నిడివి": 6244,
      "▁స్థావరాలు": 6245,
      "ర్వోత్తరాలు": 6246,
      "▁లౌకిక": 6247,
      "▁ఏప్రిల్": 6248,
      "▁కాపాడుకుంటూ": 6249,
      "▁కోల్కాతా": 6250,
      "▁చెప్పుకో": 6251,
      "▁చెందాయి": 6252,
      "▁ఎన్నుకోబడతారు": 6253,
      "▁పూర్తిగా": 6254,
      "▁సాంకేతిక": 6255,
      "▁మహాసముద్రం": 6256,
      "▁ఉపయోగి": 6257,
      "▁నేరేడు": 6258,
      "▁సుప్రీం": 6259,
      "▁పుట్టుపూర్వోత్తరాలు": 6260,
      "▁తిరుగుబాటు": 6261,
      "▁పార్లమెంట": 6262,
      "▁సహస్రాబ్ది": 6263,
      "▁సార్వత్రిక": 6264,
      "▁కిలోమీటర్లకు": 6265,
      "(अ": 6266,
      "(प": 6267,
      "(र": 6268,
      "(श": 6269,
      "-अ": 6270,
      "-छ": 6271,
      "-द": 6272,
      "-र": 6273,
      "-श": 6274,
      "/g": 6275,
      "178": 6276,
      "423": 6277,
      "89": 6278,
      "AL": 6279,
      "dra": 6280,
      "ders": 6281,
      "ead": 6282,
      "lus": 6283,
      "national": 6284,
      "yth": 6285,
      "ँट": 6286,
      "ँस": 6287,
      "ँधी": 6288,
      "ंत": 6289,
      "ंसा": 6290,
      "इन": 6291,
      "ईट": 6292,
      "एशन": 6293,
      "कू": 6294,
      "कूद": 6295,
      "गठ": 6296,
      "गध": 6297,
      "चाल": 6298,
      "चित": 6299,
      "चेंज": 6300,
      "जं": 6301,
      "जह": 6302,
      "जयन": 6303,
      "ठक": 6304,
      "ठा": 6305,
      "डल": 6306,
      "डा": 6307,
      "णिज": 6308,
      "थक": 6309,
      "थम": 6310,
      "थी": 6311,
      "थित": 6312,
      "दल": 6313,
      "दों": 6314,
      "दास": 6315,
      "धु": 6316,
      "नन": 6317,
      "नि": 6318,
      "निक": 6319,
      "नेशिया": 6320,
      "पास": 6321,
      "पंथ": 6322,
      "बला": 6323,
      "बन्": 6324,
      "भारत": 6325,
      "मस": 6326,
      "मिन्": 6327,
      "मूल": 6328,
      "मिकल": 6329,
      "यें": 6330,
      "रि": 6331,
      "लंप": 6332,
      "वाल": 6333,
      "वारा": 6334,
      "विका": 6335,
      "शः": 6336,
      "श्य": 6337,
      "शक्ति": 6338,
      "सत": 6339,
      "सन": 6340,
      "सो": 6341,
      "सों": 6342,
      "ाथ": 6343,
      "ाँच": 6344,
      "िप्त": 6345,
      "िपुरी": 6346,
      "िखर": 6347,
      "ीए": 6348,
      "ुप": 6349,
      "ूने": 6350,
      "ूर्ण": 6351,
      "ैधान": 6352,
      "ॉक": 6353,
      "ॉल": 6354,
      "ॉडल": 6355,
      "ोर": 6356,
      "ोमी": 6357,
      "ौनों": 6358,
      "्ण": 6359,
      "१३": 6360,
      "१७": 6361,
      "२५": 6362,
      "२६": 6363,
      "२८": 6364,
      "२९": 6365,
      "४०": 6366,
      "▁‘": 6367,
      "▁कल": 6368,
      "▁कै": 6369,
      "▁किल": 6370,
      "▁कटिबंधीय": 6371,
      "▁क्ल": 6372,
      "▁क्रां": 6373,
      "▁कथक": 6374,
      "▁कौनों": 6375,
      "▁सश": 6376,
      "▁सऽ": 6377,
      "▁स्ट": 6378,
      "▁सारी": 6379,
      "▁सहित": 6380,
      "▁सकल": 6381,
      "▁सुरू": 6382,
      "▁सौह": 6383,
      "▁theref": 6384,
      "▁मछ": 6385,
      "▁मार": 6386,
      "▁मना": 6387,
      "▁मिश": 6388,
      "▁मिथ": 6389,
      "▁मगध": 6390,
      "▁मॉडल": 6391,
      "▁केमिकल": 6392,
      "alf": 6393,
      "ार्ष": 6394,
      "ator": 6395,
      "atts": 6396,
      "stead": 6397,
      "▁पाल": 6398,
      "▁पड़ा": 6399,
      "dict": 6400,
      "arrow": 6401,
      "ेंद्र": 6402,
      "्रो": 6403,
      "्रिय": 6404,
      "▁हऽ": 6405,
      "▁हास": 6406,
      "▁हरा": 6407,
      "▁हवा": 6408,
      "▁हवें": 6409,
      "▁भाष": 6410,
      "▁भरा": 6411,
      "▁भेज": 6412,
      "▁बल": 6413,
      "▁बे": 6414,
      "▁बर्": 6415,
      "▁बाल": 6416,
      "▁बता": 6417,
      "▁बोल": 6418,
      "▁बुद्ध": 6419,
      "▁बँट": 6420,
      "▁cap": 6421,
      "ora": 6422,
      "▁acc": 6423,
      "▁ins": 6424,
      "▁prin": 6425,
      "icon": 6426,
      "्यन": 6427,
      "्यास": 6428,
      "▁जु": 6429,
      "▁ज्य": 6430,
      "▁जन्": 6431,
      "▁जाने": 6432,
      "ises": 6433,
      "▁आकार": 6434,
      "▁आते": 6435,
      "▁आर्ट": 6436,
      "▁आंतर": 6437,
      "▁आवास": 6438,
      "▁भारतवर्ष": 6439,
      "▁अर्": 6440,
      "▁अंद": 6441,
      "▁अच्छ": 6442,
      "▁दीप": 6443,
      "▁दर्शन": 6444,
      "▁नई": 6445,
      "▁नर": 6446,
      "▁नौ": 6447,
      "▁निक": 6448,
      "▁नक्": 6449,
      "▁नर्म": 6450,
      "▁नंबर": 6451,
      "▁नीति": 6452,
      "र्त": 6453,
      "र्भ": 6454,
      "र्श": 6455,
      "र्तिक": 6456,
      "▁वै": 6457,
      "▁व्य": 6458,
      "▁वजह": 6459,
      "▁वार्ष": 6460,
      "▁To": 6461,
      "▁Ac": 6462,
      "▁Am": 6463,
      "▁Agency": 6464,
      "▁each": 6465,
      "▁event": 6466,
      "▁ली": 6467,
      "▁लक्ष": 6468,
      "▁लिस्ट": 6469,
      "ियस": 6470,
      "ियो": 6471,
      "ियंस": 6472,
      "▁Culture": 6473,
      "▁drew": 6474,
      "▁dyn": 6475,
      "▁सेक्ट": 6476,
      "▁प्रश": 6477,
      "▁प्रो": 6478,
      "▁प्रका": 6479,
      "▁प्रधान": 6480,
      "▁प्रयोग": 6481,
      "▁प्रबंधन": 6482,
      "▁प्रवेश": 6483,
      "▁प्रथम": 6484,
      "▁Sim": 6485,
      "▁Sub": 6486,
      "▁गि": 6487,
      "▁गिर": 6488,
      "▁गहना": 6489,
      "▁गोंड": 6490,
      "▁त्या": 6491,
      "▁तौर": 6492,
      "urt": 6493,
      "ाजित": 6494,
      "▁बाहर": 6495,
      "ets": 6496,
      "etah": 6497,
      "▁औसत": 6498,
      "▁एन": 6499,
      "oli": 6500,
      "▁औरतन": 6501,
      "▁Min": 6502,
      "▁परिव": 6503,
      "▁ge": 6504,
      "▁geograph": 6505,
      "▁उल": 6506,
      "▁उड़ी": 6507,
      "▁Pre": 6508,
      "▁Population": 6509,
      "▁संक्ष": 6510,
      "▁संबो": 6511,
      "▁संचाल": 6512,
      "▁इज": 6513,
      "▁इसे": 6514,
      "▁इका": 6515,
      "▁शिल": 6516,
      "▁शांति": 6517,
      "▁शुष्क": 6518,
      "▁शिखर": 6519,
      "तांत्रिक": 6520,
      "▁साक्षर": 6521,
      "▁चै": 6522,
      "▁चौ": 6523,
      "▁चली": 6524,
      "▁चोल": 6525,
      "▁चैन": 6526,
      "▁चट्ट": 6527,
      "िनि": 6528,
      "ात्मक": 6529,
      "ात्मा": 6530,
      "▁thorn": 6531,
      "▁Dis": 6532,
      "▁David": 6533,
      "▁Ri": 6534,
      "▁राजभाषा": 6535,
      "▁ये": 6536,
      "▁यद्य": 6537,
      "▁Gold": 6538,
      "▁होत": 6539,
      "▁होने": 6540,
      "▁होली": 6541,
      "▁होले": 6542,
      "▁Nar": 6543,
      "▁best": 6544,
      "▁करो": 6545,
      "otsp": 6546,
      "▁समान": 6547,
      "▁सम्म": 6548,
      "▁भारतीयों": 6549,
      "सेना": 6550,
      "▁विज्ञान": 6551,
      "▁विजयन": 6552,
      "स्कार": 6553,
      "्यादा": 6554,
      "्याचल": 6555,
      "▁खु": 6556,
      "▁खास": 6557,
      "▁खोज": 6558,
      "▁नेपाल": 6559,
      "umar": 6560,
      "▁did": 6561,
      "कारी": 6562,
      "▁Ka": 6563,
      "▁सभा": 6564,
      "▁सभी": 6565,
      "ूपण": 6566,
      "काव्य": 6567,
      "काबला": 6568,
      "ocu": 6569,
      "ockey": 6570,
      "▁राज्यक्षेत्र": 6571,
      "▁ईसवी": 6572,
      "▁धरो": 6573,
      "▁निवास": 6574,
      "▁निचला": 6575,
      "earch": 6576,
      "▁लोगन": 6577,
      "▁Out": 6578,
      "▁Christ": 6579,
      "ption": 6580,
      "▁पूरे": 6581,
      "osition": 6582,
      "ंध्याचल": 6583,
      "ंडल": 6584,
      "▁Lat": 6585,
      "mphib": 6586,
      "▁फल": 6587,
      "▁फै": 6588,
      "▁फाय": 6589,
      "र्मण": 6590,
      "▁सामना": 6591,
      "aval": 6592,
      "▁बहुमूल": 6593,
      "▁लागल": 6594,
      "▁सरकारों": 6595,
      "▁Vis": 6596,
      "▁शासित": 6597,
      "▁पाई": 6598,
      "▁पांड": 6599,
      "▁क्षेत्रों": 6600,
      "ोलिथिक": 6601,
      "▁कारन": 6602,
      "▁जेकर": 6603,
      "▁जेवन": 6604,
      "▁जेकरा": 6605,
      "▁राष्ट्रभाषा": 6606,
      "ंग्रेजी": 6607,
      "156": 6608,
      "्मू": 6609,
      "्मपु": 6610,
      "१९४": 6611,
      "▁related": 6612,
      "▁धर्मों": 6613,
      "▁विशाल": 6614,
      "्राम": 6615,
      "ब्ब": 6616,
      "▁टै": 6617,
      "▁स्वरूप": 6618,
      "▁स्वतन्त्र": 6619,
      "▁भइले": 6620,
      "▁भइलें": 6621,
      "▁अप्र": 6622,
      "▁अपेक्षा": 6623,
      "▁ओडिया": 6624,
      "▁ओलंप": 6625,
      "▁जिसने": 6626,
      "▁जिसकी": 6627,
      "uck": 6628,
      "▁मही": 6629,
      "▁महात्मा": 6630,
      "▁बढ़ने": 6631,
      "▁लेकर": 6632,
      "▁चुकी": 6633,
      "ganised": 6634,
      "स्थाप": 6635,
      "▁देखाव": 6636,
      "▁लगे": 6637,
      "▁निर्धार": 6638,
      "▁पुरस्कार": 6639,
      "▁मुगल": 6640,
      "▁मुद्रा": 6641,
      "▁मुकाबला": 6642,
      "▁गुफा": 6643,
      "▁वर्षा": 6644,
      "ैनिक": 6645,
      "▁लोकतांत्रिक": 6646,
      "exist": 6647,
      "▁मध्यम": 6648,
      "▁संग्राम": 6649,
      "▁Commonwealth": 6650,
      "▁represent": 6651,
      "▁Mah": 6652,
      "▁खेलकूद": 6653,
      "▁अनुसू": 6654,
      "ंजन": 6655,
      "▁इंडस": 6656,
      "▁प्राचीनतम": 6657,
      "velopment": 6658,
      "▁साम्राज्यों": 6659,
      "िशा": 6660,
      "▁उत्पत्ति": 6661,
      "-सम": 6662,
      "▁गणतंत्र": 6663,
      "्यापक": 6664,
      "ोजना": 6665,
      "▁जिनहन": 6666,
      "350": 6667,
      "▁Bengali": 6668,
      "▁अभिय": 6669,
      "▁अभिन": 6670,
      "▁मोर्": 6671,
      "▁उनका": 6672,
      "▁उनकी": 6673,
      "▁उनहन": 6674,
      "-mar": 6675,
      "स्टर": 6676,
      "स्टमिन्": 6677,
      "▁कम्प": 6678,
      "▁किनारा": 6679,
      "▁बंगाली": 6680,
      "▁अल्प": 6681,
      "▁defeated": 6682,
      "▁निरूपण": 6683,
      "▁हिन्दुस्त": 6684,
      "▁पार्टियों": 6685,
      "orne": 6686,
      "▁ढाल": 6687,
      "▁महाकाव्य": 6688,
      "▁पहली": 6689,
      "▁आजादी": 6690,
      "▁गाँधी": 6691,
      "न्नई": 6692,
      "▁स्थापित": 6693,
      "प्रदेश": 6694,
      "▁आदर्श": 6695,
      "▁अवधि": 6696,
      "▁इतिहासकार": 6697,
      "▁accom": 6698,
      "-Al": 6699,
      "▁सूत्र": 6700,
      "▁प्रभावशाली": 6701,
      "▁प्राप्ति": 6702,
      "▁highly": 6703,
      "स्वरूप": 6704,
      "▁सकता": 6705,
      "▁सकते": 6706,
      "▁सक्रिय": 6707,
      "ार्द": 6708,
      "▁वेस्टमिन्": 6709,
      "▁अन्तर्": 6710,
      "▁अन्ततः": 6711,
      "▁छोड़कर": 6712,
      "▁ऊँचाई": 6713,
      "▁occupation": 6714,
      "▁refer": 6715,
      "ोत्तर": 6716,
      "▁मनमो": 6717,
      "▁केन्द्रीय": 6718,
      "▁केन्द्रशासित": 6719,
      "▁बैठक": 6720,
      "▁दलद": 6721,
      "▁नदियों": 6722,
      "▁प्रारम्भिक": 6723,
      "▁अनुमान": 6724,
      "ज्ञानिक": 6725,
      "▁present": 6726,
      "▁several": 6727,
      "▁आक्रम": 6728,
      "▁आकर्मण": 6729,
      "▁नवीन": 6730,
      "▁लंबा": 6731,
      "ampion": 6732,
      "▁खेला": 6733,
      "▁इंडोनेशिया": 6734,
      "▁प्रशासनिक": 6735,
      "▁मामिला": 6736,
      "▁सेवाओं": 6737,
      "▁उठा": 6738,
      "क्सचेंज": 6739,
      "▁सम्पूर्ण": 6740,
      "▁दूसरे": 6741,
      "▁निर्यातक": 6742,
      "▁समुंद्री": 6743,
      "▁Hindustan": 6744,
      "▁obs": 6745,
      "जोर": 6746,
      "भाषित": 6747,
      "▁जमीन": 6748,
      "▁जम्मू": 6749,
      "▁दसक": 6750,
      "▁वाले": 6751,
      "▁लड़ाकू": 6752,
      "▁उष्णकटिबंधीय": 6753,
      "▁उत्क": 6754,
      "▁पुरुषों": 6755,
      "▁आयातक": 6756,
      "▁पैमाना": 6757,
      "▁female": 6758,
      "▁कानून": 6759,
      "▁सिन्धु": 6760,
      "▁हस्तक्षेप": 6761,
      "▁बीसवीं": 6762,
      "▁जगह": 6763,
      "▁आसपास": 6764,
      "▁प्रतिनि": 6765,
      "▁प्रसारण": 6766,
      "▁तेज़ी": 6767,
      "▁परबत": 6768,
      "▁उभरा": 6769,
      "▁संरक्षण": 6770,
      "▁क्रयशक्ति": 6771,
      "▁टेलीविजन": 6772,
      "▁परिणामस्वरूप": 6773,
      "▁migration": 6774,
      "▁size": 6775,
      "▁reforms": 6776,
      "▁gods": 6777,
      "▁Machine": 6778,
      "होंने": 6779,
      "▁मणिपुरी": 6780,
      "▁बरिस": 6781,
      "▁अंडमान": 6782,
      "▁अहिंसा": 6783,
      "▁Class": 6784,
      "▁प्रत्येक": 6785,
      "▁प्रसिद्ध": 6786,
      "▁बाड़ें": 6787,
      "▁परिभाषित": 6788,
      "ास्टर": 6789,
      "▁चुनल": 6790,
      "▁Religion": 6791,
      "▁समझौ": 6792,
      "▁विरोध": 6793,
      "▁नेहरू": 6794,
      "▁बिदेसी": 6795,
      "▁ऊपरी": 6796,
      "▁आयोजित": 6797,
      "▁ब्रह्मपु": 6798,
      "▁तेलुगू": 6799,
      "▁मशीनरी": 6800,
      "▁वास्तविक": 6801,
      "osphere": 6802,
      ".world": 6803,
      "▁Wayback": 6804,
      "णिज्य": 6805,
      "पंथी": 6806,
      "ैधानिक": 6807,
      "ोमीटर": 6808,
      "▁किलोमीटर": 6809,
      "▁सौहार्द": 6810,
      "▁therefore": 6811,
      "▁मिश्र": 6812,
      "▁मिथक": 6813,
      "▁हासिल": 6814,
      "▁बतावल": 6815,
      "▁आंतरिक": 6816,
      "▁अंदर": 6817,
      "▁नर्मदा": 6818,
      "▁वार्षिक": 6819,
      "▁सेक्टर": 6820,
      "▁प्रकाश": 6821,
      "▁त्याग": 6822,
      "▁उड़ीसा": 6823,
      "▁संक्षिप्त": 6824,
      "▁संबोधित": 6825,
      "▁इकाई": 6826,
      "▁शिल्प": 6827,
      "▁साक्षरता": 6828,
      "▁यद्यपि": 6829,
      "▁विजयनगर": 6830,
      "▁धरोहर": 6831,
      "▁फायदा": 6832,
      "▁बहुमूल्य": 6833,
      "▁स्वतन्त्रता": 6834,
      "▁ओलंपिक": 6835,
      "▁देखावत": 6836,
      "▁वेस्टमिन्स्टर": 6837,
      "▁मनमोहन": 6838,
      "▁आक्रमण": 6839,
      "▁अहिंसावादी": 6840,
      "▁ब्रह्मपुत्र": 6841,
      "\"C": 6842,
      "-G": 6843,
      "-se": 6844,
      ".asp": 6845,
      "/E": 6846,
      "02": 6847,
      "540": 6848,
      "521": 6849,
      "84": 6850,
      "aith": 6851,
      "ause": 6852,
      "bably": 6853,
      "gadi": 6854,
      "how": 6855,
      "iam": 6856,
      "ires": 6857,
      "iqu": 6858,
      "lay": 6859,
      "mns": 6860,
      "ples": 6861,
      "preme": 6862,
      "uote": 6863,
      "vor": 6864,
      "wal": 6865,
      "where": 6866,
      "yam": 6867,
      "zed": 6868,
      "▁ir": 6869,
      "▁turn": 6870,
      "erved": 6871,
      "athan": 6872,
      "atives": 6873,
      "▁Id": 6874,
      "▁Im": 6875,
      "andy": 6876,
      "▁cust": 6877,
      "▁cris": 6878,
      "▁cuis": 6879,
      "oration": 6880,
      "orse": 6881,
      "▁according": 6882,
      "▁international": 6883,
      "▁win": 6884,
      "▁way": 6885,
      "▁pr": 6886,
      "▁past": 6887,
      "▁pass": 6888,
      "▁brief": 6889,
      "▁fam": 6890,
      "▁fac": 6891,
      "▁fami": 6892,
      "omas": 6893,
      "ential": 6894,
      "▁ling": 6895,
      "▁list": 6896,
      "▁late": 6897,
      "▁lab": 6898,
      "▁living": 6899,
      "▁Ad": 6900,
      "▁Co": 6901,
      "▁data": 6902,
      "▁down": 6903,
      "▁democratic": 6904,
      "▁domestic": 6905,
      "ura": 6906,
      "▁rest": 6907,
      "▁rece": 6908,
      "amed": 6909,
      "▁Between": 6910,
      "olent": 6911,
      "▁govern": 6912,
      "▁Party": 6913,
      "ull": 6914,
      "utt": 6915,
      "uture": 6916,
      "istics": 6917,
      "cha": 6918,
      "adem": 6919,
      "ateg": 6920,
      "▁former": 6921,
      "▁run": 6922,
      "ters": 6923,
      "▁story": 6924,
      "▁study": 6925,
      "▁supreme": 6926,
      "sease": 6927,
      "▁divor": 6928,
      "▁Kathak": 6929,
      "▁orally": 6930,
      "▁vol": 6931,
      "▁vary": 6932,
      "osa": 6933,
      "avened": 6934,
      "▁parties": 6935,
      "ousand": 6936,
      "▁close": 6937,
      "▁percent": 6938,
      "▁decl": 6939,
      "▁expectancy": 6940,
      "▁systems": 6941,
      "ika": 6942,
      "▁Cons": 6943,
      "245": 6944,
      "ajority": 6945,
      "▁meas": 6946,
      "▁meaning": 6947,
      "bank": 6948,
      "cycl": 6949,
      "▁Still": 6950,
      "▁Environment": 6951,
      "▁Encycl": 6952,
      "kets": 6953,
      "-day": 6954,
      "heduled": 6955,
      "▁scheduled": 6956,
      "ildlife": 6957,
      "-grow": 6958,
      "espite": 6959,
      "athematics": 6960,
      "▁occas": 6961,
      "▁occurred": 6962,
      "-majority": 6963,
      "▁prevent": 6964,
      "▁produced": 6965,
      "▁Muslims": 6966,
      "amble": 6967,
      "▁Kashmiri": 6968,
      "▁Development": 6969,
      "▁Biodiversity": 6970,
      "▁reflect": 6971,
      "▁flour": 6972,
      "▁figure": 6973,
      "▁severely": 6974,
      "▁nearly": 6975,
      "▁Movement": 6976,
      "▁policy": 6977,
      "/world": 6978,
      "▁complex": 6979,
      "▁Islamic": 6980,
      "▁affirm": 6981,
      "▁various": 6982,
      "▁limited": 6983,
      "▁Politics": 6984,
      "▁consumption": 6985,
      "▁returned": 6986,
      "▁Quote": 6987,
      "▁epic": 6988,
      "▁particular": 6989,
      "▁hymns": 6990,
      "▁victories": 6991,
      "▁pollution": 6992,
      "censusindia": 6993,
      "▁extinct": 6994,
      "▁expansion": 6995,
      "diatimes": 6996,
      "▁account": 6997,
      "▁eventually": 6998,
      "▁River": 6999,
      "otspots": 7000,
      "-Gangetic": 7001,
      ".aspx": 7002,
      "gadiverse": 7003,
      "▁family": 7004,
      "▁divorce": 7005,
      "(U": 7006,
      "-D": 7007,
      "-H": 7008,
      "-vi": 7009,
      ".ni": 7010,
      "/A": 7011,
      "/re": 7012,
      "34": 7013,
      "51": 7014,
      "57": 7015,
      "600": 7016,
      "bined": 7017,
      "cil": 7018,
      "cise": 7019,
      "ees": 7020,
      "ga": 7021,
      "gri": 7022,
      "gation": 7023,
      "hin": 7024,
      "hind": 7025,
      "house": 7026,
      "ores": 7027,
      "oetic": 7028,
      "rative": 7029,
      "tre": 7030,
      "tent": 7031,
      "tified": 7032,
      "wan": 7033,
      "wana": 7034,
      "▁i": 7035,
      "▁ess": 7036,
      "▁typ": 7037,
      "▁turned": 7038,
      "▁tuberculosis": 7039,
      "inated": 7040,
      "head": 7041,
      "hered": 7042,
      "erc": 7043,
      "ret": 7044,
      "reak": 7045,
      "atom": 7046,
      "atures": 7047,
      "stant": 7048,
      "arian": 7049,
      "anded": 7050,
      "▁Inc": 7051,
      "▁cut": 7052,
      "▁coun": 7053,
      "▁countries": 7054,
      "ority": 7055,
      "orial": 7056,
      "▁action": 7057,
      "▁where": 7058,
      "▁works": 7059,
      "▁sw": 7060,
      "▁she": 7061,
      "▁sil": 7062,
      "▁saw": 7063,
      "▁science": 7064,
      "▁pot": 7065,
      "▁piv": 7066,
      "▁bar": 7067,
      "▁back": 7068,
      "▁brought": 7069,
      "▁break": 7070,
      "▁food": 7071,
      "▁fram": 7072,
      "▁mand": 7073,
      "▁met": 7074,
      "▁mount": 7075,
      "▁mix": 7076,
      "oman": 7077,
      "asar": 7078,
      "entury": 7079,
      "▁live": 7080,
      "▁Times": 7081,
      "▁Ab": 7082,
      "▁Ahm": 7083,
      "▁emb": 7084,
      "▁evol": 7085,
      "▁emissions": 7086,
      "▁edict": 7087,
      "riors": 7088,
      "▁Can": 7089,
      "▁Cricket": 7090,
      "▁depend": 7091,
      "▁SI": 7092,
      "▁Su": 7093,
      "▁San": 7094,
      "▁Sat": 7095,
      "▁Sang": 7096,
      "▁Sab": 7097,
      "▁Sind": 7098,
      "▁hon": 7099,
      "▁hun": 7100,
      "▁house": 7101,
      "▁half": 7102,
      "ils": 7103,
      "ece": 7104,
      "▁nin": 7105,
      "▁narrow": 7106,
      "▁Bl": 7107,
      "▁Bal": 7108,
      "ollowing": 7109,
      "ceed": 7110,
      "▁They": 7111,
      "▁Mathematics": 7112,
      "veral": 7113,
      "▁give": 7114,
      "▁gained": 7115,
      "▁green": 7116,
      "▁Pri": 7117,
      "uln": 7118,
      "vey": 7119,
      "utta": 7120,
      "idel": 7121,
      "▁Na": 7122,
      "▁Netw": 7123,
      "mented": 7124,
      "▁fortified": 7125,
      "ango": 7126,
      "▁rit": 7127,
      "▁rati": 7128,
      "▁concept": 7129,
      "abh": 7130,
      "▁anatom": 7131,
      "▁died": 7132,
      "▁disease": 7133,
      "▁Kann": 7134,
      "▁UPA": 7135,
      "ritsar": 7136,
      "ritannica": 7137,
      "▁Fl": 7138,
      "▁Following": 7139,
      "common": 7140,
      "berg": 7141,
      "agana": 7142,
      "▁alliance": 7143,
      "▁vuln": 7144,
      "▁committe": 7145,
      "▁Odis": 7146,
      "▁Ocean": 7147,
      "▁Chha": 7148,
      "osing": 7149,
      "ressive": 7150,
      "ework": 7151,
      "▁chap": 7152,
      "▁chose": 7153,
      "▁changed": 7154,
      "▁probably": 7155,
      "ords": 7156,
      "niqu": 7157,
      "▁Vij": 7158,
      "stitutes": 7159,
      "▁plant": 7160,
      "meric": 7161,
      "lowed": 7162,
      "150": 7163,
      "152": 7164,
      "▁advan": 7165,
      "▁substant": 7166,
      "142": 7167,
      "143": 7168,
      "iferation": 7169,
      "▁agre": 7170,
      "rict": 7171,
      "▁seal": 7172,
      "▁seats": 7173,
      "▁decis": 7174,
      "▁compos": 7175,
      "▁exporter": 7176,
      "▁expanding": 7177,
      "406": 7178,
      "▁overran": 7179,
      "▁cost": 7180,
      "▁included": 7181,
      "▁polio": 7182,
      "▁medic": 7183,
      "▁latitud": 7184,
      "▁imple": 7185,
      "▁imper": 7186,
      "▁short": 7187,
      "▁generated": 7188,
      "▁generally": 7189,
      "cale": 7190,
      "▁resources": 7191,
      "▁Several": 7192,
      "▁rap": 7193,
      "▁Plain": 7194,
      "▁nonvi": 7195,
      ".indiatimes": 7196,
      "echniqu": 7197,
      "▁Eurasia": 7198,
      "-century": 7199,
      "▁extend": 7200,
      "▁extreme": 7201,
      "-west": 7202,
      "▁founded": 7203,
      "▁discrimin": 7204,
      "roliferation": 7205,
      "▁warriors": 7206,
      "▁colonial": 7207,
      "▁usually": 7208,
      "▁transform": 7209,
      "▁farmers": 7210,
      "▁contributed": 7211,
      "▁Sikhs": 7212,
      "▁herd": 7213,
      "▁nationalist": 7214,
      "▁coastal": 7215,
      "▁coastline": 7216,
      "▁remained": 7217,
      "▁sole": 7218,
      "ervation": 7219,
      "▁build": 7220,
      "▁ruled": 7221,
      "▁portion": 7222,
      "▁biodiversity": 7223,
      "▁rocky": 7224,
      "▁zone": 7225,
      "▁markets": 7226,
      "▁independent": 7227,
      "▁view": 7228,
      "▁violence": 7229,
      "▁temper": 7230,
      "▁cheetah": 7231,
      "▁annual": 7232,
      "▁spreading": 7233,
      "▁Foreign": 7234,
      "▁additional": 7235,
      "▁parents": 7236,
      "▁Malay": 7237,
      "▁attract": 7238,
      "▁pilgri": 7239,
      "▁vegetarian": 7240,
      "▁creating": 7241,
      "▁Nepal": 7242,
      "▁steamed": 7243,
      "▁Society": 7244,
      "laced": 7245,
      "▁initi": 7246,
      "▁numerals": 7247,
      "▁habitat": 7248,
      "mendments": 7249,
      "▁Capital": 7250,
      "▁levels": 7251,
      "▁Yakshagana": 7252,
      "▁Pallavas": 7253,
      "-economic": 7254,
      "▁communities": 7255,
      "▁Emergency": 7256,
      "ogamy": 7257,
      "▁Veda": 7258,
      "▁princes": 7259,
      "▁Amritsar": 7260,
      "▁Christian": 7261,
      "-Aligned": 7262,
      "▁Classical": 7263,
      "▁percentage": 7264,
      "▁pivotal": 7265,
      "▁framework": 7266,
      "▁edicts": 7267,
      "▁Chhau": 7268,
      "▁advanced": 7269,
      "▁imperial": 7270,
      "▁pilgrim": 7271,
      "\"M": 7272,
      "\"S": 7273,
      "\"b": 7274,
      "\"p": 7275,
      "(W": 7276,
      "(Ἰ": 7277,
      "(ii": 7278,
      "(inc": 7279,
      "-India": 7280,
      "-div": 7281,
      "/C": 7282,
      "/P": 7283,
      "08": 7284,
      "71": 7285,
      "aː": 7286,
      "business": 7287,
      "bellion": 7288,
      "britannica": 7289,
      "cro": 7290,
      "codi": 7291,
      "cked": 7292,
      "cla": 7293,
      "cutta": 7294,
      "down": 7295,
      "eously": 7296,
      "fort": 7297,
      "fact": 7298,
      "fied": 7299,
      "ground": 7300,
      "ginn": 7301,
      "hol": 7302,
      "hot": 7303,
      "ih": 7304,
      "iff": 7305,
      "kata": 7306,
      "kani": 7307,
      "lm": 7308,
      "lid": 7309,
      "link": 7310,
      "mology": 7311,
      "nc": 7312,
      "nov": 7313,
      "rs": 7314,
      "rical": 7315,
      "rine": 7316,
      "rising": 7317,
      "rtic": 7318,
      "set": 7319,
      "shy": 7320,
      "ups": 7321,
      "vas": 7322,
      "wl": 7323,
      "–c": 7324,
      "▁°": 7325,
      "▁₹": 7326,
      "▁tun": 7327,
      "▁techniqu": 7328,
      "indi": 7329,
      "hereas": 7330,
      "onse": 7331,
      "onkani": 7332,
      "alam": 7333,
      "▁open": 7334,
      "atter": 7335,
      "atory": 7336,
      "atyam": 7337,
      "string": 7338,
      "diment": 7339,
      "diff": 7340,
      "diction": 7341,
      "dients": 7342,
      "dified": 7343,
      "ardis": 7344,
      "arlung": 7345,
      "edabad": 7346,
      "itar": 7347,
      "itiz": 7348,
      "▁city": 7349,
      "▁cere": 7350,
      "▁citiz": 7351,
      "orb": 7352,
      "▁aut": 7353,
      "▁ach": 7354,
      "▁amphib": 7355,
      "▁amendments": 7356,
      "▁income": 7357,
      "▁innov": 7358,
      "▁wet": 7359,
      "▁wars": 7360,
      "▁web": 7361,
      "▁wind": 7362,
      "▁winn": 7363,
      "▁welf": 7364,
      "▁worship": 7365,
      "▁whereas": 7366,
      "▁sal": 7367,
      "▁sar": 7368,
      "▁same": 7369,
      "▁self": 7370,
      "▁savou": 7371,
      "▁sitar": 7372,
      "▁ple": 7373,
      "▁pet": 7374,
      "▁pul": 7375,
      "▁pop": 7376,
      "▁pants": 7377,
      "▁poin": 7378,
      "▁paper": 7379,
      "▁push": 7380,
      "ionary": 7381,
      "▁bal": 7382,
      "▁bul": 7383,
      "▁bodi": 7384,
      "▁brid": 7385,
      "▁bonds": 7386,
      "▁breath": 7387,
      "▁fil": 7388,
      "▁foetic": 7389,
      "▁mort": 7390,
      "▁manu": 7391,
      "▁make": 7392,
      "▁mater": 7393,
      "▁males": 7394,
      "isans": 7395,
      "isdiction": 7396,
      "asian": 7397,
      "▁leng": 7398,
      "▁larg": 7399,
      "▁Tha": 7400,
      "▁Acha": 7401,
      "▁either": 7402,
      "▁Cre": 7403,
      "▁Chess": 7404,
      "▁Climate": 7405,
      "▁Cups": 7406,
      "▁dem": 7407,
      "▁dest": 7408,
      "▁dry": 7409,
      "▁dense": 7410,
      "▁dhot": 7411,
      "▁Sant": 7412,
      "▁Sov": 7413,
      "▁Sund": 7414,
      "▁Sultanate": 7415,
      "▁Science": 7416,
      "▁Sharma": 7417,
      "▁hous": 7418,
      "▁host": 7419,
      "▁hubs": 7420,
      "▁hockey": 7421,
      "▁hotspots": 7422,
      "urta": 7423,
      "urrent": 7424,
      "urisdiction": 7425,
      "iland": 7426,
      "ilitated": 7427,
      "▁rept": 7428,
      "▁reign": 7429,
      "▁reform": 7430,
      "▁rebellion": 7431,
      "▁netw": 7432,
      "▁next": 7433,
      "▁Bah": 7434,
      "ety": 7435,
      "olved": 7436,
      "olkata": 7437,
      "▁Major": 7438,
      "veri": 7439,
      "▁gro": 7440,
      "▁gig": 7441,
      "▁gard": 7442,
      "▁Pub": 7443,
      "▁President": 7444,
      "iming": 7445,
      "imachal": 7446,
      "ook": 7447,
      "adra": 7448,
      "▁Dict": 7449,
      "emen": 7450,
      "▁Ety": 7451,
      "▁Have": 7452,
      "▁Himachal": 7453,
      "▁Gate": 7454,
      "idesp": 7455,
      "▁Nort": 7456,
      "▁NDA": 7457,
      "▁Nanda": 7458,
      "resolved": 7459,
      "▁onset": 7460,
      "▁behind": 7461,
      "▁beginn": 7462,
      "angana": 7463,
      "▁ranges": 7464,
      "▁rising": 7465,
      "otech": 7466,
      "otta": 7467,
      "terior": 7468,
      "▁stiff": 7469,
      "▁exerc": 7470,
      "▁Jud": 7471,
      "illing": 7472,
      "ials": 7473,
      "elag": 7474,
      "▁Kos": 7475,
      "▁Konkani": 7476,
      "▁Kolkata": 7477,
      "▁organisation": 7478,
      "ritory": 7479,
      "▁Femal": 7480,
      "▁Fisher": 7481,
      "▁united": 7482,
      "▁unitary": 7483,
      "▁untouchability": 7484,
      "▁uncommon": 7485,
      "▁unresolved": 7486,
      "▁Asians": 7487,
      "agara": 7488,
      "▁valley": 7489,
      "▁voted": 7490,
      "▁varna": 7491,
      "▁commission": 7492,
      "▁comfort": 7493,
      "acks": 7494,
      "ackets": 7495,
      "▁Over": 7496,
      "▁Oriya": 7497,
      "▁Chandi": 7498,
      "ending": 7499,
      "ishing": 7500,
      "avated": 7501,
      "▁chains": 7502,
      "assinated": 7503,
      "ajpay": 7504,
      "▁partially": 7505,
      "▁sport": 7506,
      "▁sports": 7507,
      "▁Vajpay": 7508,
      "▁cloth": 7509,
      "▁regist": 7510,
      "▁advent": 7511,
      "▁deleg": 7512,
      "▁kho": 7513,
      "▁kurta": 7514,
      "▁arms": 7515,
      "▁arisen": 7516,
      "alls": 7517,
      "▁marit": 7518,
      "▁marry": 7519,
      "▁marshy": 7520,
      "▁formally": 7521,
      "▁sediment": 7522,
      "▁decreasing": 7523,
      "▁company": 7524,
      "▁comprising": 7525,
      "luding": 7526,
      "▁artic": 7527,
      "▁artistic": 7528,
      "▁artists": 7529,
      "▁artisans": 7530,
      "lof": 7531,
      "▁ending": 7532,
      "ologically": 7533,
      "ologue": 7534,
      "▁includes": 7535,
      "▁consist": 7536,
      "▁model": 7537,
      "rendra": 7538,
      "▁megadiverse": 7539,
      "▁inform": 7540,
      "▁peak": 7541,
      "▁peace": 7542,
      "▁terrac": 7543,
      "▁caus": 7544,
      "▁notable": 7545,
      "231": 7546,
      "▁shoulder": 7547,
      "▁shores": 7548,
      "▁repeated": 7549,
      "▁Mahat": 7550,
      "▁increasing": 7551,
      "awatts": 7552,
      "▁jurisdiction": 7553,
      "▁jackets": 7554,
      "▁able": 7555,
      "-des": 7556,
      "▁Alliance": 7557,
      "▁applied": 7558,
      "▁raid": 7559,
      "111": 7560,
      "▁southwest": 7561,
      "▁followed": 7562,
      "▁emphas": 7563,
      "-gather": 7564,
      "▁Thomas": 7565,
      "▁Eurasian": 7566,
      "▁Eastern": 7567,
      "-co": 7568,
      "▁grand": 7569,
      "-scale": 7570,
      "ronic": 7571,
      "▁output": 7572,
      "-millennium": 7573,
      "-world": 7574,
      "-western": 7575,
      "▁literary": 7576,
      "▁literature": 7577,
      "ultaneously": 7578,
      "▁thereafter": 7579,
      "▁settle": 7580,
      "▁defin": 7581,
      "ibr": 7582,
      "▁mainly": 7583,
      "▁enab": 7584,
      "▁Shastri": 7585,
      "ugu": 7586,
      "▁produce": 7587,
      "▁playing": 7588,
      "▁territorial": 7589,
      "▁access": 7590,
      "▁display": 7591,
      "▁contributes": 7592,
      "▁lasted": 7593,
      "▁assassinated": 7594,
      "echnological": 7595,
      "▁coasts": 7596,
      "▁Report": 7597,
      "▁diffused": 7598,
      "▁shared": 7599,
      "▁shawl": 7600,
      "▁industrial": 7601,
      "▁soon": 7602,
      "▁Devi": 7603,
      "▁Rajiv": 7604,
      "▁Rajput": 7605,
      "▁paintings": 7606,
      "ointed": 7607,
      "▁neigh": 7608,
      "erves": 7609,
      "▁intervention": 7610,
      "▁ruling": 7611,
      "▁rulers": 7612,
      "hyan": 7613,
      "▁flan": 7614,
      "▁feature": 7615,
      "▁biotech": 7616,
      "▁villages": 7617,
      "▁historically": 7618,
      "▁historians": 7619,
      "▁archaic": 7620,
      "▁Gujarati": 7621,
      "▁presence": 7622,
      "▁president": 7623,
      "▁devast": 7624,
      "▁devotion": 7625,
      "▁married": 7626,
      "▁carved": 7627,
      "▁commerce": 7628,
      "▁endemism": 7629,
      "visional": 7630,
      "▁dominion": 7631,
      "▁dominance": 7632,
      "akhand": 7633,
      "ofindia": 7634,
      "▁obstruct": 7635,
      "▁temples": 7636,
      "▁affairs": 7637,
      "▁workforce": 7638,
      "▁flowering": 7639,
      "▁annually": 7640,
      "▁consider": 7641,
      "▁births": 7642,
      "▁civilian": 7643,
      "▁panoram": 7644,
      "▁ethical": 7645,
      "ettled": 7646,
      "▁Forest": 7647,
      "▁everyday": 7648,
      "▁respect": 7649,
      "▁response": 7650,
      "▁Dalit": 7651,
      "▁subsequently": 7652,
      "▁survives": 7653,
      "▁legislature": 7654,
      "avira": 7655,
      "▁females": 7656,
      "▁visit": 7657,
      "(Artic": 7658,
      "-east": 7659,
      "▁layer": 7660,
      "▁Manipur": 7661,
      "▁creativity": 7662,
      "▁involved": 7663,
      "▁involving": 7664,
      "▁Telangana": 7665,
      "▁Telugu": 7666,
      "ighth": 7667,
      "▁Gondwana": 7668,
      "▁Nepali": 7669,
      "▁extensively": 7670,
      "▁Uttarakhand": 7671,
      "-style": 7672,
      "MetcalfMetcalf": 7673,
      "▁taxes": 7674,
      "▁renewable": 7675,
      "▁reliefs": 7676,
      "▁Ministry": 7677,
      "▁service": 7678,
      "▁Tibetan": 7679,
      "▁factor": 7680,
      "/articleshow": 7681,
      "-Proliferation": 7682,
      "▁persist": 7683,
      "▁Geography": 7684,
      "▁characteristic": 7685,
      "▁calend": 7686,
      "▁separat": 7687,
      "▁patron": 7688,
      "▁Exp": 7689,
      "ayanagara": 7690,
      "▁supercontinent": 7691,
      "▁climatic": 7692,
      "-Congress": 7693,
      "▁cosine": 7694,
      "▁Territory": 7695,
      "▁standardis": 7696,
      "▁Lankan": 7697,
      "▁expression": 7698,
      "ustralian": 7699,
      "▁Madhya": 7700,
      "-knit": 7701,
      "yalty": 7702,
      "arbans": 7703,
      "▁cleared": 7704,
      "▁crocodi": 7705,
      "▁fashion": 7706,
      "▁towns": 7707,
      "▁Marathi": 7708,
      "▁gender": 7709,
      "▁isolation": 7710,
      "▁threatened": 7711,
      "▁excavated": 7712,
      "▁Olympics": 7713,
      "▁exported": 7714,
      "▁shalwar": 7715,
      "▁railways": 7716,
      "▁supplanted": 7717,
      "▁associated": 7718,
      "▁Assamese": 7719,
      "▁blackbuck": 7720,
      "▁safeguard": 7721,
      "▁strongly": 7722,
      "▁liberalisation": 7723,
      "▁Zoroastrianism": 7724,
      "▁merchants": 7725,
      "▁bronze": 7726,
      "▁Nataraja": 7727,
      "▁John": 7728,
      "▁Calcutta": 7729,
      "▁deciduous": 7730,
      "▁Simultaneously": 7731,
      "▁Golden": 7732,
      "▁Kaveri": 7733,
      "ocument": 7734,
      "existing": 7735,
      "-market": 7736,
      ".worldbank": 7737,
      "▁briefly": 7738,
      "ademi": 7739,
      "▁formerly": 7740,
      "▁volcan": 7741,
      "-growing": 7742,
      "▁occasions": 7743,
      "-violence": 7744,
      "▁essential": 7745,
      "▁Ahmedabad": 7746,
      "▁dependent": 7747,
      "▁Satpura": 7748,
      "▁Sabha": 7749,
      "▁hunter": 7750,
      "▁ninth": 7751,
      "▁greenhouse": 7752,
      "▁Narendra": 7753,
      "▁Kannada": 7754,
      "▁vulnerable": 7755,
      "▁Odisha": 7756,
      "▁Vijayanagara": 7757,
      "▁substantially": 7758,
      "▁agreem": 7759,
      "▁rapidly": 7760,
      "▁nonviolent": 7761,
      "▁extends": 7762,
      "▁extremely": 7763,
      "▁transformed": 7764,
      "▁building": 7765,
      "▁Malayalam": 7766,
      "▁Christianity": 7767,
      "(Ἰνδ": 7768,
      "(including": 7769,
      "claiming": 7770,
      "vasive": 7771,
      "▁cereal": 7772,
      "▁citizens": 7773,
      "▁winds": 7774,
      "▁winning": 7775,
      "▁welfare": 7776,
      "▁savoury": 7777,
      "▁petro": 7778,
      "▁points": 7779,
      "▁bulk": 7780,
      "▁bodies": 7781,
      "▁bride": 7782,
      "▁breathing": 7783,
      "▁foeticide": 7784,
      "▁mortality": 7785,
      "▁manufact": 7786,
      "▁materials": 7787,
      "▁length": 7788,
      "▁larger": 7789,
      "▁Thailand": 7790,
      "▁Achaemen": 7791,
      "▁dhoti": 7792,
      "▁Soviet": 7793,
      "▁Sundarbans": 7794,
      "▁houses": 7795,
      "▁gigawatts": 7796,
      "▁garden": 7797,
      "▁Dictionary": 7798,
      "▁Etymology": 7799,
      "idespread": 7800,
      "▁Northeast": 7801,
      "▁beginnings": 7802,
      "▁Kosi": 7803,
      "▁Female": 7804,
      "▁comfortable": 7805,
      "▁Chandigarh": 7806,
      "▁Vajpayee": 7807,
      "▁delegates": 7808,
      "▁information": 7809,
      "▁terracotta": 7810,
      "▁repeatedly": 7811,
      "▁Mahatma": 7812,
      "-gatherers": 7813,
      "▁settlement": 7814,
      "▁Rajputs": 7815,
      "▁neighb": 7816,
      "▁standardised": 7817,
      "\"G": 7818,
      "(India": 7819,
      "-on": 7820,
      "-th": 7821,
      "-ch": 7822,
      "-of": 7823,
      "..": 7824,
      "/N": 7825,
      "/a": 7826,
      "/st": 7827,
      "03": 7828,
      "094": 7829,
      "119": 7830,
      "116": 7831,
      "317": 7832,
      "428": 7833,
      "92": 7834,
      "_S": 7835,
      "cast": 7836,
      "ful": 7837,
      "hit": 7838,
      "jan": 7839,
      "ka": 7840,
      "mod": 7841,
      "pr": 7842,
      "times": 7843,
      "ui": 7844,
      "uistic": 7845,
      "wa": 7846,
      "wart": 7847,
      "zberg": 7848,
      "▁tri": 7849,
      "reed": 7850,
      "enn": 7851,
      "ences": 7852,
      "ster": 7853,
      "stre": 7854,
      "aration": 7855,
      "▁sour": 7856,
      "▁Trade": 7857,
      "▁Br": 7858,
      "▁Bib": 7859,
      "rag": 7860,
      "thn": 7861,
      "isti": 7862,
      "uss": 7863,
      "igence": 7864,
      "owland": 7865,
      "▁Educ": 7866,
      "▁Ethn": 7867,
      "dule": 7868,
      "kshit": 7869,
      "efore": 7870,
      "content": 7871,
      "acity": 7872,
      "▁Chisti": 7873,
      "ghan": 7874,
      "apan": 7875,
      "▁Ludd": 7876,
      "▁Libr": 7877,
      "263": 7878,
      "▁deb": 7879,
      "▁Art": 7880,
      "123": 7881,
      "▁Commission": 7882,
      "ights": 7883,
      "▁Music": 7884,
      "▁Prog": 7885,
      "▁territory": 7886,
      "-Australian": 7887,
      "▁News": 7888,
      "▁Afghan": 7889,
      "▁text": 7890,
      ".nlm": 7891,
      "visions": 7892,
      "/detail": 7893,
      "argah": 7894,
      "▁like": 7895,
      "telligence": 7896,
      "▁Marri": 7897,
      "porary": 7898,
      "▁Salim": 7899,
      "mittances": 7900,
      ".cms": 7901,
      "ategic": 7902,
      "▁Conservation": 7903,
      ".nih": 7904,
      "wartzberg": 7905,
      "▁Ludden": 7906,
      "\"In": 7907,
      "'र": 7908,
      "(p": 7909,
      "(ए": 7910,
      "(ओ": 7911,
      "(ज": 7912,
      "(ब": 7913,
      "(भ": 7914,
      "(म": 7915,
      "(य": 7916,
      "(ल": 7917,
      "(स": 7918,
      "(ह": 7919,
      "-a": 7920,
      "-क": 7921,
      "-ज": 7922,
      "-ह": 7923,
      "-le": 7924,
      "-li": 7925,
      "-तर": 7926,
      "-mon": 7927,
      "/G": 7928,
      "/वर": 7929,
      "06": 7930,
      "113": 7931,
      "210": 7932,
      "415": 7933,
      "421": 7934,
      "800": 7935,
      "98": 7936,
      "by": 7937,
      "ier": 7938,
      "jected": 7939,
      "las": 7940,
      "lace": 7941,
      "men": 7942,
      "metic": 7943,
      "not": 7944,
      "oard": 7945,
      "rink": 7946,
      "uff": 7947,
      "vard": 7948,
      "went": 7949,
      "ंख": 7950,
      "ंरिक": 7951,
      "ंतु": 7952,
      "आई": 7953,
      "आर": 7954,
      "ईल": 7955,
      "एस": 7956,
      "ओस": 7957,
      "कत": 7958,
      "कन": 7959,
      "क्र": 7960,
      "कों": 7961,
      "कता": 7962,
      "करे": 7963,
      "कणी": 7964,
      "कोर्ट": 7965,
      "खक": 7966,
      "खल": 7967,
      "खे": 7968,
      "खण्ड": 7969,
      "गण": 7970,
      "गू": 7971,
      "गार": 7972,
      "ग्री": 7973,
      "गुरू": 7974,
      "छे": 7975,
      "टा": 7976,
      "ट्य": 7977,
      "टान": 7978,
      "ठन": 7979,
      "डम": 7980,
      "ण्ण": 7981,
      "त्याद": 7982,
      "तवाँ": 7983,
      "त्मक": 7984,
      "तंरिक": 7985,
      "थन": 7986,
      "थिल": 7987,
      "थवा": 7988,
      "दय": 7989,
      "दु": 7990,
      "दान": 7991,
      "दड़": 7992,
      "दूर": 7993,
      "दर्शन": 7994,
      "धता": 7995,
      "धारी": 7996,
      "नो": 7997,
      "निस": 7998,
      "नंद": 7999,
      "न्तु": 8000,
      "निरपेक्ष": 8001,
      "पद": 8002,
      "पक्ष": 8003,
      "पुर": 8004,
      "पमान": 8005,
      "पाली": 8006,
      "पटल": 8007,
      "प्पा": 8008,
      "फ्टवेयर": 8009,
      "बाल": 8010,
      "बिन": 8011,
      "बाद": 8012,
      "बेट": 8013,
      "बंगा": 8014,
      "बाजी": 8015,
      "भो": 8016,
      "भाजन": 8017,
      "मर": 8018,
      "मु": 8019,
      "म्य": 8020,
      "मित": 8021,
      "म्प": 8022,
      "म्म": 8023,
      "मड़ा": 8024,
      "मास्टर": 8025,
      "मबेट": 8026,
      "यी": 8027,
      "यंती": 8028,
      "रस": 8029,
      "रहा": 8030,
      "रने": 8031,
      "रेशन": 8032,
      "लग": 8033,
      "लत": 8034,
      "लब": 8035,
      "लस": 8036,
      "लाल": 8037,
      "वार": 8038,
      "वान": 8039,
      "वधान": 8040,
      "वली": 8041,
      "वनी": 8042,
      "वाने": 8043,
      "वजूद": 8044,
      "वश्य": 8045,
      "शि": 8046,
      "शे": 8047,
      "श्व": 8048,
      "श्रेणी": 8049,
      "षण": 8050,
      "सर": 8051,
      "सन्द": 8052,
      "सुल": 8053,
      "सत्त": 8054,
      "सियस": 8055,
      "ही": 8056,
      "हरा": 8057,
      "़री": 8058,
      "़ेड": 8059,
      "ांड": 8060,
      "ाधिकार": 8061,
      "ाक्षर": 8062,
      "िता": 8063,
      "िटे": 8064,
      "िग्री": 8065,
      "ीरी": 8066,
      "ीकार": 8067,
      "ीधे": 8068,
      "ुआ": 8069,
      "ुब": 8070,
      "ुरी": 8071,
      "ुट्ट": 8072,
      "ुस्लिम": 8073,
      "ुण्ण": 8074,
      "ूत्र": 8075,
      "ूदी": 8076,
      "ूटि": 8077,
      "ूमर": 8078,
      "ूषण": 8079,
      "ृह": 8080,
      "ृष्": 8081,
      "ेन्नई": 8082,
      "ैल": 8083,
      "ैटे": 8084,
      "ॉप": 8085,
      "ोली": 8086,
      "ौतम": 8087,
      "ौलत": 8088,
      "्द": 8089,
      "्हा": 8090,
      "्लिक": 8091,
      "्थित": 8092,
      "१४": 8093,
      "१६": 8094,
      "१००": 8095,
      "१२०": 8096,
      "२३": 8097,
      "३२": 8098,
      "३७": 8099,
      "३८": 8100,
      "४३": 8101,
      "५२": 8102,
      "६६": 8103,
      "७९": 8104,
      "–द": 8105,
      "▁कउ": 8106,
      "▁कब": 8107,
      "▁कों": 8108,
      "▁कने": 8109,
      "▁कमा": 8110,
      "▁काली": 8111,
      "▁कवि": 8112,
      "▁कहे": 8113,
      "▁कहीं": 8114,
      "▁कच्च": 8115,
      "▁कंक": 8116,
      "▁क्यों": 8117,
      "▁कबो": 8118,
      "▁कृष्": 8119,
      "▁क्लिक": 8120,
      "▁trigonomet": 8121,
      "▁सॉ": 8122,
      "▁सार": 8123,
      "▁स्र": 8124,
      "▁सर्": 8125,
      "▁स्त": 8126,
      "▁सित": 8127,
      "▁सिल": 8128,
      "▁सक्ष": 8129,
      "▁सन्": 8130,
      "▁सुख": 8131,
      "▁सारा": 8132,
      "▁सतर": 8133,
      "▁स्त्र": 8134,
      "▁सत्त": 8135,
      "▁सिक्": 8136,
      "▁सैटे": 8137,
      "ont": 8138,
      "▁म्या": 8139,
      "▁माने": 8140,
      "▁मंत्री": 8141,
      "▁मंच": 8142,
      "▁केस": 8143,
      "▁केदार": 8144,
      "ारसी": 8145,
      "▁पों": 8146,
      "▁पका": 8147,
      "▁पुल": 8148,
      "▁पत्": 8149,
      "▁पब्लिक": 8150,
      "▁पोर्ट": 8151,
      "▁पसन्द": 8152,
      "dias": 8153,
      "disp": 8154,
      "arth": 8155,
      "ेंट": 8156,
      "्रणी": 8157,
      "्रभु": 8158,
      "्रिलियन": 8159,
      "▁IUCN": 8160,
      "▁हार": 8161,
      "▁हड़": 8162,
      "▁हनन": 8163,
      "▁भाब": 8164,
      "▁भगत": 8165,
      "▁बहा": 8166,
      "▁ब्यवस्था": 8167,
      "▁बहे": 8168,
      "▁बेक": 8169,
      "▁बिलियन": 8170,
      "▁ब्यापक": 8171,
      "▁poss": 8172,
      "्यान": 8173,
      "▁जंग": 8174,
      "▁जोग": 8175,
      "▁जवा": 8176,
      "▁जारी": 8177,
      "▁जुग": 8178,
      "▁जुद्ध": 8179,
      "▁जयंती": 8180,
      "▁must": 8181,
      "ision": 8182,
      "▁आए": 8183,
      "▁आने": 8184,
      "▁आया": 8185,
      "▁आसा": 8186,
      "▁आंध": 8187,
      "▁आजी": 8188,
      "▁आयु": 8189,
      "▁आपू": 8190,
      "▁आवं": 8191,
      "▁आतंरिक": 8192,
      "▁आनंद": 8193,
      "▁आवश्य": 8194,
      "▁भारते": 8195,
      "▁अगर": 8196,
      "▁अरु": 8197,
      "▁अत्य": 8198,
      "▁अक्स": 8199,
      "▁अजं": 8200,
      "▁अथवा": 8201,
      "▁दर्": 8202,
      "▁दाल": 8203,
      "▁दिस": 8204,
      "▁दाद": 8205,
      "▁दहे": 8206,
      "▁दूर": 8207,
      "▁दमन": 8208,
      "▁दर्जा": 8209,
      "▁द्रो": 8210,
      "▁रंग": 8211,
      "▁रसा": 8212,
      "▁राम": 8213,
      "▁रेज": 8214,
      "▁रतन": 8215,
      "▁रेड": 8216,
      "▁रीति": 8217,
      "▁रुप": 8218,
      "▁न्य": 8219,
      "▁नात": 8220,
      "▁नीत": 8221,
      "▁निक्ष": 8222,
      "▁निकल": 8223,
      "▁नेशन": 8224,
      "▁नये": 8225,
      "▁नीव": 8226,
      "▁India–": 8227,
      "र्स": 8228,
      "र्ता": 8229,
      "ानि": 8230,
      "ानपान": 8231,
      "ानूनी": 8232,
      "▁वन": 8233,
      "▁वी": 8234,
      "▁वित": 8235,
      "▁विल": 8236,
      "▁व्या": 8237,
      "▁वक्त": 8238,
      "▁वाम": 8239,
      "▁वस्त": 8240,
      "▁Trans": 8241,
      "▁Aff": 8242,
      "▁Amb": 8243,
      "▁even": 8244,
      "▁evidence": 8245,
      "rific": 8246,
      "▁लड़": 8247,
      "▁लम्ब": 8248,
      "▁लौट": 8249,
      "lements": 8250,
      "ियर": 8251,
      "ियोग": 8252,
      "्ती": 8253,
      "्त्री": 8254,
      "▁Craven": 8255,
      "▁सेमी": 8256,
      "▁सेल्": 8257,
      "▁प्रमाण": 8258,
      "▁प्रेस": 8259,
      "▁Sum": 8260,
      "▁Sche": 8261,
      "▁गीत": 8262,
      "▁गरब": 8263,
      "▁गुरु": 8264,
      "▁गये": 8265,
      "▁गिनल": 8266,
      "▁ग़री": 8267,
      "▁गौतम": 8268,
      "▁तल": 8269,
      "▁त्र": 8270,
      "▁तला": 8271,
      "▁तरी": 8272,
      "▁तरा": 8273,
      "▁तनाव": 8274,
      "▁तत्": 8275,
      "▁तिथ": 8276,
      "▁तीव": 8277,
      "▁तहत": 8278,
      "▁hand": 8279,
      "▁home": 8280,
      "urs": 8281,
      "ाज़": 8282,
      "ाजकता": 8283,
      "▁But": 8284,
      "▁BBC": 8285,
      "▁Before": 8286,
      "▁बाँ": 8287,
      "▁बाणिज्य": 8288,
      "▁बावजूद": 8289,
      "▁एफ": 8290,
      "▁एल": 8291,
      "▁एसो": 8292,
      "▁एक्सचेंज": 8293,
      "▁Mango": 8294,
      "▁परिस": 8295,
      "▁पर्या": 8296,
      "▁परंतु": 8297,
      "▁परन्तु": 8298,
      "▁उम": 8299,
      "▁उर्द": 8300,
      "▁उदय": 8301,
      "ula": 8302,
      "▁संप्र": 8303,
      "▁संसार": 8304,
      "▁संस्थाप": 8305,
      "नाभ": 8306,
      "नावा": 8307,
      "नाट्य": 8308,
      "्वा": 8309,
      "▁इह": 8310,
      "▁इंज": 8311,
      "▁इंट": 8312,
      "▁इण्ड": 8313,
      "▁इत्याद": 8314,
      "▁कांग्रेस": 8315,
      "▁काश्म": 8316,
      "▁कीमत": 8317,
      "vest": 8318,
      "▁श्री": 8319,
      "▁शिकार": 8320,
      "▁शूटि": 8321,
      "िसी": 8322,
      "िसमस": 8323,
      "क्ल": 8324,
      "क्के": 8325,
      "ित्व": 8326,
      "ड़िया": 8327,
      "gest": 8328,
      "ads": 8329,
      "ास्त्र": 8330,
      "ासिकल": 8331,
      "▁साँच": 8332,
      "▁साफ़": 8333,
      "▁साधन": 8334,
      "▁सातवाँ": 8335,
      "▁चो": 8336,
      "▁चंद्र": 8337,
      "▁चेर": 8338,
      "▁चाय": 8339,
      "▁चन्द्र": 8340,
      "▁चित्र": 8341,
      "▁चरम": 8342,
      "▁चमड़ा": 8343,
      "▁चेन्नई": 8344,
      "िनी": 8345,
      "ाती": 8346,
      "irls": 8347,
      "लावी": 8348,
      "लाईट": 8349,
      "▁Rig": 8350,
      "emporary": 8351,
      "▁राजीव": 8352,
      "▁राजगुरू": 8353,
      "▁यू": 8354,
      "▁यक्ष": 8355,
      "▁यहा": 8356,
      "▁यूप": 8357,
      "▁यून": 8358,
      "▁योजना": 8359,
      "▁यमु": 8360,
      "▁यानि": 8361,
      "▁Elect": 8362,
      "▁Eighth": 8363,
      "▁Gra": 8364,
      "त्री": 8365,
      "▁Nations": 8366,
      "ithmetic": 8367,
      "▁करत": 8368,
      "▁करवा": 8369,
      "▁करवाने": 8370,
      "ota": 8371,
      "ंगड़ा": 8372,
      "ंगीत": 8373,
      "▁समरस": 8374,
      "▁एकाधिकार": 8375,
      "ोगरी": 8376,
      "▁कोर": 8377,
      "▁कोसी": 8378,
      "▁कोपे": 8379,
      "िलित": 8380,
      "सेदारी": 8381,
      "▁विरु": 8382,
      "▁विधि": 8383,
      "▁विभाग": 8384,
      "▁विधायिका": 8385,
      "▁विंध्याचल": 8386,
      "▁stru": 8387,
      "स्थ": 8388,
      "्यावर्": 8389,
      "▁ख़": 8390,
      "▁खोल": 8391,
      "▁खड़ा": 8392,
      "▁खाद": 8393,
      "▁खिला": 8394,
      "▁खतम": 8395,
      "search": 8396,
      "abs": 8397,
      "राण": 8398,
      "रायल": 8399,
      "राथन": 8400,
      "▁नेपाली": 8401,
      "▁भीमबेट": 8402,
      "▁अनिवार": 8403,
      "▁अनसुल": 8404,
      "aken": 8405,
      "िमी": 8406,
      "िमेंट": 8407,
      "▁order": 8408,
      "ंदरब": 8409,
      "▁When": 8410,
      "ults": 8411,
      "▁ईहे": 8412,
      "माता": 8413,
      "वाह": 8414,
      "ीनिय": 8415,
      "▁धो": 8416,
      "▁धँस": 8417,
      "▁धम्म": 8418,
      "▁नागा": 8419,
      "▁निवेश": 8420,
      "याब": 8421,
      "▁इसने": 8422,
      "्ट्री": 8423,
      "्ट्रेल": 8424,
      "ींस": 8425,
      "▁पूरब": 8426,
      "▁रूपए": 8427,
      "▁रूपरे": 8428,
      "द्धिक": 8429,
      "द्देश": 8430,
      "▁देव": 8431,
      "▁देता": 8432,
      "▁देते": 8433,
      "▁देसी": 8434,
      "ाष्ट्रपि": 8435,
      "▁स्मार": 8436,
      "▁जाये": 8437,
      "▁जापान": 8438,
      "▁Lond": 8439,
      "▁साथे": 8440,
      "▁फार्म": 8441,
      "▁सामिल": 8442,
      "▁सामने": 8443,
      "▁change": 8444,
      "▁जनगण": 8445,
      "िरु": 8446,
      "िराज्य": 8447,
      "्प्र": 8448,
      "्पत्ति": 8449,
      "▁सरदार": 8450,
      "▁बहुध": 8451,
      "▁बहुपक्ष": 8452,
      "▁लागू": 8453,
      "▁लावनी": 8454,
      "aju": 8455,
      "▁देशन": 8456,
      "क्ता": 8457,
      "वेल्": 8458,
      "▁पावल": 8459,
      "264": 8460,
      "▁राष्ट्रन": 8461,
      "▁राष्ट्रों": 8462,
      "▁प्रावधान": 8463,
      "्मिक": 8464,
      "▁द्वीप": 8465,
      "▁ke": 8466,
      "▁बिद्व": 8467,
      "▁बिधी": 8468,
      "▁बिचा": 8469,
      "▁बिचला": 8470,
      "▁बिहू": 8471,
      "▁बिहारी": 8472,
      "▁बिभाजन": 8473,
      "▁धर्मनिरपेक्ष": 8474,
      "129": 8475,
      "▁घर": 8476,
      "▁घुस": 8477,
      "▁घनि": 8478,
      "▁घूमर": 8479,
      "्चित": 8480,
      "▁गइलें": 8481,
      "▁subject": 8482,
      "163": 8483,
      "▁टा": 8484,
      "▁ट्रिलियन": 8485,
      "▁स्वर्ण": 8486,
      "▁स्वशासित": 8487,
      "▁स्वीकार": 8488,
      "▁अपील": 8489,
      "▁यहूदी": 8490,
      "ीपीपी": 8491,
      "▁छूट": 8492,
      "▁जिसे": 8493,
      "▁उपज": 8494,
      "▁उपदेश": 8495,
      "▁उपग्र": 8496,
      "▁उपभो": 8497,
      "ंपरिक": 8498,
      "▁महान": 8499,
      "▁महिला": 8500,
      "▁पूर्वोत्तर": 8501,
      "▁बढ़त": 8502,
      "▁बढ़ा": 8503,
      "▁लेखक": 8504,
      "हरगढ़": 8505,
      "हरलाल": 8506,
      "▁अधिकतर": 8507,
      "▁लिंग": 8508,
      "▁उत्तरदाय": 8509,
      "▁मानी": 8510,
      "हनजो": 8511,
      "▁संघे": 8512,
      "▁देखो": 8513,
      "▁देखने": 8514,
      "▁देखते": 8515,
      "▁विश्वनाथ": 8516,
      "▁विश्वपटल": 8517,
      "विधता": 8518,
      "▁हवेली": 8519,
      "▁लगावे": 8520,
      "▁गोवा": 8521,
      "▁गोदा": 8522,
      "▁गोहू": 8523,
      "▁निर्माता": 8524,
      "▁ऊर्जा": 8525,
      "▁डच": 8526,
      "▁डांड": 8527,
      "▁डिग्री": 8528,
      "▁डोगरी": 8529,
      "▁पुराने": 8530,
      "▁पुराना": 8531,
      "▁मुम्ब": 8532,
      "▁केंद्रित": 8533,
      "▁केंद्रशासित": 8534,
      "▁भाई": 8535,
      "▁भांगड़ा": 8536,
      "▁भूबि": 8537,
      "▁भूटान": 8538,
      "▁जोर": 8539,
      "▁गुट": 8540,
      "▁गुटन": 8541,
      "▁करेगी": 8542,
      "289": 8543,
      "ूरब": 8544,
      "ूरुब": 8545,
      "ेरल": 8546,
      "▁दक्कन": 8547,
      "▁मध्यप्रदेश": 8548,
      "▁बनीं": 8549,
      "▁संगठन": 8550,
      "▁हिस्सों": 8551,
      "▁हिस्सेदारी": 8552,
      "▁Under": 8553,
      "मेंट": 8554,
      "िवाज": 8555,
      "िवेश": 8556,
      "▁बिसेस": 8557,
      "▁बीचे": 8558,
      "▁नामों": 8559,
      "▁मैदानों": 8560,
      "ानांतर": 8561,
      "▁इलावा": 8562,
      "▁खेलन": 8563,
      "कालिक": 8564,
      "कालीन": 8565,
      "तिकारी": 8566,
      "म्बर": 8567,
      "▁क्रस्ट": 8568,
      "▁क्रिसमस": 8569,
      "▁सुबिध": 8570,
      "▁सुभाष": 8571,
      "▁सुघर": 8572,
      "▁सुदूर": 8573,
      "▁सुधारी": 8574,
      "▁सुंदरब": 8575,
      "▁पारसी": 8576,
      "▁पारिवार": 8577,
      "▁पारंपरिक": 8578,
      "▁इंडियन": 8579,
      "▁बनाए": 8580,
      "▁बनाता": 8581,
      "▁मुख्यरूप": 8582,
      "ांस": 8583,
      "िशाली": 8584,
      "िश्चित": 8585,
      "▁सीट": 8586,
      "▁ईसाई": 8587,
      "रुत्": 8588,
      "शास्त्र": 8589,
      "सदन": 8590,
      "०००": 8591,
      "▁गणित": 8592,
      "▁कामयाब": 8593,
      "279": 8594,
      "ज़न": 8595,
      "वीर": 8596,
      "arsh": 8597,
      "▁जिनका": 8598,
      "▁जिनहना": 8599,
      "▁हिमालयी": 8600,
      "359": 8601,
      "opedia": 8602,
      "▁अभि": 8603,
      "▁असफल": 8604,
      "▁असैनिक": 8605,
      "▁दशहरा": 8606,
      "▁नेताजी": 8607,
      "461": 8608,
      "-sh": 8609,
      "ोषण": 8610,
      "▁कपास": 8611,
      "▁बदौलत": 8612,
      "▁नियंत्रण": 8613,
      "र्षित": 8614,
      "▁चलल": 8615,
      "▁चलने": 8616,
      "▁न्यायक्षेत्र": 8617,
      "▁outside": 8618,
      "ography": 8619,
      "कल्प": 8620,
      "िपत्य": 8621,
      "▁कमजोर": 8622,
      "▁ब्रिटे": 8623,
      "▁अल्पा": 8624,
      "▁तीसरा": 8625,
      "▁तीसरे": 8626,
      "▁इनका": 8627,
      "तिहासिक": 8628,
      "▁निरपेक्ष": 8629,
      "▁पार्टियां": 8630,
      "▁हिंदुस्त": 8631,
      "▁ढाँच": 8632,
      "▁कॉमन": 8633,
      "▁महाद्वीप": 8634,
      "▁महाभारत": 8635,
      "▁महावीर": 8636,
      "▁पैंती": 8637,
      "▁बौद्धिक": 8638,
      "▁आजाद": 8639,
      "▁गाँव": 8640,
      "न्नति": 8641,
      "▁कुलीन": 8642,
      "432": 8643,
      "ieties": 8644,
      "ेडरल": 8645,
      "ेडरेशन": 8646,
      "▁माता": 8647,
      "▁पड़ल": 8648,
      "▁पड़े": 8649,
      "▁आगरा": 8650,
      "▁आपात": 8651,
      "▁आपके": 8652,
      "▁अवसा": 8653,
      "▁दुनों": 8654,
      "▁इतिहासी": 8655,
      "ुरुआती": 8656,
      "-free": 8657,
      "archive": 8658,
      "▁disputed": 8659,
      "त्यक्ष": 8660,
      "धीश": 8661,
      "▁टेनिस": 8662,
      "▁सहज": 8663,
      "▁सूची": 8664,
      "▁पर्वतम": 8665,
      "▁चीन्हा": 8666,
      "▁उत्तरा": 8667,
      "▁सिंधी": 8668,
      "valli": 8669,
      "सिएशन": 8670,
      "स्विक": 8671,
      "स्वरुप": 8672,
      "▁मूल्यों": 8673,
      "ार्कट": 8674,
      "▁हाइ": 8675,
      "▁हाथ": 8676,
      "▁तटों": 8677,
      "▁विभाजन": 8678,
      "▁विभाजित": 8679,
      "▁वर्गीकरण": 8680,
      "▁छोड़े": 8681,
      "▁युद्धों": 8682,
      "cessful": 8683,
      "tiles": 8684,
      "▁Aravalli": 8685,
      "डीए": 8686,
      "▁मनोर": 8687,
      "▁बैंक": 8688,
      "▁बैस्विक": 8689,
      "▁जाले": 8690,
      "▁दलहन": 8691,
      "▁अनुया": 8692,
      "▁अनुपात": 8693,
      "▁न्यायालयों": 8694,
      "▁दिहलस": 8695,
      "▁else": 8696,
      "▁मैथिल": 8697,
      "▁मौसम": 8698,
      "▁बजार": 8699,
      "▁आकर्षित": 8700,
      "▁अग्रणी": 8701,
      "▁अफगान": 8702,
      "▁रूचि": 8703,
      "▁रेखा": 8704,
      "▁नवगठ": 8705,
      "▁ग्रैंड": 8706,
      "▁गतिमान": 8707,
      "▁गतिशील": 8708,
      "▁शहरीकरण": 8709,
      "▁चाहे": 8710,
      "▁जनतांत्रिक": 8711,
      "▁अमेरिकी": 8712,
      "बीसी": 8713,
      "▁कश्मीरी": 8714,
      "▁सोशल": 8715,
      "▁मामले": 8716,
      "▁पुर्त": 8717,
      "▁जइसन": 8718,
      "▁जिन्हे": 8719,
      "▁अशांति": 8720,
      "▁प्रदर्शन": 8721,
      "▁ताकि": 8722,
      "▁ताकत": 8723,
      "▁तापमान": 8724,
      "▁उठान": 8725,
      "▁राजाओं": 8726,
      "▁सम्प्रभु": 8727,
      "▁वर्णित": 8728,
      "▁बिबिधता": 8729,
      "▁पहिलहीं": 8730,
      "▁दूसर": 8731,
      "▁दूसरा": 8732,
      "▁simple": 8733,
      "-आक": 8734,
      "-आर": 8735,
      "वर्ग": 8736,
      "१८५": 8737,
      "▁ऐसे": 8738,
      "▁ऐसी": 8739,
      "▁ऐतिहासिक": 8740,
      "▁मसुरी": 8741,
      "▁पीढ़": 8742,
      "▁बिकास": 8743,
      "▁जैसी": 8744,
      "▁अधीन": 8745,
      "▁अधिराज्य": 8746,
      "▁वालों": 8747,
      "▁लड़ाई": 8748,
      "ाजनपद": 8749,
      "▁पर्यटक": 8750,
      "▁उन्होंने": 8751,
      "▁शक्तियों": 8752,
      "▁शक्तिशाली": 8753,
      "▁होलीं": 8754,
      "▁उत्थान": 8755,
      "▁प्रायद्वीप": 8756,
      "▁मध्यकालीन": 8757,
      "▁पहिनावा": 8758,
      "▁अमरीका": 8759,
      "▁बदलती": 8760,
      "▁पैमाने": 8761,
      "▁मंत्रिमंडल": 8762,
      "▁इस्लामी": 8763,
      "/files": 8764,
      "▁likely": 8765,
      "▁Chandra": 8766,
      "चेरी": 8767,
      "समूह": 8768,
      "ुक्यों": 8769,
      "▁कानूनी": 8770,
      "▁कन्नड": 8771,
      "▁कन्नड़": 8772,
      "▁सिन्धी": 8773,
      "▁मतलब": 8774,
      "▁मेहरगढ़": 8775,
      "▁मात्र": 8776,
      "▁मात्रा": 8777,
      "▁हस्ताक्षर": 8778,
      "▁बीसवी": 8779,
      "▁आठवीं": 8780,
      "▁अरथ": 8781,
      "▁अराजकता": 8782,
      "▁रखने": 8783,
      "▁राशि": 8784,
      "▁रोके": 8785,
      "▁प्रतियोग": 8786,
      "▁तेजी": 8787,
      "▁उभरी": 8788,
      "▁शाखा": 8789,
      "▁शहरों": 8790,
      "▁योग्य": 8791,
      "▁फिल्म": 8792,
      "▁सामान्य": 8793,
      "▁भूगोलीय": 8794,
      "▁क्रमशः": 8795,
      "▁पर्वतश्रेणी": 8796,
      "▁टेलीविज़न": 8797,
      "▁epics": 8798,
      "▁Robb": 8799,
      "(आध": 8800,
      "ोबार": 8801,
      "▁कर्मियों": 8802,
      "▁कंपनी": 8803,
      "▁कंपनियों": 8804,
      "▁मीणा": 8805,
      "▁मीडिया": 8806,
      "▁मूंग": 8807,
      "▁मार्शल": 8808,
      "▁पुनरुत्": 8809,
      "▁बहती": 8810,
      "▁बीसीसी": 8811,
      "▁बीबीसी": 8812,
      "▁बोस": 8813,
      "▁ज़्यादा": 8814,
      "▁आर्यावर्": 8815,
      "▁अक्षुण्ण": 8816,
      "▁अक्षांस": 8817,
      "▁दौरान": 8818,
      "िक्शन": 8819,
      "िकारिक": 8820,
      "▁वाँ": 8821,
      "▁तिब्ब": 8822,
      "▁एवम": 8823,
      "▁साझा": 8824,
      "▁साझेदारी": 8825,
      "▁चालुक्यों": 8826,
      "▁चलाया": 8827,
      "ंगीण": 8828,
      "▁पूर्णतः": 8829,
      "▁जनमल": 8830,
      "▁शासकीय": 8831,
      "▁ओडिशा": 8832,
      "▁ओडिसी": 8833,
      "▁अंग्रेजों": 8834,
      "▁न्यायाधिकार": 8835,
      "▁न्यायाधीश": 8836,
      "▁भरतनाट्य": 8837,
      "▁पहाड़ियाँ": 8838,
      "▁प्रायदीपी": 8839,
      "▁निम्नवत": 8840,
      "▁बांग्लादेश": 8841,
      "▁नागरिकों": 8842,
      "ournal": 8843,
      "▁Harle": 8844,
      "▁Rao": 8845,
      "बन्ध": 8846,
      "▁क्लासिकल": 8847,
      "▁क्रांतिकारी": 8848,
      "▁सशस्त्र": 8849,
      "▁मछरी": 8850,
      "▁मनाए": 8851,
      "▁भाषी": 8852,
      "▁बेटे": 8853,
      "▁बर्तमान": 8854,
      "▁बँटवारा": 8855,
      "▁जुड़": 8856,
      "▁जन्म": 8857,
      "▁अर्ध": 8858,
      "▁दीपसमूह": 8859,
      "▁नरेंद्र": 8860,
      "▁नौसेना": 8861,
      "▁निकोबार": 8862,
      "▁नक्शा": 8863,
      "र्तिकर्ता": 8864,
      "▁वैश्व": 8865,
      "▁लक्षदीप": 8866,
      "▁गिनावल": 8867,
      "▁गिरे": 8868,
      "▁उल्ले": 8869,
      "▁संचालित": 8870,
      "▁इजरायल": 8871,
      "▁चैम्प": 8872,
      "▁चैनल": 8873,
      "▁करोड": 8874,
      "▁सम्मिलित": 8875,
      "▁खासकर": 8876,
      "▁फलस्वरुप": 8877,
      "▁फैला": 8878,
      "▁पांड्य": 8879,
      "▁भइलेन": 8880,
      "▁अप्रत्यक्ष": 8881,
      "▁महीने": 8882,
      "▁निर्धारित": 8883,
      "▁मध्यमवर्ग": 8884,
      "▁अनुसूची": 8885,
      "▁इंडस्ट्री": 8886,
      "-समय": 8887,
      "▁अभियानों": 8888,
      "▁मोर्चा": 8889,
      "▁कम्पनी": 8890,
      "▁अल्पमत": 8891,
      "▁हिन्दुस्तान": 8892,
      "▁सूत्रपात": 8893,
      "▁अन्तर्गत": 8894,
      "▁दलदली": 8895,
      "▁खेलाड़ी": 8896,
      "▁उठाया": 8897,
      "▁उत्कर्ष": 8898,
      "▁समझौते": 8899,
      "▁सौहार्दपूर्ण": 8900,
      "▁मिश्रित": 8901,
      "▁Ident": 8902,
      "hindu": 8903,
      "▁ritual": 8904,
      "▁achie": 8905,
      "stream": 8906,
      "▁Ethnologue": 8907,
      "▁Afghanistan": 8908,
      "(एन": 8909,
      "(ओर": 8910,
      "-तरह": 8911,
      "-monsoon": 8912,
      "दड़ो": 8913,
      "बिनेट": 8914,
      "रनेट": 8915,
      "शेखर": 8916,
      "़ेडेरल": 8917,
      "▁कोंकणी": 8918,
      "▁कनेक्शन": 8919,
      "▁कालीबंगा": 8920,
      "▁कच्चा": 8921,
      "▁कंकड": 8922,
      "▁क्योंकि": 8923,
      "▁कृष्णा": 8924,
      "▁स्रोत": 8925,
      "▁सर्वा": 8926,
      "▁स्तूप": 8927,
      "▁सक्षम": 8928,
      "▁सुखदेव": 8929,
      "▁सैटेलाईट": 8930,
      "▁मंचों": 8931,
      "▁पोंगल": 8932,
      "▁पकावल": 8933,
      "▁पुलिस": 8934,
      "▁पोर्टल": 8935,
      "▁हड़प्पा": 8936,
      "▁भाबर": 8937,
      "▁बेकती": 8938,
      "▁जंगलों": 8939,
      "▁जवाहरलाल": 8940,
      "▁आसाम": 8941,
      "▁आंध्र": 8942,
      "▁आजीविका": 8943,
      "▁आपूर्तिकर्ता": 8944,
      "▁आवश्यक": 8945,
      "▁अक्सरहा": 8946,
      "▁अजंता": 8947,
      "▁दर्ज़": 8948,
      "▁दादरा": 8949,
      "▁दहेज": 8950,
      "▁रसायन": 8951,
      "▁रेजिमेंट": 8952,
      "▁रेडियो": 8953,
      "▁निक्षेप": 8954,
      "▁निकलल": 8955,
      "▁नेशनल": 8956,
      "▁वित्त": 8957,
      "▁वस्तु": 8958,
      "▁सेल्सियस": 8959,
      "▁Schedule": 8960,
      "▁गरबा": 8961,
      "▁ग़रीबी": 8962,
      "▁तलाक": 8963,
      "▁तरीका": 8964,
      "▁तराई": 8965,
      "▁तत्कालीन": 8966,
      "▁तिथि": 8967,
      "▁तीव्र": 8968,
      "▁एसोसिएशन": 8969,
      "▁परिस्थित": 8970,
      "▁पर्याप्त": 8971,
      "▁उर्दू": 8972,
      "▁संस्थापक": 8973,
      "▁इंजीनिय": 8974,
      "▁इंटरनेट": 8975,
      "▁इण्डिया": 8976,
      "▁इत्यादि": 8977,
      "▁काश्मीर": 8978,
      "▁शूटिंग": 8979,
      "▁साँची": 8980,
      "▁चंद्रशेखर": 8981,
      "लावीरा": 8982,
      "▁यक्षगान": 8983,
      "▁यहां": 8984,
      "▁यूपीए": 8985,
      "▁यूनानी": 8986,
      "▁यमुना": 8987,
      "▁कोपेन": 8988,
      "▁विरुद्ध": 8989,
      "▁भीमबेटका": 8990,
      "▁अनिवार्य": 8991,
      "▁अनसुलझ": 8992,
      "▁पूरबी": 8993,
      "▁रूपरेखा": 8994,
      "ाष्ट्रपिता": 8995,
      "▁London": 8996,
      "▁जनगणना": 8997,
      "▁बहुपक्षीय": 8998,
      "वेल्थ": 8999,
      "▁बिद्वान": 9000,
      "▁घनिष्ठ": 9001,
      "▁उपग्रह": 9002,
      "▁उपभोक्ता": 9003,
      "हनजोदड़ो": 9004,
      "▁गोदावरी": 9005,
      "▁गोहूँ": 9006,
      "▁डांडिया": 9007,
      "▁मुम्बई": 9008,
      "▁गुटनिरपेक्ष": 9009,
      "▁बिसेसता": 9010,
      "▁सुबिधा": 9011,
      "▁सुधारीकरण": 9012,
      "▁सुंदरबन": 9013,
      "▁पारिवारिक": 9014,
      "▁ब्रिटेन": 9015,
      "▁अल्पाइन": 9016,
      "▁ढाँचा": 9017,
      "▁कॉमनवेल्थ": 9018,
      "▁महाद्वीपों": 9019,
      "▁पैंतीस": 9020,
      "▁पर्वतमाला": 9021,
      "ार्कटिका": 9022,
      "▁मनोरंजन": 9023,
      "▁मैथिली": 9024,
      "▁अफगानिस्तान": 9025,
      "▁नवगठित": 9026,
      "▁ग्रैंडमास्टर": 9027,
      "▁सोशलिस्ट": 9028,
      "▁पुर्तगाल": 9029,
      "▁प्रतियोगिता": 9030,
      "▁पुनरुत्थान": 9031,
      "▁आर्यावर्त": 9032,
      "▁भरतनाट्यम": 9033,
      "▁चैम्पियंस": 9034,
      "\"L": 9035,
      "\"O": 9036,
      "(a": 9037,
      "-ru": 9038,
      "-asia": 9039,
      "/D": 9040,
      "/h": 9041,
      "/sp": 9042,
      "118": 9043,
      "117": 9044,
      "126": 9045,
      "219": 9046,
      "215": 9047,
      "58": 9048,
      "546": 9049,
      "545": 9050,
      "61": 9051,
      "67": 9052,
      "CIA": 9053,
      "ID": 9054,
      "MC": 9055,
      "_re": 9056,
      "bra": 9057,
      "caste": 9058,
      "dates": 9059,
      "data": 9060,
      "gra": 9061,
      "hic": 9062,
      "hami": 9063,
      "iens": 9064,
      "lor": 9065,
      "laration": 9066,
      "mo": 9067,
      "mund": 9068,
      "nam": 9069,
      "pani": 9070,
      "post": 9071,
      "rou": 9072,
      "rance": 9073,
      "rata": 9074,
      "uth": 9075,
      "upta": 9076,
      "wing": 9077,
      "wide": 9078,
      "well": 9079,
      "yl": 9080,
      "yer": 9081,
      "yond": 9082,
      "ṇa": 9083,
      "▁|": 9084,
      "▁rig": 9085,
      "▁ens": 9086,
      "▁treat": 9087,
      "onia": 9088,
      "atab": 9089,
      "▁Imp": 9090,
      "orities": 9091,
      "▁will": 9092,
      "▁sol": 9093,
      "▁sap": 9094,
      "▁sources": 9095,
      "▁full": 9096,
      "▁missing": 9097,
      "omo": 9098,
      "omic": 9099,
      "204": 9100,
      "enth": 9101,
      "entral": 9102,
      "▁lost": 9103,
      "▁Tod": 9104,
      "▁elements": 9105,
      "191": 9106,
      "▁dep": 9107,
      "▁detail": 9108,
      "▁Srin": 9109,
      "urden": 9110,
      "urvey": 9111,
      "ames": 9112,
      "▁Bro": 9113,
      "eton": 9114,
      "olas": 9115,
      "radition": 9116,
      "▁Ph": 9117,
      "▁Public": 9118,
      "ully": 9119,
      "utrit": 9120,
      "uslim": 9121,
      "gebra": 9122,
      "unct": 9123,
      "▁Don": 9124,
      "opic": 9125,
      "▁beyond": 9126,
      "▁while": 9127,
      "▁still": 9128,
      "▁Just": 9129,
      "▁Japan": 9130,
      "▁Journal": 9131,
      "▁With": 9132,
      "▁Wildlife": 9133,
      "constitution": 9134,
      "▁Food": 9135,
      "aged": 9136,
      "acher": 9137,
      "102": 9138,
      "108": 9139,
      "agement": 9140,
      "apat": 9141,
      "▁prop": 9142,
      "anguage": 9143,
      "▁contra": 9144,
      "260": 9145,
      "266": 9146,
      "ruit": 9147,
      "▁regard": 9148,
      "▁death": 9149,
      "▁arithmetic": 9150,
      "122": 9151,
      "160": 9152,
      "lective": 9153,
      "▁decimal": 9154,
      "▁Anand": 9155,
      "lob": 9156,
      "402": 9157,
      "refer": 9158,
      "exts": 9159,
      "▁societies": 9160,
      "▁Mao": 9161,
      "incely": 9162,
      "▁roti": 9163,
      "351": 9164,
      "▁Mughals": 9165,
      "-get": 9166,
      "lishing": 9167,
      "▁Engineering": 9168,
      "431": 9169,
      "▁transmission": 9170,
      "▁Reg": 9171,
      "ield": 9172,
      "ringer": 9173,
      "clus": 9174,
      "333": 9175,
      "▁Madras": 9176,
      "othermund": 9177,
      "▁introduction": 9178,
      "abaddi": 9179,
      "/indic": 9180,
      "▁Atlas": 9181,
      "etermin": 9182,
      "▁Dikshit": 9183,
      "bbc": 9184,
      "▁Social": 9185,
      "▁particip": 9186,
      "▁opposed": 9187,
      "▁provin": 9188,
      "▁Schwartzberg": 9189,
      "covery": 9190,
      "▁successful": 9191,
      "▁geographical": 9192,
      "-selective": 9193,
      "▁Education": 9194,
      "▁Commissioner": 9195,
      "/details": 9196,
      "▁Affairs": 9197,
      "▁achievement": 9198,
      "hicle": 9199,
      "▁sapiens": 9200,
      "utrition": 9201,
      "\"E": 9202,
      "'E": 9203,
      "(ఇ": 9204,
      "(ఉ": 9205,
      "(ట": 9206,
      "(త": 9207,
      "(బ": 9208,
      "(భ": 9209,
      "(య": 9210,
      "(ర": 9211,
      "(శ": 9212,
      "(స": 9213,
      "(CE": 9214,
      "(the": 9215,
      "-S": 9216,
      "-ఆ": 9217,
      "-ఇ": 9218,
      "-ఖ": 9219,
      "-ట": 9220,
      "-భ": 9221,
      "-మ": 9222,
      "-or": 9223,
      "-ter": 9224,
      "-own": 9225,
      "-dis": 9226,
      "-పర": 9227,
      ".ed": 9228,
      ".uk": 9229,
      "/India": 9230,
      "/econom": 9231,
      "220": 9232,
      "212": 9233,
      "224": 9234,
      "343": 9235,
      "426": 9236,
      "52": 9237,
      "562": 9238,
      "65": 9239,
      "627": 9240,
      "740": 9241,
      "90": 9242,
      "AG": 9243,
      "BBC": 9244,
      "C%": 9245,
      "GDP": 9246,
      "II": 9247,
      "NA": 9248,
      "TS": 9249,
      "_D": 9250,
      "_e": 9251,
      "_val": 9252,
      "app": 9253,
      "bul": 9254,
      "bhā": 9255,
      "cing": 9256,
      "eaking": 9257,
      "fast": 9258,
      "files": 9259,
      "ger": 9260,
      "gir": 9261,
      "gative": 9262,
      "ief": 9263,
      "iley": 9264,
      "ji": 9265,
      "journ": 9266,
      "killed": 9267,
      "lf": 9268,
      "mc": 9269,
      "mā": 9270,
      "nt": 9271,
      "po": 9272,
      "pic": 9273,
      "pect": 9274,
      "vial": 9275,
      "vail": 9276,
      "ward": 9277,
      "ymbol": 9278,
      "zz": 9279,
      "āmā": 9280,
      "ంతి": 9281,
      "ంపా": 9282,
      "ంజి": 9283,
      "ంజీ": 9284,
      "ఋతు": 9285,
      "ఒక": 9286,
      "ఔట్": 9287,
      "కల": 9288,
      "కళ": 9289,
      "క్ర": 9290,
      "కల్": 9291,
      "కమైన": 9292,
      "క్యం": 9293,
      "కళి": 9294,
      "కెట్": 9295,
      "కమేన": 9296,
      "కత్తా": 9297,
      "కాహార": 9298,
      "ఖిక": 9299,
      "ఖకు": 9300,
      "గృ": 9301,
      "గల్": 9302,
      "గించ": 9303,
      "గులు": 9304,
      "గింది": 9305,
      "గపు": 9306,
      "గలి": 9307,
      "ఘు": 9308,
      "ఘిక": 9309,
      "చన": 9310,
      "చీ": 9311,
      "చూ": 9312,
      "చ్": 9313,
      "చార": 9314,
      "చర్": 9315,
      "చల్": 9316,
      "చులు": 9317,
      "చింది": 9318,
      "చిత": 9319,
      "చారం": 9320,
      "చిత్ర": 9321,
      "చనలో": 9322,
      "చెట్ట": 9323,
      "ఛే": 9324,
      "ఛాయుత": 9325,
      "జా": 9326,
      "జ్ర": 9327,
      "జన్": 9328,
      "జిన": 9329,
      "జిత": 9330,
      "జర్వ": 9331,
      "జపా": 9332,
      "జెండ": 9333,
      "జనాలు": 9334,
      "జాతి": 9335,
      "జెట్": 9336,
      "జవహ": 9337,
      "ఞాన": 9338,
      "టక": 9339,
      "టన": 9340,
      "టె": 9341,
      "టే": 9342,
      "టో": 9343,
      "టంలో": 9344,
      "టాయి": 9345,
      "ట్యం": 9346,
      "టచే": 9347,
      "టంతో": 9348,
      "టాట": 9349,
      "టర్ల": 9350,
      "టమూ": 9351,
      "ఠీ": 9352,
      "డ్య": 9353,
      "డాలు": 9354,
      "డింది": 9355,
      "డ్చ": 9356,
      "డ్ల": 9357,
      "డవస్థ": 9358,
      "డానికి": 9359,
      "డించింది": 9360,
      "డారి": 9361,
      "డించి": 9362,
      "డతాయి": 9363,
      "ఢవి": 9364,
      "ణం": 9365,
      "ణే": 9366,
      "ణిక": 9367,
      "ణాలు": 9368,
      "ణుల": 9369,
      "ణదారులు": 9370,
      "తల": 9371,
      "తే": 9372,
      "తాన": 9373,
      "తారం": 9374,
      "తమై": 9375,
      "తాలతో": 9376,
      "తెలుగు": 9377,
      "థన": 9378,
      "థమ": 9379,
      "థి": 9380,
      "థాత": 9381,
      "థిక్": 9382,
      "దీ": 9383,
      "దూ": 9384,
      "దాన": 9385,
      "దీయ": 9386,
      "దంలో": 9387,
      "దారు": 9388,
      "దీర్": 9389,
      "దర్శ": 9390,
      "దగినది": 9391,
      "దాబాదు": 9392,
      "ధం": 9393,
      "ధా": 9394,
      "ధాల": 9395,
      "ధిన": 9396,
      "ధనా": 9397,
      "ధిల్ల": 9398,
      "ధుమ": 9399,
      "నత": 9400,
      "నూ": 9401,
      "నై": 9402,
      "న్య": 9403,
      "నల్": 9404,
      "నంలో": 9405,
      "నవి": 9406,
      "నికి": 9407,
      "నర్వ": 9408,
      "ననీ": 9409,
      "నబడిన": 9410,
      "నవచ్చు": 9411,
      "నమో": 9412,
      "నసా": 9413,
      "నప్పటికినీ": 9414,
      "నకల": 9415,
      "పద": 9416,
      "పబ": 9417,
      "పవ": 9418,
      "పే": 9419,
      "పస్": 9420,
      "పలి": 9421,
      "పట్": 9422,
      "ప్రా": 9423,
      "పించింది": 9424,
      "పతులు": 9425,
      "పత్యం": 9426,
      "పెట్ట": 9427,
      "పడుతున్న": 9428,
      "ఫల": 9429,
      "ఫ్ట": 9430,
      "ఫరా": 9431,
      "ఫిక్": 9432,
      "బల": 9433,
      "బై": 9434,
      "బాల్": 9435,
      "బద్ధం": 9436,
      "బుల్": 9437,
      "భ్య": 9438,
      "భరత": 9439,
      "మ్": 9440,
      "మార": 9441,
      "మ్య": 9442,
      "మిం": 9443,
      "మస్": 9444,
      "మిక": 9445,
      "మాయ": 9446,
      "మాత": 9447,
      "మంత": 9448,
      "ములు": 9449,
      "మంలో": 9450,
      "మలి": 9451,
      "మికి": 9452,
      "మర్జ": 9453,
      "మార్త": 9454,
      "యి": 9455,
      "యర్": 9456,
      "యస్": 9457,
      "యిన": 9458,
      "యులు": 9459,
      "యంలో": 9460,
      "యాత్ర": 9461,
      "యంతో": 9462,
      "యన్మ": 9463,
      "యనులు": 9464,
      "రలో": 9465,
      "రద్": 9466,
      "రత్": 9467,
      "రంత": 9468,
      "రము": 9469,
      "రతు": 9470,
      "రెండ": 9471,
      "రవే": 9472,
      "రమే": 9473,
      "రారి": 9474,
      "రించే": 9475,
      "రమై": 9476,
      "రక్షరాస్యత": 9477,
      "రకూ": 9478,
      "రవిం": 9479,
      "రూపం": 9480,
      "రచింది": 9481,
      "రఫరా": 9482,
      "రబద్ధం": 9483,
      "లల": 9484,
      "లహ": 9485,
      "లె": 9486,
      "లిన": 9487,
      "లిత": 9488,
      "లీన": 9489,
      "లకాల": 9490,
      "లబె": 9491,
      "లమాన": 9492,
      "లసిల్లు": 9493,
      "లబై": 9494,
      "ళులు": 9495,
      "ళుక": 9496,
      "ళాఖ": 9497,
      "ళూరు": 9498,
      "ళవిం": 9499,
      "వర": 9500,
      "వస": 9501,
      "వీ": 9502,
      "వై": 9503,
      "వార": 9504,
      "వలు": 9505,
      "వరు": 9506,
      "వలి": 9507,
      "వస్తు": 9508,
      "వమి": 9509,
      "వుల": 9510,
      "వంటి": 9511,
      "వలను": 9512,
      "వరీ": 9513,
      "వరాలు": 9514,
      "శై": 9515,
      "శాల": 9516,
      "శలో": 9517,
      "శాలు": 9518,
      "శంలో": 9519,
      "శారు": 9520,
      "శ్రా": 9521,
      "శ్వ": 9522,
      "శాతం": 9523,
      "షా": 9524,
      "షే": 9525,
      "షాలు": 9526,
      "షకాహార": 9527,
      "షనల్": 9528,
      "సం": 9529,
      "సే": 9530,
      "సొ": 9531,
      "సాల": 9532,
      "సాలు": 9533,
      "సగా": 9534,
      "సిన": 9535,
      "సార్": 9536,
      "స్రి": 9537,
      "సరా": 9538,
      "సభా": 9539,
      "సమి": 9540,
      "సాహ": 9541,
      "సత్త": 9542,
      "సారిగా": 9543,
      "సెస్": 9544,
      "సరిస్త": 9545,
      "సాయుత": 9546,
      "సరమై": 9547,
      "హక": 9548,
      "హ్": 9549,
      "హాలు": 9550,
      "హాయ": 9551,
      "హపు": 9552,
      "హిత": 9553,
      "హ్మ": 9554,
      "హావ": 9555,
      "హాస": 9556,
      "ాది": 9557,
      "ాము": 9558,
      "ాంటి": 9559,
      "ాసు": 9560,
      "ాగో": 9561,
      "ాశ్ర": 9562,
      "ానిస్తాన్": 9563,
      "ాదాయంలో": 9564,
      "ాధిన": 9565,
      "ాళుక": 9566,
      "ిష్ట": 9567,
      "ిస్తు": 9568,
      "ిపాల": 9569,
      "ిగి": 9570,
      "ిస్తారు": 9571,
      "ిలే": 9572,
[...]
